{
  "version": "1.0",
  "truncation": null,
  "padding": null,
  "added_tokens": [
    {
      "id": 0,
      "content": "[PAD]",
      "single_word": false,
      "lstrip": false,
      "rstrip": false,
      "normalized": false,
      "special": true
    },
    {
      "id": 1,
      "content": "[UNK]",
      "single_word": false,
      "lstrip": false,
      "rstrip": false,
      "normalized": false,
      "special": true
    },
    {
      "id": 2,
      "content": "[CLS]",
      "single_word": false,
      "lstrip": false,
      "rstrip": false,
      "normalized": false,
      "special": true
    },
    {
      "id": 3,
      "content": "[SEP]",
      "single_word": false,
      "lstrip": false,
      "rstrip": false,
      "normalized": false,
      "special": true
    },
    {
      "id": 4,
      "content": "[MASK]",
      "single_word": false,
      "lstrip": false,
      "rstrip": false,
      "normalized": false,
      "special": true
    }
  ],
  "normalizer": {
    "type": "BertNormalizer",
    "clean_text": true,
    "handle_chinese_chars": true,
    "strip_accents": null,
    "lowercase": true
  },
  "pre_tokenizer": {
    "type": "BertPreTokenizer"
  },
  "post_processor": {
    "type": "TemplateProcessing",
    "single": [
      {
        "SpecialToken": {
          "id": "[CLS]",
          "type_id": 0
        }
      },
      {
        "Sequence": {
          "id": "A",
          "type_id": 0
        }
      },
      {
        "SpecialToken": {
          "id": "[SEP]",
          "type_id": 0
        }
      }
    ],
    "pair": [
      {
        "SpecialToken": {
          "id": "[CLS]",
          "type_id": 0
        }
      },
      {
        "Sequence": {
          "id": "A",
          "type_id": 0
        }
      },
      {
        "SpecialToken": {
          "id": "[SEP]",
          "type_id": 0
        }
      },
      {
        "Sequence": {
          "id": "B",
          "type_id": 1
        }
      },
      {
        "SpecialToken": {
          "id": "[SEP]",
          "type_id": 1
        }
      }
    ],
    "special_tokens": {
      "[CLS]": {
        "id": "[CLS]",
        "ids": [
          2
        ],
        "tokens": [
          "[CLS]"
        ]
      },
      "[SEP]": {
        "id": "[SEP]",
        "ids": [
          3
        ],
        "tokens": [
          "[SEP]"
        ]
      }
    }
  },
  "decoder": {
    "type": "WordPiece",
    "prefix": "##",
    "cleanup": true
  },
  "model": {
    "type": "WordPiece",
    "unk_token": "[UNK]",
    "continuing_subword_prefix": "##",
    "max_input_chars_per_word": 100,
    "vocab": {
      "[PAD]": 0,
      "[UNK]": 1,
      "[CLS]": 2,
      "[SEP]": 3,
      "[MASK]": 4,
      "!": 5,
      "#": 6,
      "$": 7,
      "%": 8,
      "&": 9,
      "'": 10,
      "(": 11,
      ")": 12,
      "*": 13,
      "+": 14,
      ",": 15,
      "-": 16,
      ".": 17,
      "/": 18,
      "0": 19,
      "1": 20,
      "2": 21,
      "3": 22,
      "4": 23,
      "5": 24,
      "6": 25,
      "7": 26,
      "8": 27,
      "9": 28,
      ":": 29,
      ";": 30,
      "<": 31,
      "=": 32,
      ">": 33,
      "?": 34,
      "@": 35,
      "[": 36,
      "\\": 37,
      "]": 38,
      "^": 39,
      "_": 40,
      "`": 41,
      "a": 42,
      "b": 43,
      "c": 44,
      "d": 45,
      "e": 46,
      "f": 47,
      "g": 48,
      "h": 49,
      "i": 50,
      "j": 51,
      "k": 52,
      "l": 53,
      "m": 54,
      "n": 55,
      "o": 56,
      "p": 57,
      "q": 58,
      "r": 59,
      "s": 60,
      "t": 61,
      "u": 62,
      "v": 63,
      "w": 64,
      "x": 65,
      "y": 66,
      "z": 67,
      "{": 68,
      "|": 69,
      "}": 70,
      "~": 71,
      "##r": 72,
      "##o": 73,
      "##m": 74,
      "##f": 75,
      "##a": 76,
      "##c": 77,
      "##t": 78,
      "##s": 79,
      "##e": 80,
      "##i": 81,
      "##k": 82,
      "##l": 83,
      "##u": 84,
      "##v": 85,
      "##y": 86,
      "##h": 87,
      "##g": 88,
      "##d": 89,
      "##n": 90,
      "##p": 91,
      "##b": 92,
      "##z": 93,
      "##x": 94,
      "##6": 95,
      "##0": 96,
      "##1": 97,
      "##2": 98,
      "##3": 99,
      "##8": 100,
      "##q": 101,
      "##w": 102,
      "##j": 103,
      "##7": 104,
      "##5": 105,
      "##4": 106,
      "##9": 107,
      "##he": 108,
      "the": 109,
      "##in": 110,
      "##er": 111,
      "##ed": 112,
      "##ou": 113,
      "##nd": 114,
      "##ing": 115,
      "to": 116,
      "##at": 117,
      "##re": 118,
      "th": 119,
      "##is": 120,
      "and": 121,
      "##as": 122,
      "##en": 123,
      "##an": 124,
      "##on": 125,
      "##ll": 126,
      "he": 127,
      "##ar": 128,
      "##or": 129,
      "##es": 130,
      "of": 131,
      "in": 132,
      "##it": 133,
      "ha": 134,
      "##om": 135,
      "you": 136,
      "##ow": 137,
      "be": 138,
      "her": 139,
      "##id": 140,
      "##ut": 141,
      "was": 142,
      "it": 143,
      "##ot": 144,
      "##le": 145,
      "##ld": 146,
      "##ac": 147,
      "##gh": 148,
      "on": 149,
      "she": 150,
      "##et": 151,
      "st": 152,
      "his": 153,
      "that": 154,
      "##ly": 155,
      "##im": 156,
      "##ay": 157,
      "##st": 158,
      "##ve": 159,
      "##ic": 160,
      "wh": 161,
      "as": 162,
      "re": 163,
      "my": 164,
      "me": 165,
      "##ad": 166,
      "##al": 167,
      "##se": 168,
      "##oo": 169,
      "##ver": 170,
      "##ght": 171,
      "##ould": 172,
      "##ur": 173,
      "##ith": 174,
      "##ir": 175,
      "for": 176,
      "with": 177,
      "##ent": 178,
      "do": 179,
      "an": 180,
      "##ke": 181,
      "had": 182,
      "li": 183,
      "at": 184,
      "sh": 185,
      "##am": 186,
      "we": 187,
      "but": 188,
      "##ion": 189,
      "him": 190,
      "##all": 191,
      "fr": 192,
      "##her": 193,
      "se": 194,
      "sa": 195,
      "not": 196,
      "##ter": 197,
      "##ight": 198,
      "##ked": 199,
      "##pp": 200,
      "ne": 201,
      "##ro": 202,
      "##ack": 203,
      "so": 204,
      "##ain": 205,
      "##ch": 206,
      "##ill": 207,
      "##ant": 208,
      "##ce": 209,
      "##il": 210,
      "kn": 211,
      "out": 212,
      "what": 213,
      "##ore": 214,
      "is": 215,
      "##el": 216,
      "up": 217,
      "##out": 218,
      "##ust": 219,
      "##rou": 220,
      "##ri": 221,
      "whe": 222,
      "have": 223,
      "##ome": 224,
      "said": 225,
      "they": 226,
      "no": 227,
      "##hing": 228,
      "##ard": 229,
      "this": 230,
      "ch": 231,
      "from": 232,
      "go": 233,
      "su": 234,
      "did": 235,
      "ab": 236,
      "##ra": 237,
      "##ct": 238,
      "le": 239,
      "##nt": 240,
      "##king": 241,
      "##ere": 242,
      "all": 243,
      "##ie": 244,
      "de": 245,
      "al": 246,
      "##us": 247,
      "##one": 248,
      "could": 249,
      "##ind": 250,
      "loo": 251,
      "back": 252,
      "would": 253,
      "were": 254,
      "##to": 255,
      "##hed": 256,
      "like": 257,
      "fe": 258,
      "if": 259,
      "##ess": 260,
      "##art": 261,
      "##ge": 262,
      "##own": 263,
      "##est": 264,
      "one": 265,
      "cl": 266,
      "there": 267,
      "##un": 268,
      "##ood": 269,
      "sp": 270,
      "con": 271,
      "##ss": 272,
      "just": 273,
      "ag": 274,
      "into": 275,
      "##ab": 276,
      "##ast": 277,
      "##au": 278,
      "when": 279,
      "wor": 280,
      "ex": 281,
      "know": 282,
      "##ers": 283,
      "##ry": 284,
      "ro": 285,
      "##ide": 286,
      "about": 287,
      "##ep": 288,
      "##ck": 289,
      "##ace": 290,
      "##and": 291,
      "bl": 292,
      "or": 293,
      "hand": 294,
      "##ally": 295,
      "##ake": 296,
      "then": 297,
      "##um": 298,
      "see": 299,
      "them": 300,
      "your": 301,
      "want": 302,
      "##way": 303,
      "over": 304,
      "##ul": 305,
      "te": 306,
      "any": 307,
      "##op": 308,
      "are": 309,
      "##ong": 310,
      "##lf": 311,
      "ey": 312,
      "been": 313,
      "##ist": 314,
      "##ate": 315,
      "sm": 316,
      "get": 317,
      "##ven": 318,
      "tim": 319,
      "##ap": 320,
      "pl": 321,
      "down": 322,
      "lo": 323,
      "co": 324,
      "ever": 325,
      "some": 326,
      "mo": 327,
      "too": 328,
      "##ig": 329,
      "##ame": 330,
      "bo": 331,
      "again": 332,
      "##urn": 333,
      "##ft": 334,
      "thou": 335,
      "com": 336,
      "##are": 337,
      "who": 338,
      "##round": 339,
      "man": 340,
      "off": 341,
      "##ation": 342,
      "##ice": 343,
      "ar": 344,
      "br": 345,
      "time": 346,
      "now": 347,
      "how": 348,
      "##ink": 349,
      "fl": 350,
      "by": 351,
      "##ff": 352,
      "po": 353,
      "##ous": 354,
      "eyes": 355,
      "##ag": 356,
      "head": 357,
      "us": 358,
      "qu": 359,
      "more": 360,
      "##ick": 361,
      "##ive": 362,
      "##ort": 363,
      "##ine": 364,
      "##ull": 365,
      "can": 366,
      "sl": 367,
      "en": 368,
      "##ak": 369,
      "sc": 370,
      "tr": 371,
      "##pped": 372,
      "##ect": 373,
      "##ther": 374,
      "##other": 375,
      "tw": 376,
      "##ound": 377,
      "##os": 378,
      "than": 379,
      "un": 380,
      "##our": 381,
      "##nder": 382,
      "##itt": 383,
      "##self": 384,
      "even": 385,
      "their": 386,
      "##ved": 387,
      "way": 388,
      "im": 389,
      "##fore": 390,
      "##led": 391,
      "##ile": 392,
      "##dd": 393,
      "before": 394,
      "gr": 395,
      "##ire": 396,
      "every": 397,
      "around": 398,
      "will": 399,
      "##reat": 400,
      "say": 401,
      "going": 402,
      "other": 403,
      "##ass": 404,
      "##ure": 405,
      "pre": 406,
      "##ving": 407,
      "here": 408,
      "pro": 409,
      "af": 410,
      "som": 411,
      "right": 412,
      "##th": 413,
      "##ade": 414,
      "somet": 415,
      "only": 416,
      "think": 417,
      "##rough": 418,
      "bec": 419,
      "turn": 420,
      "through": 421,
      "need": 422,
      "gl": 423,
      "##ue": 424,
      "##ip": 425,
      "looked": 426,
      "##ear": 427,
      "##ered": 428,
      "##ose": 429,
      "look": 430,
      "pr": 431,
      "##fe": 432,
      "let": 433,
      "thought": 434,
      "##ite": 435,
      "should": 436,
      "sw": 437,
      "thing": 438,
      "##ward": 439,
      "##act": 440,
      "##iss": 441,
      "still": 442,
      "after": 443,
      "away": 444,
      "##ol": 445,
      "gu": 446,
      "kne": 447,
      "something": 448,
      "face": 449,
      "##thing": 450,
      "am": 451,
      "door": 452,
      "##pt": 453,
      "mu": 454,
      "##ont": 455,
      "exp": 456,
      "##ity": 457,
      "good": 458,
      "##ies": 459,
      "##ause": 460,
      "long": 461,
      "##ang": 462,
      "never": 463,
      "##ment": 464,
      "wat": 465,
      "ac": 466,
      "##ened": 467,
      "pe": 468,
      "wa": 469,
      "##ach": 470,
      "##dy": 471,
      "##iz": 472,
      "bet": 473,
      "feel": 474,
      "ll": 475,
      "##ble": 476,
      "got": 477,
      "well": 478,
      "asked": 479,
      "where": 480,
      "che": 481,
      "##able": 482,
      "car": 483,
      "##ark": 484,
      "two": 485,
      "##ree": 486,
      "op": 487,
      "##ated": 488,
      "fo": 489,
      "##wn": 490,
      "##ance": 491,
      "##ell": 492,
      "fir": 493,
      "arm": 494,
      "made": 495,
      "##ched": 496,
      "why": 497,
      "##ich": 498,
      "much": 499,
      "ve": 500,
      "##med": 501,
      "##ave": 502,
      "##ather": 503,
      "##ious": 504,
      "our": 505,
      "because": 506,
      "tell": 507,
      "##ting": 508,
      "rem": 509,
      "room": 510,
      "knew": 511,
      "dis": 512,
      "##ittle": 513,
      "##age": 514,
      "##aking": 515,
      "##ath": 516,
      "under": 517,
      "ho": 518,
      "little": 519,
      "mom": 520,
      "##te": 521,
      "##ning": 522,
      "##ady": 523,
      "##ough": 524,
      "day": 525,
      "cr": 526,
      "ke": 527,
      "make": 528,
      "##ery": 529,
      "come": 530,
      "##co": 531,
      "take": 532,
      "##elt": 533,
      "##gg": 534,
      "call": 535,
      "happ": 536,
      "wal": 537,
      "em": 538,
      "may": 539,
      "##ried": 540,
      "##ase": 541,
      "##ful": 542,
      "##ks": 543,
      "first": 544,
      "##ress": 545,
      "cont": 546,
      "##side": 547,
      "##be": 548,
      "##ru": 549,
      "##air": 550,
      "vo": 551,
      "##ber": 552,
      "its": 553,
      "felt": 554,
      "jo": 555,
      "##ence": 556,
      "sure": 557,
      "wo": 558,
      "ca": 559,
      "##ves": 560,
      "start": 561,
      "hands": 562,
      "##ied": 563,
      "tal": 564,
      "##ans": 565,
      "##ared": 566,
      "hel": 567,
      "pull": 568,
      "wanted": 569,
      "took": 570,
      "##ah": 571,
      "comp": 572,
      "##int": 573,
      "turned": 574,
      "##em": 575,
      "night": 576,
      "el": 577,
      "app": 578,
      "sk": 579,
      "really": 580,
      "##ling": 581,
      "##ps": 582,
      "per": 583,
      "des": 584,
      "mar": 585,
      "##oth": 586,
      "try": 587,
      "##ild": 588,
      "##ily": 589,
      "against": 590,
      "voice": 591,
      "sur": 592,
      "has": 593,
      "ad": 594,
      "##uck": 595,
      "##ia": 596,
      "part": 597,
      "res": 598,
      "bel": 599,
      "##ud": 600,
      "fin": 601,
      "hard": 602,
      "##qu": 603,
      "peop": 604,
      "real": 605,
      "##ced": 606,
      "left": 607,
      "which": 608,
      "##ens": 609,
      "##bb": 610,
      "very": 611,
      "beh": 612,
      "help": 613,
      "cou": 614,
      "people": 615,
      "came": 616,
      "told": 617,
      "another": 618,
      "##ds": 619,
      "last": 620,
      "put": 621,
      "##owed": 622,
      "##ise": 623,
      "side": 624,
      "life": 625,
      "##een": 626,
      "##ook": 627,
      "##ish": 628,
      "while": 629,
      "##ross": 630,
      "body": 631,
      "wom": 632,
      "wait": 633,
      "##ty": 634,
      "find": 635,
      "few": 636,
      "sn": 637,
      "##av": 638,
      "spe": 639,
      "gra": 640,
      "anything": 641,
      "rep": 642,
      "moment": 643,
      "yes": 644,
      "##az": 645,
      "being": 646,
      "##les": 647,
      "new": 648,
      "##hes": 649,
      "war": 650,
      "breat": 651,
      "nothing": 652,
      "##ned": 653,
      "##get": 654,
      "ph": 655,
      "##xt": 656,
      "str": 657,
      "own": 658,
      "di": 659,
      "behind": 660,
      "ste": 661,
      "keep": 662,
      "unt": 663,
      "##ions": 664,
      "year": 665,
      "enough": 666,
      "toward": 667,
      "went": 668,
      "light": 669,
      "lau": 670,
      "does": 671,
      "mat": 672,
      "might": 673,
      "##ouse": 674,
      "saw": 675,
      "wr": 676,
      "hair": 677,
      "bed": 678,
      "dr": 679,
      "##ci": 680,
      "##igh": 681,
      "##per": 682,
      "beg": 683,
      "dark": 684,
      "clos": 685,
      "sound": 686,
      "gir": 687,
      "old": 688,
      "hu": 689,
      "until": 690,
      "things": 691,
      "love": 692,
      "mind": 693,
      "cle": 694,
      "##outh": 695,
      "##ways": 696,
      "though": 697,
      "id": 698,
      "##ars": 699,
      "maybe": 700,
      "bu": 701,
      "those": 702,
      "set": 703,
      "##amp": 704,
      "##ching": 705,
      "##ail": 706,
      "open": 707,
      "end": 708,
      "##ys": 709,
      "act": 710,
      "##aring": 711,
      "looking": 712,
      "fing": 713,
      "##ness": 714,
      "once": 715,
      "##ng": 716,
      "##ord": 717,
      "##ost": 718,
      "##orm": 719,
      "most": 720,
      "##ream": 721,
      "##ince": 722,
      "care": 723,
      "##ne": 724,
      "##iend": 725,
      "both": 726,
      "gi": 727,
      "girl": 728,
      "friend": 729,
      "##ool": 730,
      "always": 731,
      "ass": 732,
      "##dded": 733,
      "next": 734,
      "##ons": 735,
      "##cked": 736,
      "##ner": 737,
      "place": 738,
      "sil": 739,
      "att": 740,
      "cur": 741,
      "min": 742,
      "hold": 743,
      "##ower": 744,
      "imp": 745,
      "oh": 746,
      "kill": 747,
      "smil": 748,
      "house": 749,
      "mouth": 750,
      "inside": 751,
      "sat": 752,
      "run": 753,
      "found": 754,
      "front": 755,
      "##row": 756,
      "ple": 757,
      "##ted": 758,
      "heart": 759,
      "inst": 760,
      "without": 761,
      "dec": 762,
      "ser": 763,
      "gre": 764,
      "##less": 765,
      "##ating": 766,
      "home": 767,
      "##ian": 768,
      "rel": 769,
      "blood": 770,
      "same": 771,
      "##ory": 772,
      "work": 773,
      "##aw": 774,
      "everything": 775,
      "rest": 776,
      "##ually": 777,
      "someone": 778,
      "himself": 779,
      "sho": 780,
      "stand": 781,
      "inter": 782,
      "small": 783,
      "##ary": 784,
      "woman": 785,
      "hop": 786,
      "bit": 787,
      "bre": 788,
      "##sw": 789,
      "trying": 790,
      "heard": 791,
      "better": 792,
      "ok": 793,
      "arms": 794,
      "pulled": 795,
      "flo": 796,
      "cor": 797,
      "dra": 798,
      "ret": 799,
      "cour": 800,
      "betw": 801,
      "each": 802,
      "between": 803,
      "father": 804,
      "stre": 805,
      "give": 806,
      "##ised": 807,
      "kiss": 808,
      "mean": 809,
      "wind": 810,
      "##cond": 811,
      "mother": 812,
      "seemed": 813,
      "black": 814,
      "##ier": 815,
      "deep": 816,
      "##ung": 817,
      "smile": 818,
      "##red": 819,
      "second": 820,
      "answ": 821,
      "##pping": 822,
      "##if": 823,
      "##ange": 824,
      "##tered": 825,
      "far": 826,
      "ang": 827,
      "alm": 828,
      "##tain": 829,
      "across": 830,
      "##ably": 831,
      "##sp": 832,
      "fam": 833,
      "pain": 834,
      "stop": 835,
      "myself": 836,
      "hur": 837,
      "sto": 838,
      "three": 839,
      "##ready": 840,
      "##sh": 841,
      "##used": 842,
      "since": 843,
      "dri": 844,
      "already": 845,
      "pass": 846,
      "##ever": 847,
      "sle": 848,
      "##aught": 849,
      "started": 850,
      "point": 851,
      "##ump": 852,
      "quick": 853,
      "almost": 854,
      "gave": 855,
      "stu": 856,
      "breath": 857,
      "##ict": 858,
      "dont": 859,
      "years": 860,
      "must": 861,
      "belie": 862,
      "stay": 863,
      "##ached": 864,
      "stood": 865,
      "men": 866,
      "kind": 867,
      "##ix": 868,
      "##ank": 869,
      "remem": 870,
      "ear": 871,
      "air": 872,
      "else": 873,
      "done": 874,
      "mor": 875,
      "wall": 876,
      "dro": 877,
      "okay": 878,
      "foll": 879,
      "##ors": 880,
      "doing": 881,
      "hell": 882,
      "##gether": 883,
      "tried": 884,
      "tra": 885,
      "##umb": 886,
      "world": 887,
      "ob": 888,
      "##ible": 889,
      "##ings": 890,
      "lips": 891,
      "walked": 892,
      "close": 893,
      "##ane": 894,
      "words": 895,
      "big": 896,
      "ev": 897,
      "hum": 898,
      "tou": 899,
      "mon": 900,
      "slow": 901,
      "##ater": 902,
      "minut": 903,
      "together": 904,
      "##rew": 905,
      "##ized": 906,
      "feet": 907,
      "nodded": 908,
      "ye": 909,
      "sig": 910,
      "##ott": 911,
      "##so": 912,
      "##ple": 913,
      "##ense": 914,
      "didnt": 915,
      "##ushed": 916,
      "wonder": 917,
      "held": 918,
      "near": 919,
      "seen": 920,
      "##ph": 921,
      "met": 922,
      "many": 923,
      "miss": 924,
      "##ured": 925,
      "##ren": 926,
      "these": 927,
      "lot": 928,
      "ra": 929,
      "quest": 930,
      "underst": 931,
      "##ully": 932,
      "##anc": 933,
      "##ash": 934,
      "bar": 935,
      "diff": 936,
      "##ently": 937,
      "ma": 938,
      "supp": 939,
      "int": 940,
      "##gs": 941,
      "##irt": 942,
      "##ason": 943,
      "tre": 944,
      "sim": 945,
      "whis": 946,
      "pers": 947,
      "ent": 948,
      "##ond": 949,
      "##icked": 950,
      "##inking": 951,
      "hear": 952,
      "##pr": 953,
      "play": 954,
      "yet": 955,
      "talk": 956,
      "says": 957,
      "move": 958,
      "conf": 959,
      "##ither": 960,
      "bad": 961,
      "##ows": 962,
      "##akes": 963,
      "floor": 964,
      "water": 965,
      "expl": 966,
      "leave": 967,
      "ed": 968,
      "smiled": 969,
      "mr": 970,
      "##ib": 971,
      "##day": 972,
      "sor": 973,
      "aw": 974,
      "red": 975,
      "##iv": 976,
      "##ained": 977,
      "##gn": 978,
      "inc": 979,
      "great": 980,
      "dam": 981,
      "gone": 982,
      "step": 983,
      "##gged": 984,
      "table": 985,
      "##owing": 986,
      "herself": 987,
      "##ying": 988,
      "##ub": 989,
      "acc": 990,
      "eas": 991,
      "##ek": 992,
      "fingers": 993,
      "##iet": 994,
      "past": 995,
      "chest": 996,
      "char": 997,
      "hour": 998,
      "needed": 999,
      "##ention": 1000,
      "prob": 1001,
      "##der": 1002,
      "##iver": 1003,
      "began": 1004,
      "dist": 1005,
      "##ny": 1006,
      "##here": 1007,
      "##ished": 1008,
      "##aced": 1009,
      "name": 1010,
      "##ift": 1011,
      "also": 1012,
      "cons": 1013,
      "##ected": 1014,
      "swe": 1015,
      "getting": 1016,
      "shook": 1017,
      "lu": 1018,
      "half": 1019,
      "##ept": 1020,
      "called": 1021,
      "##rie": 1022,
      "along": 1023,
      "yeah": 1024,
      "##cept": 1025,
      "bro": 1026,
      "##ately": 1027,
      "ter": 1028,
      "soon": 1029,
      "fore": 1030,
      "course": 1031,
      "ben": 1032,
      "soft": 1033,
      "coming": 1034,
      "bus": 1035,
      "finally": 1036,
      "##dden": 1037,
      "fall": 1038,
      "probably": 1039,
      "ide": 1040,
      "dead": 1041,
      "child": 1042,
      "pa": 1043,
      "##ical": 1044,
      "fre": 1045,
      "such": 1046,
      "sudden": 1047,
      "comm": 1048,
      "inv": 1049,
      "##ined": 1050,
      "god": 1051,
      "lean": 1052,
      "least": 1053,
      "##bo": 1054,
      "best": 1055,
      "happened": 1056,
      "cra": 1057,
      "moved": 1058,
      "stra": 1059,
      "pat": 1060,
      "high": 1061,
      "col": 1062,
      "poss": 1063,
      "contin": 1064,
      "return": 1065,
      "##ction": 1066,
      "person": 1067,
      "##ering": 1068,
      "eye": 1069,
      "##ush": 1070,
      "reached": 1071,
      "sorry": 1072,
      "believe": 1073,
      "resp": 1074,
      "skin": 1075,
      "##ms": 1076,
      "white": 1077,
      "later": 1078,
      "phone": 1079,
      "fire": 1080,
      "stopped": 1081,
      "gaz": 1082,
      "##na": 1083,
      "##bbed": 1084,
      "boy": 1085,
      "tight": 1086,
      "list": 1087,
      "making": 1088,
      "feeling": 1089,
      "##idd": 1090,
      "dem": 1091,
      "jack": 1092,
      "surpr": 1093,
      "##ipped": 1094,
      "ask": 1095,
      "##ition": 1096,
      "opened": 1097,
      "press": 1098,
      "ap": 1099,
      "meet": 1100,
      "anyone": 1101,
      "##ged": 1102,
      "ran": 1103,
      "je": 1104,
      "used": 1105,
      "##itting": 1106,
      "sit": 1107,
      "inf": 1108,
      "family": 1109,
      "remember": 1110,
      "sleep": 1111,
      "ind": 1112,
      "understand": 1113,
      "##ters": 1114,
      "##ening": 1115,
      "##ret": 1116,
      "##ual": 1117,
      "everyone": 1118,
      "hor": 1119,
      "plan": 1120,
      "##vel": 1121,
      "##iously": 1122,
      "idea": 1123,
      "hot": 1124,
      "sec": 1125,
      "dire": 1126,
      "fact": 1127,
      "##ided": 1128,
      "brother": 1129,
      "##fully": 1130,
      "taking": 1131,
      "cover": 1132,
      "differ": 1133,
      "morning": 1134,
      "##arent": 1135,
      "shoulder": 1136,
      "mag": 1137,
      "forward": 1138,
      "cut": 1139,
      "ground": 1140,
      "bes": 1141,
      "neck": 1142,
      "fight": 1143,
      "cat": 1144,
      "##aps": 1145,
      "lar": 1146,
      "kept": 1147,
      "power": 1148,
      "read": 1149,
      "##ins": 1150,
      "dad": 1151,
      "hurt": 1152,
      "top": 1153,
      "##anced": 1154,
      "comple": 1155,
      "reg": 1156,
      "##room": 1157,
      "young": 1158,
      "##cer": 1159,
      "quiet": 1160,
      "clear": 1161,
      "##aut": 1162,
      "perf": 1163,
      "quickly": 1164,
      "repl": 1165,
      "days": 1166,
      "rec": 1167,
      "##lo": 1168,
      "##oke": 1169,
      "four": 1170,
      "##head": 1171,
      "vis": 1172,
      "##che": 1173,
      "prot": 1174,
      "##ued": 1175,
      "roll": 1176,
      "##aken": 1177,
      "guy": 1178,
      "slowly": 1179,
      "##sc": 1180,
      "able": 1181,
      "ref": 1182,
      "##ize": 1183,
      "##cc": 1184,
      "use": 1185,
      "alone": 1186,
      "del": 1187,
      "##no": 1188,
      "par": 1189,
      "exc": 1190,
      "wrong": 1191,
      "onto": 1192,
      "lea": 1193,
      "##iness": 1194,
      "##ents": 1195,
      "##og": 1196,
      "thinking": 1197,
      "having": 1198,
      "closed": 1199,
      "ru": 1200,
      "cap": 1201,
      "ready": 1202,
      "##uth": 1203,
      "laugh": 1204,
      "full": 1205,
      "please": 1206,
      "dress": 1207,
      "mine": 1208,
      "##ial": 1209,
      "stared": 1210,
      "sch": 1211,
      "sun": 1212,
      "talking": 1213,
      "det": 1214,
      "fell": 1215,
      "##ically": 1216,
      "hit": 1217,
      "question": 1218,
      "watched": 1219,
      "either": 1220,
      "thro": 1221,
      "##mm": 1222,
      "lift": 1223,
      "coll": 1224,
      "pol": 1225,
      "##ount": 1226,
      "fill": 1227,
      "##fort": 1228,
      "minutes": 1229,
      "mem": 1230,
      "##cking": 1231,
      "whisp": 1232,
      "bab": 1233,
      "beaut": 1234,
      "ty": 1235,
      "##airs": 1236,
      "fine": 1237,
      "pret": 1238,
      "##ead": 1239,
      "tri": 1240,
      "fig": 1241,
      "actually": 1242,
      "cal": 1243,
      "outside": 1244,
      "##ister": 1245,
      "##ult": 1246,
      "##app": 1247,
      "hall": 1248,
      "dou": 1249,
      "chap": 1250,
      "##where": 1251,
      "cold": 1252,
      "##ghed": 1253,
      "##ton": 1254,
      "##ets": 1255,
      "cer": 1256,
      "matter": 1257,
      "suddenly": 1258,
      "guess": 1259,
      "pur": 1260,
      "vamp": 1261,
      "##ger": 1262,
      "har": 1263,
      "glass": 1264,
      "ill": 1265,
      "word": 1266,
      "lost": 1267,
      "lou": 1268,
      "gaze": 1269,
      "##up": 1270,
      "ele": 1271,
      "king": 1272,
      "##oney": 1273,
      "mus": 1274,
      "hope": 1275,
      "sy": 1276,
      "reason": 1277,
      "standing": 1278,
      "mur": 1279,
      "hes": 1280,
      "low": 1281,
      "##ife": 1282,
      "appear": 1283,
      "bur": 1284,
      "##que": 1285,
      "short": 1286,
      "prom": 1287,
      "##att": 1288,
      "##ped": 1289,
      "##night": 1290,
      "times": 1291,
      "walk": 1292,
      "land": 1293,
      "blue": 1294,
      "##ations": 1295,
      "whole": 1296,
      "pretty": 1297,
      "exact": 1298,
      "caught": 1299,
      "pres": 1300,
      "kid": 1301,
      "##tend": 1302,
      "##ips": 1303,
      "thank": 1304,
      "##ides": 1305,
      "##ased": 1306,
      "free": 1307,
      "##ax": 1308,
      "instead": 1309,
      "##ten": 1310,
      "break": 1311,
      "answer": 1312,
      "laughed": 1313,
      "waiting": 1314,
      "##ee": 1315,
      "grin": 1316,
      "five": 1317,
      "death": 1318,
      "chapter": 1319,
      "fur": 1320,
      "complete": 1321,
      "sever": 1322,
      "##ames": 1323,
      "##io": 1324,
      "##eth": 1325,
      "friends": 1326,
      "##man": 1327,
      "lay": 1328,
      "##ma": 1329,
      "warm": 1330,
      "##als": 1331,
      "vampire": 1332,
      "##ures": 1333,
      "build": 1334,
      "others": 1335,
      "taken": 1336,
      "ago": 1337,
      "shot": 1338,
      "different": 1339,
      "def": 1340,
      "##vers": 1341,
      "##osed": 1342,
      "guard": 1343,
      "scream": 1344,
      "##uring": 1345,
      "show": 1346,
      "school": 1347,
      "##enty": 1348,
      "looks": 1349,
      "##rought": 1350,
      "##ike": 1351,
      "legs": 1352,
      "certain": 1353,
      "##ired": 1354,
      "throat": 1355,
      "##ited": 1356,
      "meant": 1357,
      "foot": 1358,
      "imag": 1359,
      "##ken": 1360,
      "fun": 1361,
      "strong": 1362,
      "tom": 1363,
      "whispered": 1364,
      "shirt": 1365,
      "ale": 1366,
      "glanced": 1367,
      "##cus": 1368,
      "gen": 1369,
      "contro": 1370,
      "burn": 1371,
      "bare": 1372,
      "##iding": 1373,
      "perfect": 1374,
      "human": 1375,
      "straight": 1376,
      "ins": 1377,
      "gun": 1378,
      "bring": 1379,
      "##eks": 1380,
      "window": 1381,
      "##ored": 1382,
      "whatever": 1383,
      "cho": 1384,
      "less": 1385,
      "brought": 1386,
      "sex": 1387,
      "##ric": 1388,
      "chr": 1389,
      "##ock": 1390,
      "##acked": 1391,
      "shut": 1392,
      "sent": 1393,
      "##ove": 1394,
      "unc": 1395,
      "large": 1396,
      "holding": 1397,
      "mess": 1398,
      "sign": 1399,
      "stepped": 1400,
      "exactly": 1401,
      "adm": 1402,
      "dream": 1403,
      "##ming": 1404,
      "touch": 1405,
      "##ates": 1406,
      "quite": 1407,
      "##by": 1408,
      "watch": 1409,
      "sub": 1410,
      "leaned": 1411,
      "##zy": 1412,
      "disapp": 1413,
      "sense": 1414,
      "sitting": 1415,
      "watching": 1416,
      "cross": 1417,
      "happy": 1418,
      "count": 1419,
      "cry": 1420,
      "bott": 1421,
      "realized": 1422,
      "##cy": 1423,
      "##ield": 1424,
      "thir": 1425,
      "##pe": 1426,
      "entire": 1427,
      "##unt": 1428,
      "seat": 1429,
      "sam": 1430,
      "##iful": 1431,
      "lead": 1432,
      "cent": 1433,
      "##anger": 1434,
      "##lt": 1435,
      "bra": 1436,
      "##anged": 1437,
      "chair": 1438,
      "nice": 1439,
      "##land": 1440,
      "running": 1441,
      "finger": 1442,
      "##ression": 1443,
      "followed": 1444,
      "na": 1445,
      "six": 1446,
      "hours": 1447,
      "wood": 1448,
      "win": 1449,
      "kit": 1450,
      "closer": 1451,
      "several": 1452,
      "shit": 1453,
      "true": 1454,
      "grabbed": 1455,
      "continued": 1456,
      "shru": 1457,
      "fear": 1458,
      "job": 1459,
      "##br": 1460,
      "##ants": 1461,
      "replied": 1462,
      "##iced": 1463,
      "##ik": 1464,
      "##ison": 1465,
      "##ape": 1466,
      "la": 1467,
      "##els": 1468,
      "line": 1469,
      "##ular": 1470,
      "mad": 1471,
      "beautiful": 1472,
      "##aster": 1473,
      "##otion": 1474,
      "attention": 1475,
      "thr": 1476,
      "clot": 1477,
      "##orn": 1478,
      "wra": 1479,
      "deal": 1480,
      "pushed": 1481,
      "##pl": 1482,
      "##apped": 1483,
      "youre": 1484,
      "##ces": 1485,
      "damn": 1486,
      "chance": 1487,
      "longer": 1488,
      "##aces": 1489,
      "ten": 1490,
      "yell": 1491,
      "trust": 1492,
      "beside": 1493,
      "hung": 1494,
      "baby": 1495,
      "##ze": 1496,
      "appro": 1497,
      "##chen": 1498,
      "saying": 1499,
      "speak": 1500,
      "##ches": 1501,
      "tonight": 1502,
      "consid": 1503,
      "cir": 1504,
      "##read": 1505,
      "shoulders": 1506,
      "interest": 1507,
      "##ract": 1508,
      "month": 1509,
      "bag": 1510,
      "control": 1511,
      "heav": 1512,
      "din": 1513,
      "grand": 1514,
      "town": 1515,
      "##its": 1516,
      "eng": 1517,
      "today": 1518,
      "lear": 1519,
      "stru": 1520,
      "##iff": 1521,
      "tem": 1522,
      "squ": 1523,
      "stom": 1524,
      "sky": 1525,
      "safe": 1526,
      "##ject": 1527,
      "##haps": 1528,
      "apart": 1529,
      "pap": 1530,
      "sweet": 1531,
      "living": 1532,
      "moving": 1533,
      "pri": 1534,
      "case": 1535,
      "perhaps": 1536,
      "money": 1537,
      "sing": 1538,
      "proble": 1539,
      "ir": 1540,
      "slight": 1541,
      "##gan": 1542,
      "##aged": 1543,
      "given": 1544,
      "##cess": 1545,
      "##de": 1546,
      "sens": 1547,
      "##ina": 1548,
      "pie": 1549,
      "change": 1550,
      "fast": 1551,
      "shad": 1552,
      "dev": 1553,
      "smell": 1554,
      "sort": 1555,
      "av": 1556,
      "tears": 1557,
      "##ines": 1558,
      "circ": 1559,
      "known": 1560,
      "road": 1561,
      "pal": 1562,
      "##isted": 1563,
      "kitchen": 1564,
      "thats": 1565,
      "##jo": 1566,
      "parent": 1567,
      "son": 1568,
      "wasnt": 1569,
      "rose": 1570,
      "add": 1571,
      "live": 1572,
      "dropped": 1573,
      "mil": 1574,
      "leaving": 1575,
      "couple": 1576,
      "loved": 1577,
      "tu": 1578,
      "reco": 1579,
      "##antly": 1580,
      "bene": 1581,
      "hon": 1582,
      "office": 1583,
      "eff": 1584,
      "above": 1585,
      "truth": 1586,
      "##bed": 1587,
      "decided": 1588,
      "jump": 1589,
      "sister": 1590,
      "green": 1591,
      "form": 1592,
      "rock": 1593,
      "nat": 1594,
      "women": 1595,
      "##sel": 1596,
      "gri": 1597,
      "##ror": 1598,
      "ign": 1599,
      "business": 1600,
      "tor": 1601,
      "pet": 1602,
      "##ones": 1603,
      "protect": 1604,
      "esc": 1605,
      "cre": 1606,
      "city": 1607,
      "##son": 1608,
      "street": 1609,
      "doub": 1610,
      "mir": 1611,
      "alex": 1612,
      "filled": 1613,
      "##ility": 1614,
      "##ots": 1615,
      "da": 1616,
      "##arr": 1617,
      "ris": 1618,
      "##imes": 1619,
      "##iew": 1620,
      "creat": 1621,
      "##ime": 1622,
      "obv": 1623,
      "##ashed": 1624,
      "anyway": 1625,
      "##ief": 1626,
      "##ident": 1627,
      "##iny": 1628,
      "##cent": 1629,
      "spoke": 1630,
      "working": 1631,
      "passed": 1632,
      "direct": 1633,
      "##ply": 1634,
      "stomach": 1635,
      "completely": 1636,
      "##body": 1637,
      "lifted": 1638,
      "##oun": 1639,
      "##unch": 1640,
      "shar": 1641,
      "drink": 1642,
      "parents": 1643,
      "##arth": 1644,
      "silence": 1645,
      "mut": 1646,
      "bright": 1647,
      "gas": 1648,
      "raised": 1649,
      "dan": 1650,
      "arri": 1651,
      "worry": 1652,
      "seeing": 1653,
      "twenty": 1654,
      "pay": 1655,
      "forg": 1656,
      "coun": 1657,
      "corner": 1658,
      "secret": 1659,
      "trou": 1660,
      "ner": 1661,
      "begin": 1662,
      "pict": 1663,
      "late": 1664,
      "ce": 1665,
      "rather": 1666,
      "frown": 1667,
      "staring": 1668,
      "walking": 1669,
      "sar": 1670,
      "empt": 1671,
      "guys": 1672,
      "pos": 1673,
      "book": 1674,
      "hund": 1675,
      "expression": 1676,
      "supposed": 1677,
      "##rupt": 1678,
      "hundred": 1679,
      "##lly": 1680,
      "killed": 1681,
      "exper": 1682,
      "##medi": 1683,
      "makes": 1684,
      "food": 1685,
      "edge": 1686,
      "##aining": 1687,
      "sque": 1688,
      "shift": 1689,
      "happen": 1690,
      "##ley": 1691,
      "immedi": 1692,
      "##ging": 1693,
      "##acing": 1694,
      "##nding": 1695,
      "mist": 1696,
      "within": 1697,
      "##light": 1698,
      "abs": 1699,
      "hang": 1700,
      "sou": 1701,
      "##ann": 1702,
      "gar": 1703,
      "die": 1704,
      "shout": 1705,
      "coff": 1706,
      "knowing": 1707,
      "conn": 1708,
      "crow": 1709,
      "##la": 1710,
      "picked": 1711,
      "##ony": 1712,
      "##ster": 1713,
      "du": 1714,
      "##ushing": 1715,
      "teeth": 1716,
      "ext": 1717,
      "norm": 1718,
      "building": 1719,
      "nearly": 1720,
      "jul": 1721,
      "wide": 1722,
      "yourself": 1723,
      "sighed": 1724,
      "pleas": 1725,
      "gro": 1726,
      "week": 1727,
      "mark": 1728,
      "##ude": 1729,
      "grow": 1730,
      "##raid": 1731,
      "sear": 1732,
      "##aled": 1733,
      "cam": 1734,
      "##ience": 1735,
      "girls": 1736,
      "tong": 1737,
      "##ilt": 1738,
      "joh": 1739,
      "thanks": 1740,
      "story": 1741,
      "box": 1742,
      "draw": 1743,
      "stuff": 1744,
      "upon": 1745,
      "afraid": 1746,
      "eat": 1747,
      "convers": 1748,
      "clean": 1749,
      "thoughts": 1750,
      "cla": 1751,
      "towards": 1752,
      "##ator": 1753,
      "cant": 1754,
      "giving": 1755,
      "couldnt": 1756,
      "danger": 1757,
      "gold": 1758,
      "##cial": 1759,
      "##hel": 1760,
      "##yed": 1761,
      "easy": 1762,
      "turning": 1763,
      "clothes": 1764,
      "noticed": 1765,
      "possible": 1766,
      "expect": 1767,
      "##let": 1768,
      "enjo": 1769,
      "adv": 1770,
      "seem": 1771,
      "dep": 1772,
      "##ards": 1773,
      "returned": 1774,
      "##itch": 1775,
      "jer": 1776,
      "##any": 1777,
      "waited": 1778,
      "stud": 1779,
      "susp": 1780,
      "sight": 1781,
      "thick": 1782,
      "loud": 1783,
      "except": 1784,
      "kissed": 1785,
      "import": 1786,
      "##unk": 1787,
      "##ists": 1788,
      "drive": 1789,
      "gray": 1790,
      "##ute": 1791,
      "luck": 1792,
      "occ": 1793,
      "opp": 1794,
      "##zz": 1795,
      "grou": 1796,
      "worked": 1797,
      "rolled": 1798,
      "minute": 1799,
      "##ler": 1800,
      "sal": 1801,
      "sad": 1802,
      "beneath": 1803,
      "dest": 1804,
      "pressed": 1805,
      "trans": 1806,
      "pointed": 1807,
      "##ments": 1808,
      "become": 1809,
      "stro": 1810,
      "##more": 1811,
      "##erg": 1812,
      "##ili": 1813,
      "john": 1814,
      "shrugged": 1815,
      "spot": 1816,
      "telling": 1817,
      "##umber": 1818,
      "##tem": 1819,
      "barely": 1820,
      "##iddle": 1821,
      "class": 1822,
      "bir": 1823,
      "clim": 1824,
      "strange": 1825,
      "##ains": 1826,
      "##lic": 1827,
      "##ien": 1828,
      "hey": 1829,
      "leg": 1830,
      "sometimes": 1831,
      "christ": 1832,
      "##bs": 1833,
      "concer": 1834,
      "ann": 1835,
      "##pid": 1836,
      "mer": 1837,
      "desk": 1838,
      "children": 1839,
      "wife": 1840,
      "tongue": 1841,
      "sett": 1842,
      "wondered": 1843,
      "empty": 1844,
      "remind": 1845,
      "pick": 1846,
      "order": 1847,
      "figure": 1848,
      "surprised": 1849,
      "answered": 1850,
      "cheek": 1851,
      "##olog": 1852,
      "##rief": 1853,
      "##ign": 1854,
      "##ient": 1855,
      "immediately": 1856,
      "pock": 1857,
      "ball": 1858,
      "slid": 1859,
      "coffee": 1860,
      "problem": 1861,
      "smo": 1862,
      "##use": 1863,
      "knows": 1864,
      "comfort": 1865,
      "led": 1866,
      "##sed": 1867,
      "##ities": 1868,
      "##umbled": 1869,
      "##uff": 1870,
      "spr": 1871,
      "during": 1872,
      "middle": 1873,
      "##ha": 1874,
      "bill": 1875,
      "##icking": 1876,
      "##amed": 1877,
      "covered": 1878,
      "ord": 1879,
      "earth": 1880,
      "heavy": 1881,
      "##ories": 1882,
      "changed": 1883,
      "disappear": 1884,
      "appeared": 1885,
      "terri": 1886,
      "##tern": 1887,
      "stupid": 1888,
      "stri": 1889,
      "##though": 1890,
      "##selves": 1891,
      "crowd": 1892,
      "##sing": 1893,
      "stone": 1894,
      "##aded": 1895,
      "##ices": 1896,
      "doubt": 1897,
      "sol": 1898,
      "sir": 1899,
      "bath": 1900,
      "although": 1901,
      "fu": 1902,
      "pack": 1903,
      "##ls": 1904,
      "lady": 1905,
      "nose": 1906,
      "##orrow": 1907,
      "pan": 1908,
      "months": 1909,
      "wearing": 1910,
      "er": 1911,
      "conversation": 1912,
      "died": 1913,
      "aff": 1914,
      "##ances": 1915,
      "calm": 1916,
      "pulling": 1917,
      "inform": 1918,
      "however": 1919,
      "art": 1920,
      "fle": 1921,
      "##ene": 1922,
      "anymore": 1923,
      "main": 1924,
      "vict": 1925,
      "simply": 1926,
      "##how": 1927,
      "liked": 1928,
      "hers": 1929,
      "##od": 1930,
      "steps": 1931,
      "number": 1932,
      "gener": 1933,
      "loc": 1934,
      "fair": 1935,
      "med": 1936,
      "eight": 1937,
      "lim": 1938,
      "round": 1939,
      "tall": 1940,
      "throw": 1941,
      "finished": 1942,
      "check": 1943,
      "ring": 1944,
      "sounded": 1945,
      "##du": 1946,
      "law": 1947,
      "slightly": 1948,
      "hed": 1949,
      "knees": 1950,
      "wish": 1951,
      "cell": 1952,
      "##mb": 1953,
      "became": 1954,
      "##my": 1955,
      "##spe": 1956,
      "##aughter": 1957,
      "ble": 1958,
      "##cially": 1959,
      "alive": 1960,
      "none": 1961,
      "paper": 1962,
      "attack": 1963,
      "lit": 1964,
      "rele": 1965,
      "headed": 1966,
      "##bered": 1967,
      "##iting": 1968,
      "tast": 1969,
      "cool": 1970,
      "softly": 1971,
      "fift": 1972,
      "lord": 1973,
      "##vin": 1974,
      "group": 1975,
      "force": 1976,
      "important": 1977,
      "space": 1978,
      "sand": 1979,
      "ur": 1980,
      "musc": 1981,
      "cop": 1982,
      "direction": 1983,
      "spent": 1984,
      "desp": 1985,
      "bedroom": 1986,
      "##ask": 1987,
      "##cing": 1988,
      "##ision": 1989,
      "##yl": 1990,
      "sounds": 1991,
      "fly": 1992,
      "##ively": 1993,
      "##ital": 1994,
      "hus": 1995,
      "##ctor": 1996,
      "added": 1997,
      "##itted": 1998,
      "##ship": 1999,
      "ahead": 2000,
      "##iling": 2001,
      "##bbing": 2002,
      "den": 2003,
      "tomorrow": 2004,
      "brown": 2005,
      "dinner": 2006,
      "##ought": 2007,
      "beat": 2008,
      "surprise": 2009,
      "sold": 2010,
      "##iled": 2011,
      "somehow": 2012,
      "weeks": 2013,
      "forget": 2014,
      "mount": 2015,
      "wants": 2016,
      "reach": 2017,
      "prof": 2018,
      "nick": 2019,
      "##ork": 2020,
      "boo": 2021,
      "recogn": 2022,
      "crazy": 2023,
      "worse": 2024,
      "tiny": 2025,
      "touched": 2026,
      "cast": 2027,
      "quietly": 2028,
      "rid": 2029,
      "trouble": 2030,
      "somewhere": 2031,
      "drew": 2032,
      "threat": 2033,
      "ones": 2034,
      "accept": 2035,
      "lie": 2036,
      "espe": 2037,
      "hesit": 2038,
      "police": 2039,
      "jen": 2040,
      "broken": 2041,
      "follow": 2042,
      "tone": 2043,
      "single": 2044,
      "pen": 2045,
      "gently": 2046,
      "deser": 2047,
      "##ez": 2048,
      "swall": 2049,
      "##tering": 2050,
      "summ": 2051,
      "glad": 2052,
      "##ney": 2053,
      "broke": 2054,
      "especially": 2055,
      "##band": 2056,
      "seconds": 2057,
      "earl": 2058,
      "hun": 2059,
      "wrapped": 2060,
      "wild": 2061,
      "##ails": 2062,
      "kids": 2063,
      "darkness": 2064,
      "state": 2065,
      "##vous": 2066,
      "rich": 2067,
      "worried": 2068,
      "bey": 2069,
      "remembered": 2070,
      "stairs": 2071,
      "command": 2072,
      "demand": 2073,
      "sick": 2074,
      "##oring": 2075,
      "heat": 2076,
      "area": 2077,
      "##oof": 2078,
      "##me": 2079,
      "doors": 2080,
      "##itely": 2081,
      "weap": 2082,
      "beyond": 2083,
      "##aching": 2084,
      "van": 2085,
      "silent": 2086,
      "mill": 2087,
      "prep": 2088,
      "pract": 2089,
      "weak": 2090,
      "tow": 2091,
      "managed": 2092,
      "mel": 2093,
      "view": 2094,
      "questions": 2095,
      "fav": 2096,
      "paused": 2097,
      "threw": 2098,
      "mrs": 2099,
      "situ": 2100,
      "anger": 2101,
      "means": 2102,
      "placed": 2103,
      "spl": 2104,
      "##ested": 2105,
      "sigh": 2106,
      "walls": 2107,
      "ive": 2108,
      "ash": 2109,
      "huge": 2110,
      "##ara": 2111,
      "trees": 2112,
      "batt": 2113,
      "offic": 2114,
      "information": 2115,
      "magic": 2116,
      "daughter": 2117,
      "scr": 2118,
      "seems": 2119,
      "cab": 2120,
      "stret": 2121,
      "##ior": 2122,
      "cas": 2123,
      "stare": 2124,
      "##gging": 2125,
      "lip": 2126,
      "sugg": 2127,
      "val": 2128,
      "expected": 2129,
      "game": 2130,
      "##ages": 2131,
      "##ey": 2132,
      "distance": 2133,
      "mention": 2134,
      "comes": 2135,
      "angry": 2136,
      "gotten": 2137,
      "##reed": 2138,
      "shaking": 2139,
      "##ising": 2140,
      "wound": 2141,
      "##sy": 2142,
      "##osp": 2143,
      "serious": 2144,
      "meeting": 2145,
      "brief": 2146,
      "##ael": 2147,
      "##ibly": 2148,
      "tree": 2149,
      "news": 2150,
      "##ns": 2151,
      "lying": 2152,
      "ge": 2153,
      "catch": 2154,
      "sharp": 2155,
      "##ining": 2156,
      "##ues": 2157,
      "##tempt": 2158,
      "spread": 2159,
      "##cious": 2160,
      "piece": 2161,
      "listen": 2162,
      "pocket": 2163,
      "self": 2164,
      "##ination": 2165,
      "##oss": 2166,
      "wed": 2167,
      "event": 2168,
      "##aint": 2169,
      "ry": 2170,
      "early": 2171,
      "party": 2172,
      "##vent": 2173,
      "bull": 2174,
      "priv": 2175,
      "position": 2176,
      "carry": 2177,
      "##ipp": 2178,
      "jaw": 2179,
      "##sand": 2180,
      "path": 2181,
      "##gr": 2182,
      "matt": 2183,
      "dav": 2184,
      "ship": 2185,
      "smiling": 2186,
      "dar": 2187,
      "##fer": 2188,
      "gather": 2189,
      "##igg": 2190,
      "wet": 2191,
      "arg": 2192,
      "slam": 2193,
      "waist": 2194,
      "chuck": 2195,
      "##ale": 2196,
      "##orted": 2197,
      "react": 2198,
      "tired": 2199,
      "gent": 2200,
      "forced": 2201,
      "##aped": 2202,
      "##aling": 2203,
      "promise": 2204,
      "enc": 2205,
      "hide": 2206,
      "##esh": 2207,
      "bottom": 2208,
      "defin": 2209,
      "drag": 2210,
      "serv": 2211,
      "##ics": 2212,
      "rain": 2213,
      "##ica": 2214,
      "murm": 2215,
      "eyeb": 2216,
      "respond": 2217,
      "fuck": 2218,
      "clearly": 2219,
      "luc": 2220,
      "thousand": 2221,
      "blank": 2222,
      "agreed": 2223,
      "surround": 2224,
      "tot": 2225,
      "cond": 2226,
      "strugg": 2227,
      "toss": 2228,
      "bal": 2229,
      "relax": 2230,
      "desper": 2231,
      "##erm": 2232,
      "nervous": 2233,
      "husband": 2234,
      "anim": 2235,
      "save": 2236,
      "ell": 2237,
      "##ats": 2238,
      "##ky": 2239,
      "const": 2240,
      "snapped": 2241,
      "often": 2242,
      "kno": 2243,
      "fut": 2244,
      "##iliar": 2245,
      "pun": 2246,
      "chin": 2247,
      "grace": 2248,
      "bother": 2249,
      "keeping": 2250,
      "below": 2251,
      "##nded": 2252,
      "mis": 2253,
      "##vered": 2254,
      "hate": 2255,
      "choice": 2256,
      "##ection": 2257,
      "surv": 2258,
      "further": 2259,
      "##oming": 2260,
      "##ana": 2261,
      "suit": 2262,
      "whether": 2263,
      "bell": 2264,
      "star": 2265,
      "lock": 2266,
      "max": 2267,
      "thin": 2268,
      "ant": 2269,
      "takes": 2270,
      "worth": 2271,
      "boys": 2272,
      "playing": 2273,
      "##riend": 2274,
      "##old": 2275,
      "truck": 2276,
      "##ipping": 2277,
      "mass": 2278,
      "pleasure": 2279,
      "vi": 2280,
      "silver": 2281,
      "earlier": 2282,
      "using": 2283,
      "odd": 2284,
      "streng": 2285,
      "partic": 2286,
      "attempt": 2287,
      "pu": 2288,
      "incl": 2289,
      "amaz": 2290,
      "##ena": 2291,
      "bathroom": 2292,
      "slipped": 2293,
      "grinned": 2294,
      "obviously": 2295,
      "locked": 2296,
      "sword": 2297,
      "normal": 2298,
      "pound": 2299,
      "demon": 2300,
      "##imed": 2301,
      "lights": 2302,
      "evening": 2303,
      "repe": 2304,
      "send": 2305,
      "team": 2306,
      "ears": 2307,
      "letting": 2308,
      "dry": 2309,
      "situation": 2310,
      "requ": 2311,
      "crossed": 2312,
      "ver": 2313,
      "##idence": 2314,
      "honest": 2315,
      "##aked": 2316,
      "shall": 2317,
      "arrived": 2318,
      "asking": 2319,
      "##eng": 2320,
      "lived": 2321,
      "emb": 2322,
      "##oint": 2323,
      "ice": 2324,
      "bod": 2325,
      "eyebrow": 2326,
      "jumped": 2327,
      "apparent": 2328,
      "bow": 2329,
      "dog": 2330,
      "eth": 2331,
      "handed": 2332,
      "apartment": 2333,
      "coo": 2334,
      "dressed": 2335,
      "wolf": 2336,
      "invol": 2337,
      "frowned": 2338,
      "camp": 2339,
      "explain": 2340,
      "angel": 2341,
      "mid": 2342,
      "wip": 2343,
      "fold": 2344,
      "dim": 2345,
      "carefully": 2346,
      "center": 2347,
      "hoping": 2348,
      "muttered": 2349,
      "lap": 2350,
      "cheeks": 2351,
      "rad": 2352,
      "##tended": 2353,
      "##ancing": 2354,
      "##ishing": 2355,
      "assum": 2356,
      "contact": 2357,
      "showed": 2358,
      "realize": 2359,
      "##set": 2360,
      "spir": 2361,
      "##ote": 2362,
      "hoped": 2363,
      "music": 2364,
      "james": 2365,
      "shed": 2366,
      "breathing": 2367,
      "certainly": 2368,
      "und": 2369,
      "##orth": 2370,
      "band": 2371,
      "flat": 2372,
      "##ety": 2373,
      "laughing": 2374,
      "jake": 2375,
      "glance": 2376,
      "##cho": 2377,
      "gentle": 2378,
      "lose": 2379,
      "##fied": 2380,
      "themselves": 2381,
      "weight": 2382,
      "track": 2383,
      "agree": 2384,
      "strength": 2385,
      "imagine": 2386,
      "picture": 2387,
      "soul": 2388,
      "##usted": 2389,
      "##using": 2390,
      "##ager": 2391,
      "grew": 2392,
      "cup": 2393,
      "##ative": 2394,
      "whisper": 2395,
      "##ault": 2396,
      "##cted": 2397,
      "##ding": 2398,
      "##inc": 2399,
      "brain": 2400,
      "super": 2401,
      "jon": 2402,
      "favor": 2403,
      "pair": 2404,
      "##oc": 2405,
      "notice": 2406,
      "ol": 2407,
      "wore": 2408,
      "fix": 2409,
      "lives": 2410,
      "##era": 2411,
      "nor": 2412,
      "despite": 2413,
      "##aned": 2414,
      "queen": 2415,
      "snow": 2416,
      "##yle": 2417,
      "cass": 2418,
      "doctor": 2419,
      "##owers": 2420,
      "clou": 2421,
      "scared": 2422,
      "shoot": 2423,
      "definitely": 2424,
      "##kes": 2425,
      "captain": 2426,
      "fail": 2427,
      "hosp": 2428,
      "offered": 2429,
      "tun": 2430,
      "visit": 2431,
      "ah": 2432,
      "field": 2433,
      "usually": 2434,
      "##reen": 2435,
      "familiar": 2436,
      "beginning": 2437,
      "talked": 2438,
      "color": 2439,
      "charl": 2440,
      "energ": 2441,
      "future": 2442,
      "cand": 2443,
      "mich": 2444,
      "##ja": 2445,
      "besides": 2446,
      "age": 2447,
      "handle": 2448,
      "firm": 2449,
      "##aul": 2450,
      "avo": 2451,
      "lower": 2452,
      "##ping": 2453,
      "##elle": 2454,
      "base": 2455,
      "river": 2456,
      "##orge": 2457,
      "disc": 2458,
      "disco": 2459,
      "motion": 2460,
      "easily": 2461,
      "special": 2462,
      "wid": 2463,
      "wel": 2464,
      "forehead": 2465,
      "battle": 2466,
      "entered": 2467,
      "shouted": 2468,
      "aware": 2469,
      "helped": 2470,
      "appre": 2471,
      "##zen": 2472,
      "jud": 2473,
      "memory": 2474,
      "thirty": 2475,
      "level": 2476,
      "key": 2477,
      "fighting": 2478,
      "knife": 2479,
      "gest": 2480,
      "allowed": 2481,
      "forever": 2482,
      "stayed": 2483,
      "##idden": 2484,
      "remained": 2485,
      "mal": 2486,
      "metal": 2487,
      "don": 2488,
      "##go": 2489,
      "##ural": 2490,
      "pot": 2491,
      "pop": 2492,
      "suff": 2493,
      "itself": 2494,
      "pill": 2495,
      "test": 2496,
      "counter": 2497,
      "crack": 2498,
      "relation": 2499,
      "wouldnt": 2500,
      "tar": 2501,
      "ethan": 2502,
      "simple": 2503,
      "tru": 2504,
      "fresh": 2505,
      "neither": 2506,
      "jam": 2507,
      "dangerous": 2508,
      "##rian": 2509,
      "moon": 2510,
      "needs": 2511,
      "among": 2512,
      "shock": 2513,
      "scar": 2514,
      "##asing": 2515,
      "phot": 2516,
      "##ific": 2517,
      "##iel": 2518,
      "afterno": 2519,
      "hen": 2520,
      "focus": 2521,
      "horse": 2522,
      "vampires": 2523,
      "david": 2524,
      "rac": 2525,
      "cried": 2526,
      "ow": 2527,
      "##right": 2528,
      "push": 2529,
      "scent": 2530,
      "missed": 2531,
      "pub": 2532,
      "equ": 2533,
      "surf": 2534,
      "##inked": 2535,
      "lad": 2536,
      "aside": 2537,
      "phys": 2538,
      "effort": 2539,
      "reve": 2540,
      "##ird": 2541,
      "gets": 2542,
      "company": 2543,
      "pin": 2544,
      "flesh": 2545,
      "##ises": 2546,
      "##ressed": 2547,
      "fro": 2548,
      "squeez": 2549,
      "diffic": 2550,
      "hospital": 2551,
      "pale": 2552,
      "note": 2553,
      "bat": 2554,
      "destro": 2555,
      "stick": 2556,
      "willing": 2557,
      "##come": 2558,
      "##inct": 2559,
      "gh": 2560,
      "falling": 2561,
      "shadow": 2562,
      "##rig": 2563,
      "proper": 2564,
      "sweat": 2565,
      "energy": 2566,
      "court": 2567,
      "older": 2568,
      "adam": 2569,
      "##ges": 2570,
      "##izing": 2571,
      "une": 2572,
      "drop": 2573,
      "afternoon": 2574,
      "##ayed": 2575,
      "jeans": 2576,
      "personal": 2577,
      "present": 2578,
      "blond": 2579,
      "##usion": 2580,
      "burst": 2581,
      "seven": 2582,
      "park": 2583,
      "married": 2584,
      "emotion": 2585,
      "desire": 2586,
      "explained": 2587,
      "##ries": 2588,
      "asks": 2589,
      "##lin": 2590,
      "master": 2591,
      "following": 2592,
      "frey": 2593,
      "##idge": 2594,
      "kat": 2595,
      "gon": 2596,
      "fa": 2597,
      "port": 2598,
      "hated": 2599,
      "wanting": 2600,
      "##ession": 2601,
      "hat": 2602,
      "mike": 2603,
      "##ope": 2604,
      "##rit": 2605,
      "moments": 2606,
      "treat": 2607,
      "pour": 2608,
      "fit": 2609,
      "gab": 2610,
      "store": 2611,
      "learned": 2612,
      "putting": 2613,
      "couch": 2614,
      "##pper": 2615,
      "spo": 2616,
      "##acy": 2617,
      "apparently": 2618,
      "##ration": 2619,
      "##oned": 2620,
      "fil": 2621,
      "lab": 2622,
      "dom": 2623,
      "imm": 2624,
      "##olute": 2625,
      "shower": 2626,
      "##urity": 2627,
      "##vern": 2628,
      "relief": 2629,
      "particular": 2630,
      "discus": 2631,
      "speed": 2632,
      "wondering": 2633,
      "drove": 2634,
      "nar": 2635,
      "shake": 2636,
      "goes": 2637,
      "inde": 2638,
      "opening": 2639,
      "turns": 2640,
      "##stairs": 2641,
      "mot": 2642,
      "settled": 2643,
      "dear": 2644,
      "hol": 2645,
      "heal": 2646,
      "thigh": 2647,
      "noise": 2648,
      "stuck": 2649,
      "likely": 2650,
      "hanging": 2651,
      "##ashing": 2652,
      "busy": 2653,
      "third": 2654,
      "cu": 2655,
      "prov": 2656,
      "##ives": 2657,
      "understood": 2658,
      "hunt": 2659,
      "books": 2660,
      "grim": 2661,
      "##ston": 2662,
      "##ug": 2663,
      "screen": 2664,
      "escape": 2665,
      "carried": 2666,
      "##ived": 2667,
      "starting": 2668,
      "windows": 2669,
      "calling": 2670,
      "jason": 2671,
      "ride": 2672,
      "hill": 2673,
      "date": 2674,
      "pant": 2675,
      "screamed": 2676,
      "##amb": 2677,
      "rh": 2678,
      "bent": 2679,
      "fool": 2680,
      "hips": 2681,
      "disappeared": 2682,
      "ta": 2683,
      "maj": 2684,
      "viol": 2685,
      "##cher": 2686,
      "##iers": 2687,
      "bottle": 2688,
      "figured": 2689,
      "michael": 2690,
      "theres": 2691,
      "poor": 2692,
      "##cl": 2693,
      "ended": 2694,
      "determ": 2695,
      "powerful": 2696,
      "tele": 2697,
      "shifted": 2698,
      "rob": 2699,
      "##ulous": 2700,
      "ari": 2701,
      "hunter": 2702,
      "##astic": 2703,
      "mary": 2704,
      "study": 2705,
      "grip": 2706,
      "##nds": 2707,
      "obs": 2708,
      "unless": 2709,
      "imposs": 2710,
      "hea": 2711,
      "fort": 2712,
      "##ils": 2713,
      "missing": 2714,
      "mirror": 2715,
      "##asm": 2716,
      "##ert": 2717,
      "absolute": 2718,
      "##line": 2719,
      "wear": 2720,
      "happening": 2721,
      "##ob": 2722,
      "wake": 2723,
      "bodies": 2724,
      "rece": 2725,
      "dust": 2726,
      "murmured": 2727,
      "echo": 2728,
      "careful": 2729,
      "lets": 2730,
      "jos": 2731,
      "##onse": 2732,
      "hallway": 2733,
      "hy": 2734,
      "summer": 2735,
      "speaking": 2736,
      "learn": 2737,
      "security": 2738,
      "pants": 2739,
      "offer": 2740,
      "eventually": 2741,
      "taste": 2742,
      "belong": 2743,
      "pink": 2744,
      "comput": 2745,
      "zane": 2746,
      "##val": 2747,
      "peace": 2748,
      "hist": 2749,
      "dance": 2750,
      "##ution": 2751,
      "guards": 2752,
      "truly": 2753,
      "flash": 2754,
      "forest": 2755,
      "rachel": 2756,
      "bast": 2757,
      "clen": 2758,
      "##ett": 2759,
      "freyja": 2760,
      "difficult": 2761,
      "country": 2762,
      "twisted": 2763,
      "dru": 2764,
      "##ading": 2765,
      "harder": 2766,
      "##itten": 2767,
      "##men": 2768,
      "share": 2769,
      "##oved": 2770,
      "humans": 2771,
      "sea": 2772,
      "club": 2773,
      "est": 2774,
      "sleeping": 2775,
      "entr": 2776,
      "thumb": 2777,
      "##aff": 2778,
      "pul": 2779,
      "##ses": 2780,
      "##stem": 2781,
      "relationship": 2782,
      "mort": 2783,
      "yours": 2784,
      "weird": 2785,
      "tens": 2786,
      "peter": 2787,
      "##ians": 2788,
      "iv": 2789,
      "storm": 2790,
      "shiver": 2791,
      "jess": 2792,
      "horri": 2793,
      "prop": 2794,
      "yelled": 2795,
      "dig": 2796,
      "smoke": 2797,
      "gift": 2798,
      "uncle": 2799,
      "satis": 2800,
      "nod": 2801,
      "lucky": 2802,
      "##bert": 2803,
      "jes": 2804,
      "##inting": 2805,
      "blind": 2806,
      "doesnt": 2807,
      "leather": 2808,
      "pushing": 2809,
      "response": 2810,
      "unf": 2811,
      "interrupt": 2812,
      "laid": 2813,
      "system": 2814,
      "card": 2815,
      "swallowed": 2816,
      "aunt": 2817,
      "##leep": 2818,
      "grab": 2819,
      "ly": 2820,
      "usual": 2821,
      "palm": 2822,
      "growing": 2823,
      "station": 2824,
      "ways": 2825,
      "##ring": 2826,
      "admit": 2827,
      "spend": 2828,
      "sav": 2829,
      "compl": 2830,
      "message": 2831,
      "asleep": 2832,
      "places": 2833,
      "##attered": 2834,
      "enem": 2835,
      "##miss": 2836,
      "##atic": 2837,
      "shes": 2838,
      "enter": 2839,
      "##par": 2840,
      "##like": 2841,
      "considered": 2842,
      "doll": 2843,
      "##rent": 2844,
      "purp": 2845,
      "reading": 2846,
      "trip": 2847,
      "smooth": 2848,
      "beth": 2849,
      "##illed": 2850,
      "##umped": 2851,
      "sof": 2852,
      "##unity": 2853,
      "##athan": 2854,
      "##otten": 2855,
      "finding": 2856,
      "hadnt": 2857,
      "##ords": 2858,
      "effect": 2859,
      "##ledge": 2860,
      "##anda": 2861,
      "rough": 2862,
      "mov": 2863,
      "wine": 2864,
      "##ball": 2865,
      "seriously": 2866,
      "rom": 2867,
      "funny": 2868,
      "thom": 2869,
      "burning": 2870,
      "lang": 2871,
      "blinked": 2872,
      "leaning": 2873,
      "waved": 2874,
      "post": 2875,
      "miles": 2876,
      "confused": 2877,
      "obvious": 2878,
      "##acher": 2879,
      "##arm": 2880,
      "craw": 2881,
      "frank": 2882,
      "burned": 2883,
      "hole": 2884,
      "hotel": 2885,
      "feelings": 2886,
      "##res": 2887,
      "amer": 2888,
      "distract": 2889,
      "##rid": 2890,
      "bas": 2891,
      "island": 2892,
      "presence": 2893,
      "##ified": 2894,
      "birth": 2895,
      "leng": 2896,
      "vill": 2897,
      "sarah": 2898,
      "soph": 2899,
      "##ius": 2900,
      "wit": 2901,
      "anywhere": 2902,
      "drift": 2903,
      "private": 2904,
      "final": 2905,
      "##arrass": 2906,
      "north": 2907,
      "##bby": 2908,
      "##ron": 2909,
      "embarrass": 2910,
      "ut": 2911,
      "reminded": 2912,
      "##cri": 2913,
      "appreci": 2914,
      "consider": 2915,
      "emp": 2916,
      "victor": 2917,
      "cause": 2918,
      "defe": 2919,
      "##iot": 2920,
      "emma": 2921,
      "lunch": 2922,
      "shop": 2923,
      "refle": 2924,
      "forth": 2925,
      "enjoy": 2926,
      "murder": 2927,
      "shadows": 2928,
      "hidden": 2929,
      "listening": 2930,
      "corre": 2931,
      "bear": 2932,
      "piss": 2933,
      "var": 2934,
      "paul": 2935,
      "impossible": 2936,
      "rub": 2937,
      "##omb": 2938,
      "##iam": 2939,
      "suppose": 2940,
      "vision": 2941,
      "##icious": 2942,
      "rap": 2943,
      "##rated": 2944,
      "elect": 2945,
      "cabin": 2946,
      "block": 2947,
      "mart": 2948,
      "uh": 2949,
      "faint": 2950,
      "frust": 2951,
      "directly": 2952,
      "aid": 2953,
      "prison": 2954,
      "fallen": 2955,
      "song": 2956,
      "##roud": 2957,
      "believed": 2958,
      "whats": 2959,
      "pier": 2960,
      "feels": 2961,
      "##cks": 2962,
      "##cil": 2963,
      "##ency": 2964,
      "mach": 2965,
      "bite": 2966,
      "shoes": 2967,
      "mere": 2968,
      "arr": 2969,
      "allow": 2970,
      "includ": 2971,
      "necess": 2972,
      "shoved": 2973,
      "gard": 2974,
      "##urch": 2975,
      "narrow": 2976,
      "##ander": 2977,
      "surface": 2978,
      "##ounced": 2979,
      "ju": 2980,
      "##lyn": 2981,
      "colle": 2982,
      "doorway": 2983,
      "seth": 2984,
      "text": 2985,
      "##inal": 2986,
      "oppos": 2987,
      "disg": 2988,
      "west": 2989,
      "##port": 2990,
      "mic": 2991,
      "jacket": 2992,
      "demanded": 2993,
      "evil": 2994,
      "succ": 2995,
      "conv": 2996,
      "aut": 2997,
      "trick": 2998,
      "wont": 2999,
      "##ury": 3000,
      "male": 3001,
      "entrance": 3002,
      "grass": 3003,
      "sides": 3004,
      "length": 3005,
      "report": 3006,
      "vol": 3007,
      "experience": 3008,
      "respect": 3009,
      "##ole": 3010,
      "##ormed": 3011,
      "extra": 3012,
      "repeated": 3013,
      "climbed": 3014,
      "aud": 3015,
      "spell": 3016,
      "por": 3017,
      "rubbed": 3018,
      "##itive": 3019,
      "finish": 3020,
      "faces": 3021,
      "##gar": 3022,
      "capt": 3023,
      "warri": 3024,
      "circle": 3025,
      "elb": 3026,
      "numb": 3027,
      "crying": 3028,
      "wave": 3029,
      "fought": 3030,
      "memories": 3031,
      "##yer": 3032,
      "loose": 3033,
      "approached": 3034,
      "join": 3035,
      "played": 3036,
      "wished": 3037,
      "amazing": 3038,
      "driving": 3039,
      "##aur": 3040,
      "mac": 3041,
      "faster": 3042,
      "##oose": 3043,
      "##lessly": 3044,
      "breathe": 3045,
      "ghost": 3046,
      "totally": 3047,
      "cole": 3048,
      "nobody": 3049,
      "clut": 3050,
      "##ners": 3051,
      "ment": 3052,
      "wheel": 3053,
      "reaching": 3054,
      "buck": 3055,
      "coat": 3056,
      "##inging": 3057,
      "jim": 3058,
      "##ades": 3059,
      "slammed": 3060,
      "warning": 3061,
      "##riage": 3062,
      "nic": 3063,
      "lowered": 3064,
      "roof": 3065,
      "invest": 3066,
      "laught": 3067,
      "feed": 3068,
      "ian": 3069,
      "##asion": 3070,
      "board": 3071,
      "pit": 3072,
      "##ai": 3073,
      "involved": 3074,
      "tossed": 3075,
      "hearing": 3076,
      "hardly": 3077,
      "trail": 3078,
      "stiff": 3079,
      "muscles": 3080,
      "##omfort": 3081,
      "laughter": 3082,
      "brand": 3083,
      "beer": 3084,
      "clock": 3085,
      "fist": 3086,
      "computer": 3087,
      "##bing": 3088,
      "inno": 3089,
      "ceiling": 3090,
      "apolog": 3091,
      "##fast": 3092,
      "chang": 3093,
      "lung": 3094,
      "naked": 3095,
      "##cul": 3096,
      "thrust": 3097,
      "unable": 3098,
      "cleared": 3099,
      "tech": 3100,
      "##ids": 3101,
      "sne": 3102,
      "##hood": 3103,
      "iss": 3104,
      "perfectly": 3105,
      "##het": 3106,
      "##mer": 3107,
      "chase": 3108,
      "flick": 3109,
      "south": 3110,
      "size": 3111,
      "wrist": 3112,
      "cru": 3113,
      "heads": 3114,
      "possibly": 3115,
      "tip": 3116,
      "checked": 3117,
      "##uct": 3118,
      "church": 3119,
      "##issa": 3120,
      "rush": 3121,
      "mostly": 3122,
      "bound": 3123,
      "interested": 3124,
      "nur": 3125,
      "continue": 3126,
      "##yal": 3127,
      "##udd": 3128,
      "smart": 3129,
      "process": 3130,
      "tremb": 3131,
      "yellow": 3132,
      "killing": 3133,
      "exist": 3134,
      "##teen": 3135,
      "exha": 3136,
      "rul": 3137,
      "image": 3138,
      "lat": 3139,
      "bitch": 3140,
      "buy": 3141,
      "ordered": 3142,
      "rev": 3143,
      "gasped": 3144,
      "accom": 3145,
      "subject": 3146,
      "hiding": 3147,
      "general": 3148,
      "kicked": 3149,
      "support": 3150,
      "##eless": 3151,
      "weapon": 3152,
      "twice": 3153,
      "dir": 3154,
      "##board": 3155,
      "respons": 3156,
      "foc": 3157,
      "brothers": 3158,
      "born": 3159,
      "nine": 3160,
      "heading": 3161,
      "decision": 3162,
      "spark": 3163,
      "forgotten": 3164,
      "##ald": 3165,
      "opt": 3166,
      "gate": 3167,
      "instantly": 3168,
      "cock": 3169,
      "blow": 3170,
      "fully": 3171,
      "hi": 3172,
      "incred": 3173,
      "army": 3174,
      "beast": 3175,
      "pretend": 3176,
      "##izz": 3177,
      "henry": 3178,
      "##wise": 3179,
      "iron": 3180,
      "narr": 3181,
      "swung": 3182,
      "gigg": 3183,
      "purpose": 3184,
      "button": 3185,
      "tab": 3186,
      "attract": 3187,
      "eric": 3188,
      "regret": 3189,
      "panic": 3190,
      "##rage": 3191,
      "##ibility": 3192,
      "squeezed": 3193,
      "brushed": 3194,
      "feat": 3195,
      "focused": 3196,
      "gras": 3197,
      "risk": 3198,
      "promised": 3199,
      "##well": 3200,
      "logan": 3201,
      "anno": 3202,
      "driver": 3203,
      "gut": 3204,
      "comfortable": 3205,
      "blo": 3206,
      "terrible": 3207,
      "##anted": 3208,
      "div": 3209,
      "mood": 3210,
      "breakfast": 3211,
      "ignored": 3212,
      "##den": 3213,
      "##nel": 3214,
      "##male": 3215,
      "simon": 3216,
      "thomas": 3217,
      "amb": 3218,
      "soldiers": 3219,
      "stream": 3220,
      "paid": 3221,
      "female": 3222,
      "##ented": 3223,
      "##essed": 3224,
      "public": 3225,
      "fright": 3226,
      "fat": 3227,
      "claire": 3228,
      "proud": 3229,
      "history": 3230,
      "flew": 3231,
      "luci": 3232,
      "joe": 3233,
      "##ium": 3234,
      "##eke": 3235,
      "##lish": 3236,
      "suggest": 3237,
      "concerned": 3238,
      "flying": 3239,
      "jour": 3240,
      "luke": 3241,
      "neigh": 3242,
      "blade": 3243,
      "##inn": 3244,
      "##aming": 3245,
      "struck": 3246,
      "welcome": 3247,
      "upset": 3248,
      "##roll": 3249,
      "scene": 3250,
      "non": 3251,
      "rising": 3252,
      "##wh": 3253,
      "lines": 3254,
      "##ague": 3255,
      "hello": 3256,
      "univer": 3257,
      "fault": 3258,
      "pool": 3259,
      "gods": 3260,
      "blur": 3261,
      "surely": 3262,
      "neighb": 3263,
      "til": 3264,
      "rushed": 3265,
      "beach": 3266,
      "excited": 3267,
      "worst": 3268,
      "daniel": 3269,
      "pieces": 3270,
      "produ": 3271,
      "absolutely": 3272,
      "inj": 3273,
      "woods": 3274,
      "separ": 3275,
      "##iday": 3276,
      "bloody": 3277,
      "##ern": 3278,
      "stretched": 3279,
      "boat": 3280,
      "wedding": 3281,
      "comb": 3282,
      "scra": 3283,
      "parking": 3284,
      "current": 3285,
      "tightly": 3286,
      "honey": 3287,
      "grey": 3288,
      "disappoint": 3289,
      "opposite": 3290,
      "boots": 3291,
      "wooden": 3292,
      "cost": 3293,
      "plate": 3294,
      "##rest": 3295,
      "##bers": 3296,
      "jerked": 3297,
      "built": 3298,
      "excuse": 3299,
      "search": 3300,
      "quar": 3301,
      "kick": 3302,
      "pad": 3303,
      "##anna": 3304,
      "rum": 3305,
      "elev": 3306,
      "leaves": 3307,
      "claw": 3308,
      "breaking": 3309,
      "breast": 3310,
      "indeed": 3311,
      "##omed": 3312,
      "instinct": 3313,
      "##ral": 3314,
      "saf": 3315,
      "##eps": 3316,
      "screaming": 3317,
      "joined": 3318,
      "##inted": 3319,
      "steady": 3320,
      "eyed": 3321,
      "type": 3322,
      "dreams": 3323,
      "harm": 3324,
      "eating": 3325,
      "joy": 3326,
      "train": 3327,
      "psy": 3328,
      "kissing": 3329,
      "rang": 3330,
      "lake": 3331,
      "mas": 3332,
      "##otions": 3333,
      "magn": 3334,
      "backward": 3335,
      "##annah": 3336,
      "##hen": 3337,
      "plans": 3338,
      "dut": 3339,
      "huh": 3340,
      "descri": 3341,
      "##alk": 3342,
      "tick": 3343,
      "sha": 3344,
      "##uit": 3345,
      "##ama": 3346,
      "ya": 3347,
      "swear": 3348,
      "##sion": 3349,
      "ident": 3350,
      "movement": 3351,
      "curled": 3352,
      "kate": 3353,
      "fucking": 3354,
      "##work": 3355,
      "faced": 3356,
      "concent": 3357,
      "interesting": 3358,
      "deliver": 3359,
      "spirit": 3360,
      "studied": 3361,
      "bones": 3362,
      "touching": 3363,
      "##agged": 3364,
      "##ilar": 3365,
      "golden": 3366,
      "unb": 3367,
      "broad": 3368,
      "scan": 3369,
      "dirt": 3370,
      "hungry": 3371,
      "emotions": 3372,
      "##ground": 3373,
      "##house": 3374,
      "engine": 3375,
      "knock": 3376,
      "happens": 3377,
      "yester": 3378,
      "##illy": 3379,
      "brow": 3380,
      "slept": 3381,
      "##ov": 3382,
      "exam": 3383,
      "creature": 3384,
      "easier": 3385,
      "##une": 3386,
      "yesterday": 3387,
      "greet": 3388,
      "regard": 3389,
      "ken": 3390,
      "tent": 3391,
      "fren": 3392,
      "##allen": 3393,
      "prepared": 3394,
      "reaction": 3395,
      "released": 3396,
      "accident": 3397,
      "##rodu": 3398,
      "ban": 3399,
      "rand": 3400,
      "shape": 3401,
      "knowledge": 3402,
      "##ias": 3403,
      "losing": 3404,
      "decl": 3405,
      "flight": 3406,
      "##isto": 3407,
      "caused": 3408,
      "oper": 3409,
      "narrowed": 3410,
      "shudd": 3411,
      "##ensive": 3412,
      "guest": 3413,
      "whose": 3414,
      "flashed": 3415,
      "deeper": 3416,
      "mistake": 3417,
      "godd": 3418,
      "concern": 3419,
      "listened": 3420,
      "##ism": 3421,
      "##ancy": 3422,
      "hig": 3423,
      "##aret": 3424,
      "growled": 3425,
      "anx": 3426,
      "sour": 3427,
      "trave": 3428,
      "josh": 3429,
      "##ective": 3430,
      "mix": 3431,
      "##00": 3432,
      "sink": 3433,
      "##col": 3434,
      "isnt": 3435,
      "prince": 3436,
      "screw": 3437,
      "square": 3438,
      "decide": 3439,
      "auth": 3440,
      "knee": 3441,
      "##aly": 3442,
      "jamie": 3443,
      "bree": 3444,
      "prefer": 3445,
      "travel": 3446,
      "##iley": 3447,
      "ryan": 3448,
      "##unately": 3449,
      "thinks": 3450,
      "staying": 3451,
      "arch": 3452,
      "shield": 3453,
      "butt": 3454,
      "##ceed": 3455,
      "fifteen": 3456,
      "opport": 3457,
      "stun": 3458,
      "dying": 3459,
      "kell": 3460,
      "thor": 3461,
      "fer": 3462,
      "hesitated": 3463,
      "woke": 3464,
      "favorite": 3465,
      "searching": 3466,
      "steel": 3467,
      "##under": 3468,
      "object": 3469,
      "clenched": 3470,
      "smiles": 3471,
      "pray": 3472,
      "animal": 3473,
      "shel": 3474,
      "govern": 3475,
      "boss": 3476,
      "tightened": 3477,
      "##uing": 3478,
      "wings": 3479,
      "##ume": 3480,
      "crew": 3481,
      "shocked": 3482,
      "weapons": 3483,
      "dirty": 3484,
      "inch": 3485,
      "tan": 3486,
      "landed": 3487,
      "vir": 3488,
      "scrat": 3489,
      "occasion": 3490,
      "##icle": 3491,
      "removed": 3492,
      "spun": 3493,
      "college": 3494,
      "eyebrows": 3495,
      "william": 3496,
      "double": 3497,
      "eliz": 3498,
      "entirely": 3499,
      "refused": 3500,
      "uncomfort": 3501,
      "hurry": 3502,
      "tea": 3503,
      "cy": 3504,
      "chuckled": 3505,
      "wonderful": 3506,
      "carrying": 3507,
      "##velop": 3508,
      "hug": 3509,
      "avoid": 3510,
      "grown": 3511,
      "##mas": 3512,
      "bastard": 3513,
      "nearby": 3514,
      "drunk": 3515,
      "##friend": 3516,
      "awk": 3517,
      "planned": 3518,
      "showing": 3519,
      "awkward": 3520,
      "##itude": 3521,
      "##umbling": 3522,
      "hors": 3523,
      "obser": 3524,
      "bringing": 3525,
      "recognized": 3526,
      "##arily": 3527,
      "instant": 3528,
      "knocked": 3529,
      "orig": 3530,
      "everywhere": 3531,
      "breathed": 3532,
      "reply": 3533,
      "uns": 3534,
      "shared": 3535,
      "solid": 3536,
      "san": 3537,
      "suggested": 3538,
      "admitted": 3539,
      "dun": 3540,
      "indic": 3541,
      "##ially": 3542,
      "saved": 3543,
      "row": 3544,
      "charlie": 3545,
      "gives": 3546,
      "desperate": 3547,
      "theyre": 3548,
      "##imp": 3549,
      "##nday": 3550,
      "julian": 3551,
      "gathered": 3552,
      "mountain": 3553,
      "##gie": 3554,
      "cook": 3555,
      "dare": 3556,
      "warmth": 3557,
      "smir": 3558,
      "##igned": 3559,
      "yan": 3560,
      "cow": 3561,
      "major": 3562,
      "belly": 3563,
      "closing": 3564,
      "comment": 3565,
      "##asy": 3566,
      "answers": 3567,
      "##antic": 3568,
      "otherwise": 3569,
      "bought": 3570,
      "##por": 3571,
      "mc": 3572,
      "anci": 3573,
      "sending": 3574,
      "19": 3575,
      "pregn": 3576,
      "sucked": 3577,
      "##ously": 3578,
      "convin": 3579,
      "depart": 3580,
      "stories": 3581,
      "bridge": 3582,
      "giant": 3583,
      "sexy": 3584,
      "deeply": 3585,
      "boyfriend": 3586,
      "hurried": 3587,
      "restaur": 3588,
      "claim": 3589,
      "record": 3590,
      "buried": 3591,
      "heaven": 3592,
      "calls": 3593,
      "staff": 3594,
      "groaned": 3595,
      "libr": 3596,
      "pure": 3597,
      "emily": 3598,
      "techn": 3599,
      "liz": 3600,
      "instru": 3601,
      "cars": 3602,
      "stage": 3603,
      "pleased": 3604,
      "##key": 3605,
      "um": 3606,
      "tear": 3607,
      "rare": 3608,
      "silently": 3609,
      "meaning": 3610,
      "beauty": 3611,
      "pictures": 3612,
      "tour": 3613,
      "rolling": 3614,
      "##ique": 3615,
      "unfort": 3616,
      "helping": 3617,
      "awake": 3618,
      "investig": 3619,
      "jeff": 3620,
      "dragged": 3621,
      "stab": 3622,
      "stir": 3623,
      "##eled": 3624,
      "glow": 3625,
      "##ese": 3626,
      "marry": 3627,
      "challen": 3628,
      "dragon": 3629,
      "belt": 3630,
      "author": 3631,
      "reality": 3632,
      "bru": 3633,
      "##rel": 3634,
      "##ura": 3635,
      "cust": 3636,
      "sac": 3637,
      "##reme": 3638,
      "exch": 3639,
      "common": 3640,
      "success": 3641,
      "fifty": 3642,
      "prin": 3643,
      "deck": 3644,
      "adj": 3645,
      "surrounded": 3646,
      "faded": 3647,
      "spin": 3648,
      "drawn": 3649,
      "letter": 3650,
      "stat": 3651,
      "eld": 3652,
      "host": 3653,
      "fal": 3654,
      "##agg": 3655,
      "names": 3656,
      "deb": 3657,
      "insp": 3658,
      "##str": 3659,
      "necessary": 3660,
      "eager": 3661,
      "noah": 3662,
      "##eping": 3663,
      "imagined": 3664,
      "relie": 3665,
      "holl": 3666,
      "training": 3667,
      "gle": 3668,
      "tur": 3669,
      "works": 3670,
      "intense": 3671,
      "jac": 3672,
      "pulls": 3673,
      "##ogra": 3674,
      "##case": 3675,
      "ling": 3676,
      "##itor": 3677,
      "amount": 3678,
      "##ded": 3679,
      "##ational": 3680,
      "action": 3681,
      "prec": 3682,
      "lily": 3683,
      "local": 3684,
      "pause": 3685,
      "##ican": 3686,
      "##ument": 3687,
      "service": 3688,
      "remain": 3689,
      "##ences": 3690,
      "folded": 3691,
      "##nes": 3692,
      "rage": 3693,
      "leading": 3694,
      "langu": 3695,
      "determined": 3696,
      "##nie": 3697,
      "charge": 3698,
      "cig": 3699,
      "lack": 3700,
      "glasses": 3701,
      "bank": 3702,
      "displ": 3703,
      "wiped": 3704,
      "excite": 3705,
      "mate": 3706,
      "youve": 3707,
      "##ios": 3708,
      "##rick": 3709,
      "grate": 3710,
      "##dom": 3711,
      "sus": 3712,
      "ren": 3713,
      "nature": 3714,
      "ancient": 3715,
      "introdu": 3716,
      "drawing": 3717,
      "gabri": 3718,
      "drinking": 3719,
      "horses": 3720,
      "leap": 3721,
      "##bit": 3722,
      "officer": 3723,
      "tort": 3724,
      "sliding": 3725,
      "pointing": 3726,
      "##ashes": 3727,
      "occur": 3728,
      "##uss": 3729,
      "stars": 3730,
      "movie": 3731,
      "gall": 3732,
      "cale": 3733,
      "expecting": 3734,
      "mentioned": 3735,
      "richard": 3736,
      "considering": 3737,
      "passing": 3738,
      "##asons": 3739,
      "chat": 3740,
      "betr": 3741,
      "younger": 3742,
      "natural": 3743,
      "discovered": 3744,
      "chick": 3745,
      "waves": 3746,
      "mod": 3747,
      "slip": 3748,
      "voices": 3749,
      "plenty": 3750,
      "opportunity": 3751,
      "rise": 3752,
      "##uc": 3753,
      "aband": 3754,
      "curious": 3755,
      "witch": 3756,
      "##thy": 3757,
      "##lled": 3758,
      "streets": 3759,
      "rooms": 3760,
      "heels": 3761,
      "##wood": 3762,
      "glared": 3763,
      "dozen": 3764,
      "recall": 3765,
      "fab": 3766,
      "excitement": 3767,
      "details": 3768,
      "hom": 3769,
      "horror": 3770,
      "crap": 3771,
      "domin": 3772,
      "jared": 3773,
      "physical": 3774,
      "##itary": 3775,
      "rout": 3776,
      "intim": 3777,
      "garden": 3778,
      "bul": 3779,
      "problems": 3780,
      "oliv": 3781,
      "assist": 3782,
      "cave": 3783,
      "lightly": 3784,
      "blame": 3785,
      "dart": 3786,
      "jew": 3787,
      "wand": 3788,
      "ray": 3789,
      "pressure": 3790,
      "written": 3791,
      "##mp": 3792,
      "clo": 3793,
      "##iment": 3794,
      "##aches": 3795,
      "loss": 3796,
      "throwing": 3797,
      "badly": 3798,
      "resist": 3799,
      "members": 3800,
      "lif": 3801,
      "relaxed": 3802,
      "enemy": 3803,
      "##the": 3804,
      "##ham": 3805,
      "##gu": 3806,
      "##ooked": 3807,
      "##iculous": 3808,
      "seb": 3809,
      "bry": 3810,
      "keys": 3811,
      "##agger": 3812,
      "hous": 3813,
      "grunt": 3814,
      "incre": 3815,
      "kyl": 3816,
      "safety": 3817,
      "experien": 3818,
      "ignore": 3819,
      "christmas": 3820,
      "##ette": 3821,
      "setting": 3822,
      "stronger": 3823,
      "york": 3824,
      "match": 3825,
      "glo": 3826,
      "blast": 3827,
      "spar": 3828,
      "prev": 3829,
      "##gress": 3830,
      "ank": 3831,
      "tied": 3832,
      "cassie": 3833,
      "dawn": 3834,
      "correct": 3835,
      "holy": 3836,
      "##alous": 3837,
      "tail": 3838,
      "account": 3839,
      "orders": 3840,
      "##arsh": 3841,
      "fol": 3842,
      "blanket": 3843,
      "##end": 3844,
      "interrupted": 3845,
      "kisses": 3846,
      "rested": 3847,
      "fac": 3848,
      "target": 3849,
      "lucas": 3850,
      "weeke": 3851,
      "veh": 3852,
      "##ilities": 3853,
      "##tle": 3854,
      "pissed": 3855,
      "##ye": 3856,
      "witness": 3857,
      "##ille": 3858,
      "twel": 3859,
      "ability": 3860,
      "tv": 3861,
      "inh": 3862,
      "##oted": 3863,
      "wis": 3864,
      "##ker": 3865,
      "christian": 3866,
      "##lfriend": 3867,
      "features": 3868,
      "guilt": 3869,
      "jan": 3870,
      "thighs": 3871,
      "girlfriend": 3872,
      "temper": 3873,
      "##ts": 3874,
      "greg": 3875,
      "sebast": 3876,
      "failed": 3877,
      "psych": 3878,
      "swept": 3879,
      "confir": 3880,
      "obl": 3881,
      "elevator": 3882,
      "corrid": 3883,
      "pred": 3884,
      "anna": 3885,
      "becoming": 3886,
      "kylie": 3887,
      "council": 3888,
      "olivia": 3889,
      "##ella": 3890,
      "jesus": 3891,
      "honor": 3892,
      "edd": 3893,
      "unlike": 3894,
      "terror": 3895,
      "##itched": 3896,
      "plane": 3897,
      "##abeth": 3898,
      "nowhere": 3899,
      "##can": 3900,
      "skill": 3901,
      "commun": 3902,
      "pressing": 3903,
      "tucked": 3904,
      "fish": 3905,
      "english": 3906,
      "hint": 3907,
      "intern": 3908,
      "george": 3909,
      "slee": 3910,
      "million": 3911,
      "##erial": 3912,
      "bitter": 3913,
      "organ": 3914,
      "named": 3915,
      "skirt": 3916,
      "flames": 3917,
      "sell": 3918,
      "evidence": 3919,
      "forty": 3920,
      "manage": 3921,
      "doc": 3922,
      "##father": 3923,
      "silk": 3924,
      "release": 3925,
      "##iant": 3926,
      "firmly": 3927,
      "poured": 3928,
      "mission": 3929,
      "smelled": 3930,
      "sebastian": 3931,
      "porch": 3932,
      "abrupt": 3933,
      "overw": 3934,
      "scow": 3935,
      "youll": 3936,
      "cha": 3937,
      "##ante": 3938,
      "sed": 3939,
      "bon": 3940,
      "sen": 3941,
      "##acks": 3942,
      "including": 3943,
      "##ev": 3944,
      "twist": 3945,
      "restaurant": 3946,
      "irrit": 3947,
      "bigger": 3948,
      "prove": 3949,
      "chill": 3950,
      "unw": 3951,
      "responded": 3952,
      "tang": 3953,
      "reb": 3954,
      "east": 3955,
      "##isters": 3956,
      "##uries": 3957,
      "fant": 3958,
      "##icate": 3959,
      "cash": 3960,
      "fart": 3961,
      "result": 3962,
      "##ires": 3963,
      "##eling": 3964,
      "starts": 3965,
      "##aging": 3966,
      "flowers": 3967,
      "nate": 3968,
      "pace": 3969,
      "compan": 3970,
      "##very": 3971,
      "##olves": 3972,
      "blake": 3973,
      "cared": 3974,
      "##min": 3975,
      "higher": 3976,
      "struggled": 3977,
      "planning": 3978,
      "##neath": 3979,
      "winter": 3980,
      "village": 3981,
      "massive": 3982,
      "##rog": 3983,
      "cous": 3984,
      "##action": 3985,
      "##mother": 3986,
      "twelve": 3987,
      "phil": 3988,
      "##oe": 3989,
      "project": 3990,
      "upstairs": 3991,
      "backed": 3992,
      "spoken": 3993,
      "ivy": 3994,
      "isab": 3995,
      "log": 3996,
      "exh": 3997,
      "##hew": 3998,
      "lovely": 3999,
      "similar": 4000,
      "facing": 4001,
      "disp": 4002,
      "vib": 4003,
      "french": 4004,
      "##uses": 4005,
      "grad": 4006,
      "difference": 4007,
      "robert": 4008,
      "gripped": 4009,
      "jane": 4010,
      "widened": 4011,
      "page": 4012,
      "##lla": 4013,
      "tony": 4014,
      "ripped": 4015,
      "marriage": 4016,
      "buzz": 4017,
      "fed": 4018,
      "planet": 4019,
      "##nn": 4020,
      "cream": 4021,
      "material": 4022,
      "whenever": 4023,
      "rick": 4024,
      "extreme": 4025,
      "##rop": 4026,
      "papers": 4027,
      "parked": 4028,
      "bay": 4029,
      "passion": 4030,
      "##ider": 4031,
      "uncomfortable": 4032,
      "##mit": 4033,
      "##icip": 4034,
      "whom": 4035,
      "carp": 4036,
      "jealous": 4037,
      "kar": 4038,
      "demons": 4039,
      "castle": 4040,
      "flood": 4041,
      "nightm": 4042,
      "oce": 4043,
      "##ature": 4044,
      "##sey": 4045,
      "swim": 4046,
      "snar": 4047,
      "ridiculous": 4048,
      "liam": 4049,
      "machine": 4050,
      "##iction": 4051,
      "##aine": 4052,
      "purse": 4053,
      "powers": 4054,
      "reasons": 4055,
      "briefly": 4056,
      "elizabeth": 4057,
      "weather": 4058,
      "vac": 4059,
      "underneath": 4060,
      "tension": 4061,
      "insisted": 4062,
      "pil": 4063,
      "##amber": 4064,
      "liqu": 4065,
      "enjoyed": 4066,
      "choose": 4067,
      "slide": 4068,
      "practically": 4069,
      "relieved": 4070,
      "race": 4071,
      "monster": 4072,
      "plain": 4073,
      "survive": 4074,
      "nights": 4075,
      "startled": 4076,
      "gorge": 4077,
      "cel": 4078,
      "##inary": 4079,
      "satisf": 4080,
      "##con": 4081,
      "heavily": 4082,
      "plastic": 4083,
      "lex": 4084,
      "princess": 4085,
      "##ization": 4086,
      "parts": 4087,
      "trent": 4088,
      "handsome": 4089,
      "sniff": 4090,
      "knight": 4091,
      "confusion": 4092,
      "stopping": 4093,
      "dancing": 4094,
      "##ival": 4095,
      "chris": 4096,
      "cryst": 4097,
      "library": 4098,
      "anticip": 4099,
      "##icing": 4100,
      "fang": 4101,
      "urge": 4102,
      "profess": 4103,
      "ted": 4104,
      "##isa": 4105,
      "fier": 4106,
      "blew": 4107,
      "eve": 4108,
      "emer": 4109,
      "cart": 4110,
      "warned": 4111,
      "camera": 4112,
      "pip": 4113,
      "##lies": 4114,
      "jace": 4115,
      "stair": 4116,
      "write": 4117,
      "innocent": 4118,
      "tit": 4119,
      "##zed": 4120,
      "tunnel": 4121,
      "hamm": 4122,
      "guns": 4123,
      "##ctions": 4124,
      "wow": 4125,
      "conscious": 4126,
      "##iving": 4127,
      "sts": 4128,
      "##pes": 4129,
      "nightmare": 4130,
      "attend": 4131,
      "ate": 4132,
      "merely": 4133,
      "##vering": 4134,
      "rules": 4135,
      "##dding": 4136,
      "connection": 4137,
      "##iest": 4138,
      "ger": 4139,
      "neg": 4140,
      "grave": 4141,
      "radio": 4142,
      "beck": 4143,
      "leader": 4144,
      "brush": 4145,
      "cloud": 4146,
      "picking": 4147,
      "faith": 4148,
      "forgot": 4149,
      "ms": 4150,
      "inches": 4151,
      "bleed": 4152,
      "upper": 4153,
      "##oll": 4154,
      "accord": 4155,
      "emplo": 4156,
      "ven": 4157,
      "rear": 4158,
      "agent": 4159,
      "sank": 4160,
      "swir": 4161,
      "connor": 4162,
      "##iber": 4163,
      "##antage": 4164,
      "##eter": 4165,
      "clay": 4166,
      "camer": 4167,
      "##iently": 4168,
      "embr": 4169,
      "sean": 4170,
      "victim": 4171,
      "idiot": 4172,
      "julia": 4173,
      "##idding": 4174,
      "teen": 4175,
      "split": 4176,
      "ber": 4177,
      "horrible": 4178,
      "ward": 4179,
      "tells": 4180,
      "pounding": 4181,
      "##ality": 4182,
      "##top": 4183,
      "honestly": 4184,
      "tatt": 4185,
      "rif": 4186,
      "rust": 4187,
      "froze": 4188,
      "creatures": 4189,
      "normally": 4190,
      "brad": 4191,
      "assumed": 4192,
      "##ira": 4193,
      "teacher": 4194,
      "thrown": 4195,
      "reass": 4196,
      "intell": 4197,
      "frame": 4198,
      "ron": 4199,
      "address": 4200,
      "writing": 4201,
      "ug": 4202,
      "yard": 4203,
      "##istic": 4204,
      "glancing": 4205,
      "created": 4206,
      "weekend": 4207,
      "stumbled": 4208,
      "tess": 4209,
      "develop": 4210,
      "reluct": 4211,
      "##ify": 4212,
      "##yn": 4213,
      "nods": 4214,
      "farm": 4215,
      "overwhel": 4216,
      "##ca": 4217,
      "military": 4218,
      "##view": 4219,
      "dread": 4220,
      "swift": 4221,
      "rail": 4222,
      "lots": 4223,
      "flipped": 4224,
      "##af": 4225,
      "unfortunately": 4226,
      "##umps": 4227,
      "##ndon": 4228,
      "fash": 4229,
      "orange": 4230,
      "access": 4231,
      "understanding": 4232,
      "unif": 4233,
      "suck": 4234,
      "resting": 4235,
      "closet": 4236,
      "ease": 4237,
      "nathan": 4238,
      "lungs": 4239,
      "tempt": 4240,
      "animals": 4241,
      "hood": 4242,
      "appreciate": 4243,
      "fixed": 4244,
      "fists": 4245,
      "grateful": 4246,
      "destroy": 4247,
      "convinced": 4248,
      "freed": 4249,
      "utter": 4250,
      "##hol": 4251,
      "spring": 4252,
      "spine": 4253,
      "stands": 4254,
      "pregnant": 4255,
      "soot": 4256,
      "grabbing": 4257,
      "##gram": 4258,
      "awful": 4259,
      "cheer": 4260,
      "cigaret": 4261,
      "##laimed": 4262,
      "tender": 4263,
      "damp": 4264,
      "sin": 4265,
      "somebody": 4266,
      "##ki": 4267,
      "ni": 4268,
      "##acle": 4269,
      "resc": 4270,
      "fan": 4271,
      "ting": 4272,
      "##now": 4273,
      "hugged": 4274,
      "fury": 4275,
      "glare": 4276,
      "ram": 4277,
      "loudly": 4278,
      "beating": 4279,
      "pile": 4280,
      "##gest": 4281,
      "furn": 4282,
      "carol": 4283,
      "eddie": 4284,
      "refer": 4285,
      "##time": 4286,
      "distant": 4287,
      "jay": 4288,
      "events": 4289,
      "torn": 4290,
      "strang": 4291,
      "trembling": 4292,
      "##aper": 4293,
      "map": 4294,
      "##aunt": 4295,
      "thunder": 4296,
      "##ppy": 4297,
      "rever": 4298,
      "dropping": 4299,
      "daddy": 4300,
      "jose": 4301,
      "worn": 4302,
      "bone": 4303,
      "damned": 4304,
      "grandmother": 4305,
      "meal": 4306,
      "custom": 4307,
      "surprising": 4308,
      "##book": 4309,
      "##itions": 4310,
      "sco": 4311,
      "ocean": 4312,
      "##enger": 4313,
      "resear": 4314,
      "fierce": 4315,
      "bird": 4316,
      "##for": 4317,
      "cele": 4318,
      "activ": 4319,
      "taught": 4320,
      "delight": 4321,
      "fired": 4322,
      "meat": 4323,
      "nik": 4324,
      "wer": 4325,
      "##ddy": 4326,
      "temple": 4327,
      "recognize": 4328,
      "tattoo": 4329,
      "rapid": 4330,
      "painting": 4331,
      "##vision": 4332,
      "##ential": 4333,
      "fate": 4334,
      "height": 4335,
      "fashion": 4336,
      "##istan": 4337,
      "tilted": 4338,
      "##iance": 4339,
      "american": 4340,
      "clouds": 4341,
      "##ech": 4342,
      "##ita": 4343,
      "practice": 4344,
      "killer": 4345,
      "wes": 4346,
      "accepted": 4347,
      "crim": 4348,
      "##lor": 4349,
      "guil": 4350,
      "curtain": 4351,
      "ack": 4352,
      "acting": 4353,
      "language": 4354,
      "gorgeous": 4355,
      "dere": 4356,
      "hip": 4357,
      "distur": 4358,
      "riley": 4359,
      "clothing": 4360,
      "cro": 4361,
      "buildings": 4362,
      "damage": 4363,
      "cott": 4364,
      "abby": 4365,
      "elbow": 4366,
      "warrior": 4367,
      "harsh": 4368,
      "wash": 4369,
      "chain": 4370,
      "##ront": 4371,
      "##ora": 4372,
      "dug": 4373,
      "rubbing": 4374,
      "##erson": 4375,
      "frozen": 4376,
      "celebr": 4377,
      "tugged": 4378,
      "##vis": 4379,
      "due": 4380,
      "##ka": 4381,
      "shakes": 4382,
      "rocks": 4383,
      "##aks": 4384,
      "marsh": 4385,
      "crou": 4386,
      "chew": 4387,
      "##asure": 4388,
      "whir": 4389,
      "cad": 4390,
      "corridor": 4391,
      "stranger": 4392,
      "cracked": 4393,
      "skull": 4394,
      "##mo": 4395,
      "spotted": 4396,
      "##form": 4397,
      "joke": 4398,
      "priest": 4399,
      "brick": 4400,
      "explod": 4401,
      "plus": 4402,
      "depe": 4403,
      "breeze": 4404,
      "sensation": 4405,
      "ignoring": 4406,
      "government": 4407,
      "##ris": 4408,
      "tie": 4409,
      "ali": 4410,
      "chose": 4411,
      "flut": 4412,
      "polit": 4413,
      "grandfather": 4414,
      "chairs": 4415,
      "myst": 4416,
      "explos": 4417,
      "forgive": 4418,
      "assured": 4419,
      "chlo": 4420,
      "##ivid": 4421,
      "##inated": 4422,
      "frustration": 4423,
      "gw": 4424,
      "towel": 4425,
      "suspected": 4426,
      "pillow": 4427,
      "searched": 4428,
      "duty": 4429,
      "waste": 4430,
      "downstairs": 4431,
      "protest": 4432,
      "##ograph": 4433,
      "cred": 4434,
      "intended": 4435,
      "unlo": 4436,
      "gy": 4437,
      "peered": 4438,
      "gal": 4439,
      "dick": 4440,
      "##mon": 4441,
      "scott": 4442,
      "escaped": 4443,
      "mia": 4444,
      "judge": 4445,
      "birthday": 4446,
      "causing": 4447,
      "smaller": 4448,
      "andrew": 4449,
      "vers": 4450,
      "guilty": 4451,
      "whoever": 4452,
      "puzz": 4453,
      "shell": 4454,
      "various": 4455,
      "received": 4456,
      "suspic": 4457,
      "stunned": 4458,
      "gabriel": 4459,
      "##illing": 4460,
      "plat": 4461,
      "regular": 4462,
      "##ec": 4463,
      "tore": 4464,
      "conc": 4465,
      "desperately": 4466,
      "climb": 4467,
      "ja": 4468,
      "settle": 4469,
      "charac": 4470,
      "derek": 4471,
      "secrets": 4472,
      "##osen": 4473,
      "mail": 4474,
      "balance": 4475,
      "groan": 4476,
      "##ino": 4477,
      "##asha": 4478,
      "##otic": 4479,
      "##gy": 4480,
      "chief": 4481,
      "hissed": 4482,
      "popped": 4483,
      "egg": 4484,
      "enjoying": 4485,
      "brows": 4486,
      "farther": 4487,
      "civ": 4488,
      "brian": 4489,
      "lifting": 4490,
      "nav": 4491,
      "kim": 4492,
      "soldier": 4493,
      "##phone": 4494,
      "begun": 4495,
      "attacked": 4496,
      "chamber": 4497,
      "vel": 4498,
      "et": 4499,
      "pride": 4500,
      "palms": 4501,
      "chosen": 4502,
      "hero": 4503,
      "loving": 4504,
      "professor": 4505,
      "partner": 4506,
      "sisters": 4507,
      "pulse": 4508,
      "ens": 4509,
      "bags": 4510,
      "amy": 4511,
      "stepping": 4512,
      "suspect": 4513,
      "trapped": 4514,
      "nin": 4515,
      "##ram": 4516,
      "alright": 4517,
      "london": 4518,
      "##cture": 4519,
      "abruptly": 4520,
      "aim": 4521,
      "footst": 4522,
      "disgust": 4523,
      "returning": 4524,
      "nurse": 4525,
      "kend": 4526,
      "collaps": 4527,
      "kal": 4528,
      "wil": 4529,
      "alarm": 4530,
      "desce": 4531,
      "gesture": 4532,
      "##amped": 4533,
      "notes": 4534,
      "surre": 4535,
      "walks": 4536,
      "bunch": 4537,
      "students": 4538,
      "bri": 4539,
      "mum": 4540,
      "terrified": 4541,
      "explan": 4542,
      "hal": 4543,
      "##rate": 4544,
      "capable": 4545,
      "virg": 4546,
      "##umed": 4547,
      "drifted": 4548,
      "dor": 4549,
      "snat": 4550,
      "formed": 4551,
      "yanked": 4552,
      "##ators": 4553,
      "##cif": 4554,
      "sip": 4555,
      "caress": 4556,
      "ladies": 4557,
      "brill": 4558,
      "cher": 4559,
      "cute": 4560,
      "##ases": 4561,
      "landing": 4562,
      "chloe": 4563,
      "exhausted": 4564,
      "sara": 4565,
      "painful": 4566,
      "muscle": 4567,
      "won": 4568,
      "display": 4569,
      "rib": 4570,
      "program": 4571,
      "les": 4572,
      "sensed": 4573,
      "curse": 4574,
      "sake": 4575,
      "##kin": 4576,
      "particularly": 4577,
      "unex": 4578,
      "intent": 4579,
      "covering": 4580,
      "perform": 4581,
      "rode": 4582,
      "##athy": 4583,
      "mountains": 4584,
      "lined": 4585,
      "rule": 4586,
      "rot": 4587,
      "werew": 4588,
      "##heart": 4589,
      "circum": 4590,
      "##itation": 4591,
      "##fit": 4592,
      "##bel": 4593,
      "houses": 4594,
      "ros": 4595,
      "changing": 4596,
      "bran": 4597,
      "condition": 4598,
      "liter": 4599,
      "##do": 4600,
      "shame": 4601,
      "discuss": 4602,
      "moan": 4603,
      "##ushes": 4604,
      "bond": 4605,
      "rhy": 4606,
      "acknow": 4607,
      "marcus": 4608,
      "##ology": 4609,
      "larger": 4610,
      "term": 4611,
      "##what": 4612,
      "##ffic": 4613,
      "purple": 4614,
      "glowing": 4615,
      "underw": 4616,
      "gazed": 4617,
      "signs": 4618,
      "concl": 4619,
      "impat": 4620,
      "##ites": 4621,
      "prim": 4622,
      "detail": 4623,
      "shr": 4624,
      "checking": 4625,
      "echoed": 4626,
      "shooting": 4627,
      "blonde": 4628,
      "uniform": 4629,
      "grant": 4630,
      "gage": 4631,
      "vio": 4632,
      "snorted": 4633,
      "blaz": 4634,
      "arrow": 4635,
      "washed": 4636,
      "licked": 4637,
      "bullet": 4638,
      "rip": 4639,
      "##hip": 4640,
      "##ulf": 4641,
      "dogs": 4642,
      "points": 4643,
      "lied": 4644,
      "garage": 4645,
      "arched": 4646,
      "gear": 4647,
      "advantage": 4648,
      "announced": 4649,
      "straightened": 4650,
      "footsteps": 4651,
      "init": 4652,
      "chocol": 4653,
      "hast": 4654,
      "ai": 4655,
      "embarrassed": 4656,
      "##ales": 4657,
      "approach": 4658,
      "##apping": 4659,
      "cutting": 4660,
      "##ption": 4661,
      "fingert": 4662,
      "vanished": 4663,
      "encou": 4664,
      "mental": 4665,
      "total": 4666,
      "ugly": 4667,
      "collar": 4668,
      "mask": 4669,
      "sooner": 4670,
      "confident": 4671,
      "20": 4672,
      "raced": 4673,
      "tower": 4674,
      "vin": 4675,
      "##ache": 4676,
      "raw": 4677,
      "deserve": 4678,
      "raise": 4679,
      "##ule": 4680,
      "##ception": 4681,
      "halfway": 4682,
      "gav": 4683,
      "sofa": 4684,
      "##asc": 4685,
      "retreat": 4686,
      "butter": 4687,
      "according": 4688,
      "##ught": 4689,
      "##ishment": 4690,
      "##walk": 4691,
      "tables": 4692,
      "bowl": 4693,
      "contract": 4694,
      "holds": 4695,
      "devil": 4696,
      "numbers": 4697,
      "violet": 4698,
      "sheet": 4699,
      "##umping": 4700,
      "##aker": 4701,
      "neighbor": 4702,
      "##vor": 4703,
      "##zing": 4704,
      "occup": 4705,
      "##rif": 4706,
      "filling": 4707,
      "frag": 4708,
      "matters": 4709,
      "steve": 4710,
      "victoria": 4711,
      "der": 4712,
      "morgan": 4713,
      "tense": 4714,
      "lies": 4715,
      "mumbled": 4716,
      "satur": 4717,
      "task": 4718,
      "caleb": 4719,
      "catching": 4720,
      "moves": 4721,
      "convince": 4722,
      "electric": 4723,
      "exit": 4724,
      "##wards": 4725,
      "throughout": 4726,
      "wink": 4727,
      "clearing": 4728,
      "alley": 4729,
      "intellig": 4730,
      "connected": 4731,
      "likes": 4732,
      "carl": 4733,
      "everybody": 4734,
      "price": 4735,
      "journey": 4736,
      "inner": 4737,
      "riding": 4738,
      "lauren": 4739,
      "lucy": 4740,
      "stal": 4741,
      "alco": 4742,
      "destroyed": 4743,
      "insane": 4744,
      "##ico": 4745,
      "##iety": 4746,
      "##uts": 4747,
      "##place": 4748,
      "bench": 4749,
      "whispers": 4750,
      "steal": 4751,
      "remaining": 4752,
      "jax": 4753,
      "silly": 4754,
      "opin": 4755,
      "maggie": 4756,
      "fel": 4757,
      "##otte": 4758,
      "org": 4759,
      "##mission": 4760,
      "drown": 4761,
      "sway": 4762,
      "nap": 4763,
      "appearance": 4764,
      "paying": 4765,
      "jere": 4766,
      "deg": 4767,
      "havent": 4768,
      "vide": 4769,
      "bob": 4770,
      "rope": 4771,
      "poison": 4772,
      "tapped": 4773,
      "soci": 4774,
      "tex": 4775,
      "ratt": 4776,
      "gestured": 4777,
      "##ago": 4778,
      "dumb": 4779,
      "detective": 4780,
      "perio": 4781,
      "haw": 4782,
      "grinning": 4783,
      "protection": 4784,
      "billy": 4785,
      "served": 4786,
      "slapped": 4787,
      "forcing": 4788,
      "trace": 4789,
      "file": 4790,
      "item": 4791,
      "profession": 4792,
      "##vet": 4793,
      "frightened": 4794,
      "games": 4795,
      "clar": 4796,
      "social": 4797,
      "harry": 4798,
      "surrounding": 4799,
      "lust": 4800,
      "keeps": 4801,
      "##elled": 4802,
      "ep": 4803,
      "##hern": 4804,
      "##eg": 4805,
      "tray": 4806,
      "bang": 4807,
      "balls": 4808,
      "cousin": 4809,
      "speech": 4810,
      "##erie": 4811,
      "##met": 4812,
      "##aky": 4813,
      "specif": 4814,
      "images": 4815,
      "challenge": 4816,
      "fabric": 4817,
      "##lu": 4818,
      "tough": 4819,
      "wrote": 4820,
      "##han": 4821,
      "shade": 4822,
      "##bbled": 4823,
      "sunlight": 4824,
      "manner": 4825,
      "decor": 4826,
      "etern": 4827,
      "pattern": 4828,
      "guessed": 4829,
      "president": 4830,
      "hunting": 4831,
      "##raw": 4832,
      "##inger": 4833,
      "##ona": 4834,
      "recently": 4835,
      "argue": 4836,
      "##awk": 4837,
      "enorm": 4838,
      "senses": 4839,
      "punch": 4840,
      "seeming": 4841,
      "strike": 4842,
      "lur": 4843,
      "style": 4844,
      "painted": 4845,
      "urg": 4846,
      "##hetic": 4847,
      "eased": 4848,
      "cooper": 4849,
      "##ints": 4850,
      "dang": 4851,
      "unexp": 4852,
      "smith": 4853,
      "loves": 4854,
      "hitting": 4855,
      "##bble": 4856,
      "pee": 4857,
      "##iring": 4858,
      "tristan": 4859,
      "symp": 4860,
      "trained": 4861,
      "struggling": 4862,
      "sounding": 4863,
      "charles": 4864,
      "vul": 4865,
      "vehicle": 4866,
      "satisfied": 4867,
      "drank": 4868,
      "holly": 4869,
      "traffic": 4870,
      "packed": 4871,
      "neat": 4872,
      "##oop": 4873,
      "exclaimed": 4874,
      "afford": 4875,
      "sharply": 4876,
      "tam": 4877,
      "lone": 4878,
      "ourselves": 4879,
      "unexpected": 4880,
      "##pher": 4881,
      "source": 4882,
      "experienced": 4883,
      "hay": 4884,
      "dining": 4885,
      "request": 4886,
      "##ads": 4887,
      "net": 4888,
      "haul": 4889,
      "##eze": 4890,
      "dean": 4891,
      "dismiss": 4892,
      "##onscious": 4893,
      "##kn": 4894,
      "crystal": 4895,
      "sched": 4896,
      "member": 4897,
      "autom": 4898,
      "drug": 4899,
      "chocolate": 4900,
      "circumst": 4901,
      "stroked": 4902,
      "copy": 4903,
      "##ran": 4904,
      "liquid": 4905,
      "driveway": 4906,
      "friendly": 4907,
      "colored": 4908,
      "caut": 4909,
      "##atically": 4910,
      "flin": 4911,
      "occurred": 4912,
      "vague": 4913,
      "cops": 4914,
      "##asket": 4915,
      "closely": 4916,
      "##ordan": 4917,
      "fellow": 4918,
      "haunt": 4919,
      "##agon": 4920,
      "gasp": 4921,
      "##unched": 4922,
      "mult": 4923,
      "##urs": 4924,
      "sid": 4925,
      "jonathan": 4926,
      "impress": 4927,
      "letters": 4928,
      "arrange": 4929,
      "##oy": 4930,
      "weve": 4931,
      "inqu": 4932,
      "wrap": 4933,
      "louder": 4934,
      "gran": 4935,
      "remembering": 4936,
      "##cell": 4937,
      "cliff": 4938,
      "cursed": 4939,
      "explanation": 4940,
      "encoun": 4941,
      "patted": 4942,
      "washing": 4943,
      "somewhat": 4944,
      "scramb": 4945,
      "##ait": 4946,
      "hmm": 4947,
      "unh": 4948,
      "alec": 4949,
      "replaced": 4950,
      "conce": 4951,
      "##emon": 4952,
      "palace": 4953,
      "blink": 4954,
      "bothered": 4955,
      "##imm": 4956,
      "toes": 4957,
      "theyd": 4958,
      "##don": 4959,
      "statement": 4960,
      "ske": 4961,
      "purs": 4962,
      "snap": 4963,
      "##ounce": 4964,
      "lightning": 4965,
      "##ylan": 4966,
      "acqu": 4967,
      "research": 4968,
      "invis": 4969,
      "tap": 4970,
      "##stand": 4971,
      "wren": 4972,
      "connect": 4973,
      "assume": 4974,
      "slowed": 4975,
      "royal": 4976,
      "location": 4977,
      "possess": 4978,
      "dull": 4979,
      "cloth": 4980,
      "dollars": 4981,
      "shore": 4982,
      "bread": 4983,
      "##rous": 4984,
      "##rib": 4985,
      "flu": 4986,
      "casual": 4987,
      "##atherine": 4988,
      "design": 4989,
      "section": 4990,
      "possibility": 4991,
      "ere": 4992,
      "crime": 4993,
      "series": 4994,
      "##ruction": 4995,
      "##ients": 4996,
      "behav": 4997,
      "existence": 4998,
      "##cies": 4999,
      "fasc": 5000,
      "##riff": 5001,
      "raven": 5002,
      "danny": 5003,
      "garion": 5004,
      "whist": 5005,
      "charlotte": 5006,
      "reser": 5007,
      "nodding": 5008,
      "intens": 5009,
      "responsible": 5010,
      "collect": 5011,
      "hundreds": 5012,
      "former": 5013,
      "moaned": 5014,
      "racing": 5015,
      "paint": 5016,
      "pleasant": 5017,
      "##rier": 5018,
      "enth": 5019,
      "evan": 5020,
      "link": 5021,
      "##aves": 5022,
      "clue": 5023,
      "constant": 5024,
      "contr": 5025,
      "teach": 5026,
      "avail": 5027,
      "disbel": 5028,
      "werent": 5029,
      "plant": 5030,
      "unus": 5031,
      "bored": 5032,
      "pisto": 5033,
      "fangs": 5034,
      "falls": 5035,
      "##eral": 5036,
      "bord": 5037,
      "ess": 5038,
      "distracted": 5039,
      "previous": 5040,
      "genu": 5041,
      "##inkled": 5042,
      "drum": 5043,
      "eyel": 5044,
      "##lan": 5045,
      "sacrif": 5046,
      "kidding": 5047,
      "##certain": 5048,
      "noted": 5049,
      "issue": 5050,
      "trusted": 5051,
      "emerg": 5052,
      "squeeze": 5053,
      "##amps": 5054,
      "grasp": 5055,
      "nails": 5056,
      "abandoned": 5057,
      "##lle": 5058,
      "drinks": 5059,
      "confidence": 5060,
      "stall": 5061,
      "teasing": 5062,
      "lee": 5063,
      "ax": 5064,
      "attached": 5065,
      "bleeding": 5066,
      "##otted": 5067,
      "##ado": 5068,
      "curios": 5069,
      "ast": 5070,
      "fence": 5071,
      "goddam": 5072,
      "cigarette": 5073,
      "saturday": 5074,
      "agreement": 5075,
      "##gger": 5076,
      "studying": 5077,
      "laughs": 5078,
      "stops": 5079,
      "sexual": 5080,
      "colon": 5081,
      "rig": 5082,
      "sport": 5083,
      "humor": 5084,
      "television": 5085,
      "fake": 5086,
      "##ended": 5087,
      "complic": 5088,
      "veins": 5089,
      "trailed": 5090,
      "pockets": 5091,
      "clas": 5092,
      "cere": 5093,
      "threatened": 5094,
      "alice": 5095,
      "ellie": 5096,
      "holiday": 5097,
      "goodby": 5098,
      "code": 5099,
      "amused": 5100,
      "extremely": 5101,
      "10": 5102,
      "##rating": 5103,
      "property": 5104,
      "##arest": 5105,
      "wing": 5106,
      "cage": 5107,
      "arrest": 5108,
      "##bled": 5109,
      "runs": 5110,
      "yards": 5111,
      "colin": 5112,
      "sophie": 5113,
      "tank": 5114,
      "carpet": 5115,
      "##eline": 5116,
      "amanda": 5117,
      "mall": 5118,
      "strode": 5119,
      "panties": 5120,
      "prevent": 5121,
      "drake": 5122,
      "##olf": 5123,
      "##jected": 5124,
      "genuine": 5125,
      "serge": 5126,
      "##rey": 5127,
      "zomb": 5128,
      "restr": 5129,
      "disappointed": 5130,
      "##asty": 5131,
      "sunday": 5132,
      "sheets": 5133,
      "env": 5134,
      "##ata": 5135,
      "shrug": 5136,
      "wicked": 5137,
      "haired": 5138,
      "fred": 5139,
      "lace": 5140,
      "extended": 5141,
      "##ulation": 5142,
      "jacob": 5143,
      "martin": 5144,
      "univers": 5145,
      "dw": 5146,
      "mans": 5147,
      "offering": 5148,
      "diss": 5149,
      "murd": 5150,
      "##coming": 5151,
      "ri": 5152,
      "seated": 5153,
      "zach": 5154,
      "amber": 5155,
      "sarc": 5156,
      "slipping": 5157,
      "kay": 5158,
      "sees": 5159,
      "dylan": 5160,
      "compet": 5161,
      "claws": 5162,
      "exposed": 5163,
      "kevin": 5164,
      "hannah": 5165,
      "todd": 5166,
      "deserved": 5167,
      "raising": 5168,
      "contain": 5169,
      "barn": 5170,
      "core": 5171,
      "medic": 5172,
      "covers": 5173,
      "original": 5174,
      "bowed": 5175,
      "maintain": 5176,
      "gown": 5177,
      "finn": 5178,
      "susan": 5179,
      "diam": 5180,
      "flame": 5181,
      "medical": 5182,
      "rifle": 5183,
      "sevent": 5184,
      "vall": 5185,
      "withd": 5186,
      "amuse": 5187,
      "##rete": 5188,
      "grief": 5189,
      "ships": 5190,
      "gavin": 5191,
      "period": 5192,
      "sheriff": 5193,
      "fingertips": 5194,
      "enormous": 5195,
      "universe": 5196,
      "##isy": 5197,
      "tub": 5198,
      "parted": 5199,
      "##andra": 5200,
      "centuries": 5201,
      "wise": 5202,
      "justin": 5203,
      "wan": 5204,
      "eli": 5205,
      "##we": 5206,
      "immort": 5207,
      "curiosity": 5208,
      "exec": 5209,
      "freedom": 5210,
      "##ato": 5211,
      "hook": 5212,
      "sole": 5213,
      "surve": 5214,
      "thousands": 5215,
      "##lock": 5216,
      "##ero": 5217,
      "feared": 5218,
      "##atively": 5219,
      "anybody": 5220,
      "nerves": 5221,
      "##ugg": 5222,
      "vulner": 5223,
      "happiness": 5224,
      "##aren": 5225,
      "##ta": 5226,
      "background": 5227,
      "belonged": 5228,
      "hopefully": 5229,
      "##aping": 5230,
      "swallow": 5231,
      "##field": 5232,
      "shy": 5233,
      "swing": 5234,
      "mile": 5235,
      "tend": 5236,
      "##vation": 5237,
      "midnight": 5238,
      "##olas": 5239,
      "adult": 5240,
      "tax": 5241,
      "birds": 5242,
      "beard": 5243,
      "ends": 5244,
      "wolves": 5245,
      "scru": 5246,
      "##und": 5247,
      "jordan": 5248,
      "squir": 5249,
      "invisible": 5250,
      "##atory": 5251,
      "##pack": 5252,
      "shuddered": 5253,
      "brilliant": 5254,
      "nipp": 5255,
      "##org": 5256,
      "visible": 5257,
      "purch": 5258,
      "##umble": 5259,
      "##uted": 5260,
      "loyal": 5261,
      "spending": 5262,
      "monst": 5263,
      "shuff": 5264,
      "##cle": 5265,
      "shorts": 5266,
      "robe": 5267,
      "friday": 5268,
      "realizing": 5269,
      "##bl": 5270,
      "##ples": 5271,
      "shining": 5272,
      "paris": 5273,
      "##hawk": 5274,
      "allowing": 5275,
      "express": 5276,
      "kyle": 5277,
      "interview": 5278,
      "##aud": 5279,
      "bud": 5280,
      "##back": 5281,
      "civil": 5282,
      "answering": 5283,
      "rab": 5284,
      "stated": 5285,
      "russ": 5286,
      "delicate": 5287,
      "##inda": 5288,
      "nervously": 5289,
      "##beat": 5290,
      "passenger": 5291,
      "span": 5292,
      "market": 5293,
      "jerk": 5294,
      "deliber": 5295,
      "kelly": 5296,
      "daemon": 5297,
      "collapsed": 5298,
      "warriors": 5299,
      "nud": 5300,
      "claimed": 5301,
      "##uce": 5302,
      "shivered": 5303,
      "ais": 5304,
      "spinning": 5305,
      "retrie": 5306,
      "thread": 5307,
      "approaching": 5308,
      "remark": 5309,
      "gwen": 5310,
      "arent": 5311,
      "##iter": 5312,
      "dating": 5313,
      "accent": 5314,
      "##nat": 5315,
      "advice": 5316,
      "shown": 5317,
      "desert": 5318,
      "assass": 5319,
      "hurting": 5320,
      "invited": 5321,
      "rhyth": 5322,
      "bolt": 5323,
      "horiz": 5324,
      "emerged": 5325,
      "serve": 5326,
      "##iven": 5327,
      "guests": 5328,
      "stones": 5329,
      "stubb": 5330,
      "actions": 5331,
      "lev": 5332,
      "choked": 5333,
      "bart": 5334,
      "required": 5335,
      "##bly": 5336,
      "rushing": 5337,
      "darling": 5338,
      "quit": 5339,
      "cris": 5340,
      "video": 5341,
      "pow": 5342,
      "wrists": 5343,
      "expensive": 5344,
      "overhead": 5345,
      "##dle": 5346,
      "##rett": 5347,
      "screams": 5348,
      "defense": 5349,
      "chann": 5350,
      "entertain": 5351,
      "crawled": 5352,
      "champ": 5353,
      "photo": 5354,
      "complex": 5355,
      "trap": 5356,
      "muff": 5357,
      "##rant": 5358,
      "##uel": 5359,
      "proceed": 5360,
      "ache": 5361,
      "exploded": 5362,
      "##fl": 5363,
      "##anches": 5364,
      "flicked": 5365,
      "tracks": 5366,
      "##mi": 5367,
      "precious": 5368,
      "jenny": 5369,
      "vent": 5370,
      "##vert": 5371,
      "alcohol": 5372,
      "eleven": 5373,
      "intention": 5374,
      "ult": 5375,
      "creep": 5376,
      "marks": 5377,
      "uncertain": 5378,
      "digging": 5379,
      "opinion": 5380,
      "states": 5381,
      "tuck": 5382,
      "freak": 5383,
      "mortal": 5384,
      "scanned": 5385,
      "actual": 5386,
      "ras": 5387,
      "shif": 5388,
      "commander": 5389,
      "courage": 5390,
      "spare": 5391,
      "##ode": 5392,
      "jun": 5393,
      "##sequ": 5394,
      "roland": 5395,
      "drugs": 5396,
      "myster": 5397,
      "hunger": 5398,
      "shopping": 5399,
      "revealed": 5400,
      "##chan": 5401,
      "society": 5402,
      "spect": 5403,
      "circumstances": 5404,
      "lately": 5405,
      "coast": 5406,
      "spear": 5407,
      "bars": 5408,
      "bomb": 5409,
      "jet": 5410,
      "knelt": 5411,
      "knuck": 5412,
      "##orter": 5413,
      "depth": 5414,
      "eaten": 5415,
      "laz": 5416,
      "progress": 5417,
      "passage": 5418,
      "bye": 5419,
      "concrete": 5420,
      "daz": 5421,
      "matthew": 5422,
      "lan": 5423,
      "dante": 5424,
      "johnny": 5425,
      "jol": 5426,
      "##eness": 5427,
      "##icles": 5428,
      "##chie": 5429,
      "##nal": 5430,
      "jackson": 5431,
      "gathering": 5432,
      "wounds": 5433,
      "official": 5434,
      "lover": 5435,
      "##ooped": 5436,
      "department": 5437,
      "mud": 5438,
      "mixed": 5439,
      "sandw": 5440,
      "beam": 5441,
      "brave": 5442,
      "bubb": 5443,
      "drops": 5444,
      "##hh": 5445,
      "ham": 5446,
      "##pan": 5447,
      "flushed": 5448,
      "communic": 5449,
      "stern": 5450,
      "betray": 5451,
      "virgin": 5452,
      "rhythm": 5453,
      "colt": 5454,
      "sits": 5455,
      "jeremy": 5456,
      "breaths": 5457,
      "jenn": 5458,
      "scare": 5459,
      "cord": 5460,
      "saving": 5461,
      "fairly": 5462,
      "motioned": 5463,
      "scient": 5464,
      "cards": 5465,
      "shouting": 5466,
      "crash": 5467,
      "tasted": 5468,
      "character": 5469,
      "excell": 5470,
      "dagger": 5471,
      "symb": 5472,
      "elder": 5473,
      "deny": 5474,
      "delicious": 5475,
      "dragging": 5476,
      "rat": 5477,
      "informed": 5478,
      "annoyed": 5479,
      "trunk": 5480,
      "feather": 5481,
      "##zzy": 5482,
      "fog": 5483,
      "knocking": 5484,
      "ava": 5485,
      "dude": 5486,
      "embrace": 5487,
      "helen": 5488,
      "boot": 5489,
      "amusement": 5490,
      "moder": 5491,
      "magaz": 5492,
      "motor": 5493,
      "punched": 5494,
      "anton": 5495,
      "unkn": 5496,
      "patient": 5497,
      "##iture": 5498,
      "ripp": 5499,
      "az": 5500,
      "tyler": 5501,
      "devon": 5502,
      "stubborn": 5503,
      "teased": 5504,
      "waving": 5505,
      "secure": 5506,
      "dave": 5507,
      "puff": 5508,
      "cit": 5509,
      "scen": 5510,
      "brushing": 5511,
      "##eds": 5512,
      "trad": 5513,
      "remains": 5514,
      "gul": 5515,
      "pra": 5516,
      "bike": 5517,
      "glances": 5518,
      "option": 5519,
      "##ample": 5520,
      "whit": 5521,
      "credit": 5522,
      "create": 5523,
      "corners": 5524,
      "branches": 5525,
      "clary": 5526,
      "##illa": 5527,
      "nest": 5528,
      "aye": 5529,
      "terms": 5530,
      "##ores": 5531,
      "singing": 5532,
      "glit": 5533,
      "famil": 5534,
      "airport": 5535,
      "diamond": 5536,
      "##ige": 5537,
      "##uous": 5538,
      "leans": 5539,
      "disbelief": 5540,
      "colors": 5541,
      "yep": 5542,
      "foolish": 5543,
      "dal": 5544,
      "ruth": 5545,
      "flow": 5546,
      "goodbye": 5547,
      "revealing": 5548,
      "ribs": 5549,
      "dee": 5550,
      "reaches": 5551,
      "shattered": 5552,
      "ideas": 5553,
      "##oms": 5554,
      "addition": 5555,
      "lor": 5556,
      "mack": 5557,
      "##esome": 5558,
      "prompt": 5559,
      "sparhawk": 5560,
      "##bur": 5561,
      "reveal": 5562,
      "kane": 5563,
      "basket": 5564,
      "marked": 5565,
      "random": 5566,
      "pages": 5567,
      "available": 5568,
      "behavior": 5569,
      "rapidly": 5570,
      "##imate": 5571,
      "grandp": 5572,
      "lux": 5573,
      "vic": 5574,
      "shaped": 5575,
      "boxes": 5576,
      "##reek": 5577,
      "winked": 5578,
      "##usi": 5579,
      "hid": 5580,
      "till": 5581,
      "tighter": 5582,
      "roar": 5583,
      "stead": 5584,
      "chicken": 5585,
      "switch": 5586,
      "furniture": 5587,
      "symbol": 5588,
      "accompl": 5589,
      "ps": 5590,
      "que": 5591,
      "melissa": 5592,
      "vast": 5593,
      "bust": 5594,
      "wishing": 5595,
      "impro": 5596,
      "amel": 5597,
      "click": 5598,
      "trevor": 5599,
      "##olen": 5600,
      "confront": 5601,
      "seats": 5602,
      "pistol": 5603,
      "julie": 5604,
      "wrapping": 5605,
      "precise": 5606,
      "incredible": 5607,
      "pity": 5608,
      "content": 5609,
      "survived": 5610,
      "dealing": 5611,
      "biggest": 5612,
      "##ex": 5613,
      "begins": 5614,
      "unconscious": 5615,
      "##py": 5616,
      "##asper": 5617,
      "whipped": 5618,
      "milk": 5619,
      "lin": 5620,
      "opens": 5621,
      "remote": 5622,
      "##ability": 5623,
      "circles": 5624,
      "armed": 5625,
      "edges": 5626,
      "shane": 5627,
      "scattered": 5628,
      "jean": 5629,
      "furious": 5630,
      "##ament": 5631,
      "crept": 5632,
      "##ooks": 5633,
      "shifting": 5634,
      "changes": 5635,
      "march": 5636,
      "skills": 5637,
      "##urally": 5638,
      "trade": 5639,
      "dod": 5640,
      "clutched": 5641,
      "handful": 5642,
      "trem": 5643,
      "stock": 5644,
      "quinn": 5645,
      "cocked": 5646,
      "quarter": 5647,
      "appl": 5648,
      "sleeve": 5649,
      "photograph": 5650,
      "remove": 5651,
      "newsp": 5652,
      "proof": 5653,
      "anxious": 5654,
      "##die": 5655,
      "calmly": 5656,
      "argument": 5657,
      "growl": 5658,
      "jail": 5659,
      "wre": 5660,
      "impressed": 5661,
      "kicking": 5662,
      "tipped": 5663,
      "##oud": 5664,
      "mason": 5665,
      "placing": 5666,
      "appoint": 5667,
      "provided": 5668,
      "##itar": 5669,
      "sentence": 5670,
      "miser": 5671,
      "rent": 5672,
      "appe": 5673,
      "insist": 5674,
      "##gen": 5675,
      "career": 5676,
      "##iger": 5677,
      "minds": 5678,
      "alert": 5679,
      "satisfaction": 5680,
      "spat": 5681,
      "equip": 5682,
      "sidewalk": 5683,
      "youd": 5684,
      "grunted": 5685,
      "##oph": 5686,
      "treated": 5687,
      "student": 5688,
      "literally": 5689,
      "##aph": 5690,
      "version": 5691,
      "football": 5692,
      "apologize": 5693,
      "range": 5694,
      "impression": 5695,
      "stretch": 5696,
      "makeup": 5697,
      "roger": 5698,
      "nope": 5699,
      "jill": 5700,
      "##lights": 5701,
      "valley": 5702,
      "winced": 5703,
      "joseph": 5704,
      "adjust": 5705,
      "habit": 5706,
      "threatening": 5707,
      "##oon": 5708,
      "emergency": 5709,
      "##nda": 5710,
      "##lling": 5711,
      "exchange": 5712,
      "ny": 5713,
      "##ila": 5714,
      "barb": 5715,
      "driven": 5716,
      "nasty": 5717,
      "emotional": 5718,
      "##gue": 5719,
      "gang": 5720,
      "learning": 5721,
      "unusual": 5722,
      "eighteen": 5723,
      "puts": 5724,
      "fourth": 5725,
      "sweetheart": 5726,
      "arrive": 5727,
      "wy": 5728,
      "families": 5729,
      "weal": 5730,
      "miranda": 5731,
      "goddess": 5732,
      "danced": 5733,
      "##uments": 5734,
      "marie": 5735,
      "pear": 5736,
      "enthusi": 5737,
      "fi": 5738,
      "climbing": 5739,
      "freaking": 5740,
      "enemies": 5741,
      "repres": 5742,
      "##tery": 5743,
      "##shit": 5744,
      "##lass": 5745,
      "individ": 5746,
      "roared": 5747,
      "sneak": 5748,
      "coach": 5749,
      "resol": 5750,
      "patrick": 5751,
      "throne": 5752,
      "upward": 5753,
      "equipment": 5754,
      "rescue": 5755,
      "##fall": 5756,
      "oil": 5757,
      "duncan": 5758,
      "asp": 5759,
      "sire": 5760,
      "lawyer": 5761,
      "##urance": 5762,
      "##encer": 5763,
      "wiz": 5764,
      "crown": 5765,
      "role": 5766,
      "cupped": 5767,
      "lun": 5768,
      "jessica": 5769,
      "defend": 5770,
      "cough": 5771,
      "stolen": 5772,
      "cult": 5773,
      "##ano": 5774,
      "based": 5775,
      "##tt": 5776,
      "struggle": 5777,
      "advent": 5778,
      "floating": 5779,
      "crossing": 5780,
      "hollow": 5781,
      "greeted": 5782,
      "intend": 5783,
      "##ops": 5784,
      "ducked": 5785,
      "sugar": 5786,
      "closest": 5787,
      "##ford": 5788,
      "helpless": 5789,
      "mothers": 5790,
      "stagg": 5791,
      "ky": 5792,
      "rome": 5793,
      "illum": 5794,
      "kin": 5795,
      "fet": 5796,
      "directions": 5797,
      "inn": 5798,
      "edward": 5799,
      "officers": 5800,
      "##com": 5801,
      "wounded": 5802,
      "katie": 5803,
      "hank": 5804,
      "mont": 5805,
      "##hens": 5806,
      "ruin": 5807,
      "upright": 5808,
      "shortly": 5809,
      "mattress": 5810,
      "anticipation": 5811,
      "separate": 5812,
      "heather": 5813,
      "lobby": 5814,
      "owner": 5815,
      "dried": 5816,
      "##impse": 5817,
      "glimpse": 5818,
      "contem": 5819,
      "crad": 5820,
      "relig": 5821,
      "##mate": 5822,
      "cloak": 5823,
      "cheese": 5824,
      "jumping": 5825,
      "brut": 5826,
      "anne": 5827,
      "movements": 5828,
      "frost": 5829,
      "drawer": 5830,
      "giggled": 5831,
      "gym": 5832,
      "heartbeat": 5833,
      "##ville": 5834,
      "unknown": 5835,
      "sab": 5836,
      "lucien": 5837,
      "shots": 5838,
      "excellent": 5839,
      "alexander": 5840,
      "nearest": 5841,
      "charged": 5842,
      "crashed": 5843,
      "frustrated": 5844,
      "realm": 5845,
      "shove": 5846,
      "biting": 5847,
      "ox": 5848,
      "halt": 5849,
      "aston": 5850,
      "##oul": 5851,
      "strip": 5852,
      "brit": 5853,
      "rod": 5854,
      "prick": 5855,
      "##umn": 5856,
      "isa": 5857,
      "darted": 5858,
      "alien": 5859,
      "adrian": 5860,
      "backpack": 5861,
      "fruit": 5862,
      "snake": 5863,
      "sadness": 5864,
      "perman": 5865,
      "century": 5866,
      "##gun": 5867,
      "awesome": 5868,
      "quiver": 5869,
      "jesse": 5870,
      "##ffed": 5871,
      "twin": 5872,
      "##wor": 5873,
      "sixteen": 5874,
      "begged": 5875,
      "curve": 5876,
      "##rowed": 5877,
      "obe": 5878,
      "duke": 5879,
      "oak": 5880,
      "cruel": 5881,
      "discover": 5882,
      "stuffed": 5883,
      "##tail": 5884,
      "ruined": 5885,
      "sail": 5886,
      "percent": 5887,
      "deadly": 5888,
      "jewel": 5889,
      "rarely": 5890,
      "casually": 5891,
      "scout": 5892,
      "gem": 5893,
      "swore": 5894,
      "chic": 5895,
      "sele": 5896,
      "bac": 5897,
      "disappointment": 5898,
      "gradu": 5899,
      "##xed": 5900,
      "ze": 5901,
      "yelling": 5902,
      "professional": 5903,
      "impact": 5904,
      "##mar": 5905,
      "shows": 5906,
      "torture": 5907,
      "ending": 5908,
      "snarled": 5909,
      "mama": 5910,
      "happily": 5911,
      "territ": 5912,
      "##ctors": 5913,
      "erupt": 5914,
      "mattered": 5915,
      "##fire": 5916,
      "##li": 5917,
      "garrett": 5918,
      "##oning": 5919,
      "ought": 5920,
      "suspicious": 5921,
      "##ifer": 5922,
      "mi": 5923,
      "elena": 5924,
      "alt": 5925,
      "wandered": 5926,
      "twisting": 5927,
      "clicked": 5928,
      "owe": 5929,
      "eur": 5930,
      "##ika": 5931,
      "##erence": 5932,
      "glor": 5933,
      "fathers": 5934,
      "crowded": 5935,
      "limbs": 5936,
      "##hem": 5937,
      "##inating": 5938,
      "radi": 5939,
      "mild": 5940,
      "owned": 5941,
      "scri": 5942,
      "agony": 5943,
      "##isions": 5944,
      "trash": 5945,
      "stef": 5946,
      "booth": 5947,
      "pretending": 5948,
      "permission": 5949,
      "##ulated": 5950,
      "##oci": 5951,
      "injured": 5952,
      "mechan": 5953,
      "tempor": 5954,
      "potential": 5955,
      "aching": 5956,
      "##venge": 5957,
      "armor": 5958,
      "##ulate": 5959,
      "gain": 5960,
      "pizz": 5961,
      "boun": 5962,
      "flashing": 5963,
      "##ilet": 5964,
      "absor": 5965,
      "guide": 5966,
      "pig": 5967,
      "stress": 5968,
      "molly": 5969,
      "provide": 5970,
      "vulnerable": 5971,
      "swiftly": 5972,
      "folks": 5973,
      "site": 5974,
      "university": 5975,
      "aust": 5976,
      "##aries": 5977,
      "sergeant": 5978,
      "##ingly": 5979,
      "ez": 5980,
      "cleaning": 5981,
      "straw": 5982,
      "aver": 5983,
      "##avier": 5984,
      "##gment": 5985,
      "sophia": 5986,
      "marg": 5987,
      "kendra": 5988,
      "moist": 5989,
      "##stone": 5990,
      "elbows": 5991,
      "stares": 5992,
      "##bi": 5993,
      "recent": 5994,
      "##reg": 5995,
      "kingdom": 5996,
      "patch": 5997,
      "sharing": 5998,
      "##itty": 5999,
      "meg": 6000,
      "sucking": 6001,
      "leapt": 6002,
      "aidan": 6003,
      "dism": 6004,
      "crouched": 6005,
      "pounded": 6006,
      "##iona": 6007,
      "basement": 6008,
      "mystery": 6009,
      "blowing": 6010,
      "stole": 6011,
      "spencer": 6012,
      "forces": 6013,
      "##aron": 6014,
      "sideways": 6015,
      "existed": 6016,
      "bullshit": 6017,
      "sout": 6018,
      "ashe": 6019,
      "nu": 6020,
      "imper": 6021,
      "string": 6022,
      "babe": 6023,
      "stroke": 6024,
      "gide": 6025,
      "tay": 6026,
      "individual": 6027,
      "tessa": 6028,
      "influ": 6029,
      "gates": 6030,
      "tape": 6031,
      "##yard": 6032,
      "orgasm": 6033,
      "sensitive": 6034,
      "affection": 6035,
      "viv": 6036,
      "audience": 6037,
      "revol": 6038,
      "thorough": 6039,
      "##osing": 6040,
      "marble": 6041,
      "##rily": 6042,
      "movies": 6043,
      "##riate": 6044,
      "##arse": 6045,
      "owen": 6046,
      "##ension": 6047,
      "aria": 6048,
      "lawn": 6049,
      "scary": 6050,
      "attempted": 6051,
      "##ggy": 6052,
      "mob": 6053,
      "doubted": 6054,
      "scrambled": 6055,
      "swinging": 6056,
      "##iana": 6057,
      "violent": 6058,
      "##lings": 6059,
      "##aline": 6060,
      "acted": 6061,
      "shrie": 6062,
      "##uded": 6063,
      "arranged": 6064,
      "healing": 6065,
      "modern": 6066,
      "stack": 6067,
      "holden": 6068,
      "possessed": 6069,
      "surge": 6070,
      "greater": 6071,
      "monday": 6072,
      "chances": 6073,
      "associ": 6074,
      "health": 6075,
      "entry": 6076,
      "tensed": 6077,
      "lamp": 6078,
      "##hand": 6079,
      "reluctantly": 6080,
      "reception": 6081,
      "estab": 6082,
      "##oops": 6083,
      "frowning": 6084,
      "bor": 6085,
      "##da": 6086,
      "hesitation": 6087,
      "horizon": 6088,
      "endless": 6089,
      "positive": 6090,
      "fancy": 6091,
      "patience": 6092,
      "alph": 6093,
      "kinds": 6094,
      "dece": 6095,
      "salt": 6096,
      "eleg": 6097,
      "begging": 6098,
      "rate": 6099,
      "chaos": 6100,
      "therefore": 6101,
      "cake": 6102,
      "flowing": 6103,
      "##hole": 6104,
      "confirmed": 6105,
      "whispering": 6106,
      "dow": 6107,
      "gideon": 6108,
      "volunt": 6109,
      "unsure": 6110,
      "suc": 6111,
      "##etic": 6112,
      "signal": 6113,
      "mercy": 6114,
      "maid": 6115,
      "useless": 6116,
      "candle": 6117,
      "##va": 6118,
      "sty": 6119,
      "hunters": 6120,
      "complicated": 6121,
      "lonely": 6122,
      "hills": 6123,
      "sant": 6124,
      "##aid": 6125,
      "grandma": 6126,
      "darkened": 6127,
      "##uary": 6128,
      "fled": 6129,
      "clan": 6130,
      "incredibly": 6131,
      "clutching": 6132,
      "craft": 6133,
      "souls": 6134,
      "sheer": 6135,
      "frequ": 6136,
      "lane": 6137,
      "photos": 6138,
      "youth": 6139,
      "raz": 6140,
      "##erald": 6141,
      "rings": 6142,
      "atl": 6143,
      "##rom": 6144,
      "mered": 6145,
      "gabe": 6146,
      "buddy": 6147,
      "las": 6148,
      "romantic": 6149,
      "assistant": 6150,
      "trembled": 6151,
      "ned": 6152,
      "melted": 6153,
      "sore": 6154,
      "##rin": 6155,
      "flower": 6156,
      "##esty": 6157,
      "meredith": 6158,
      "succeed": 6159,
      "apr": 6160,
      "contents": 6161,
      "##alie": 6162,
      "resem": 6163,
      "slo": 6164,
      "spilled": 6165,
      "reflection": 6166,
      "##armed": 6167,
      "classes": 6168,
      "supplies": 6169,
      "##cra": 6170,
      "community": 6171,
      "laura": 6172,
      "ragged": 6173,
      "famous": 6174,
      "mand": 6175,
      "waking": 6176,
      "rude": 6177,
      "tara": 6178,
      "traveled": 6179,
      "consequ": 6180,
      "incident": 6181,
      "curved": 6182,
      "lic": 6183,
      "meth": 6184,
      "seek": 6185,
      "crit": 6186,
      "##omp": 6187,
      "appears": 6188,
      "steam": 6189,
      "##spect": 6190,
      "constantly": 6191,
      "carved": 6192,
      "##raged": 6193,
      "shiny": 6194,
      "bol": 6195,
      "envel": 6196,
      "kh": 6197,
      "route": 6198,
      "neighborhood": 6199,
      "smoot": 6200,
      "tro": 6201,
      "fairy": 6202,
      "envelope": 6203,
      "##bor": 6204,
      "lod": 6205,
      "##nis": 6206,
      "sinc": 6207,
      "backs": 6208,
      "aloud": 6209,
      "bald": 6210,
      "useful": 6211,
      "snatched": 6212,
      "18": 6213,
      "explosion": 6214,
      "syd": 6215,
      "##icy": 6216,
      "stark": 6217,
      "##ya": 6218,
      "decent": 6219,
      "attitude": 6220,
      "angle": 6221,
      "prepare": 6222,
      "magical": 6223,
      "spray": 6224,
      "loaded": 6225,
      "contempl": 6226,
      "season": 6227,
      "moonlight": 6228,
      "expert": 6229,
      "needing": 6230,
      "bride": 6231,
      "cleaned": 6232,
      "dipped": 6233,
      "knuckles": 6234,
      "intensity": 6235,
      "##isc": 6236,
      "blocks": 6237,
      "soaked": 6238,
      "lisa": 6239,
      "thus": 6240,
      "captured": 6241,
      "false": 6242,
      "america": 6243,
      "werewolf": 6244,
      "weakness": 6245,
      "breasts": 6246,
      "ached": 6247,
      "polite": 6248,
      "protected": 6249,
      "##itable": 6250,
      "exhaust": 6251,
      "ton": 6252,
      "##mist": 6253,
      "violence": 6254,
      "highway": 6255,
      "hired": 6256,
      "mane": 6257,
      "plung": 6258,
      "pouring": 6259,
      "pinned": 6260,
      "physically": 6261,
      "issues": 6262,
      "typ": 6263,
      "suffer": 6264,
      "yawn": 6265,
      "smirk": 6266,
      "items": 6267,
      "swell": 6268,
      "imagination": 6269,
      "neckl": 6270,
      "##anor": 6271,
      "loos": 6272,
      "##immed": 6273,
      "shimm": 6274,
      "admir": 6275,
      "##hold": 6276,
      "attractive": 6277,
      "wherever": 6278,
      "ordinary": 6279,
      "screwed": 6280,
      "heated": 6281,
      "hyp": 6282,
      "charm": 6283,
      "friendship": 6284,
      "stiffened": 6285,
      "central": 6286,
      "curls": 6287,
      "boring": 6288,
      "bits": 6289,
      "ped": 6290,
      "dripping": 6291,
      "vig": 6292,
      "reck": 6293,
      "slumped": 6294,
      "swords": 6295,
      "healthy": 6296,
      "##vy": 6297,
      "shaft": 6298,
      "andre": 6299,
      "prior": 6300,
      "forb": 6301,
      "scowled": 6302,
      "py": 6303,
      "doug": 6304,
      "sons": 6305,
      "##rison": 6306,
      "innoc": 6307,
      "spite": 6308,
      "theory": 6309,
      "flung": 6310,
      "inse": 6311,
      "jessie": 6312,
      "##ollen": 6313,
      "rag": 6314,
      "##attering": 6315,
      "wipe": 6316,
      "grimaced": 6317,
      "stirred": 6318,
      "figures": 6319,
      "stroking": 6320,
      "declared": 6321,
      "##ele": 6322,
      "wire": 6323,
      "zoe": 6324,
      "contained": 6325,
      "fond": 6326,
      "##boy": 6327,
      "eggs": 6328,
      "laptop": 6329,
      "pizza": 6330,
      "swollen": 6331,
      "hurts": 6332,
      "stool": 6333,
      "spit": 6334,
      "tips": 6335,
      "nipple": 6336,
      "arrog": 6337,
      "bun": 6338,
      "twins": 6339,
      "clung": 6340,
      "jimmy": 6341,
      "branch": 6342,
      "suffering": 6343,
      "stained": 6344,
      "sticking": 6345,
      "trigger": 6346,
      "overl": 6347,
      "proved": 6348,
      "safely": 6349,
      "lesson": 6350,
      "warn": 6351,
      "dram": 6352,
      "earn": 6353,
      "lil": 6354,
      "##hest": 6355,
      "scarlet": 6356,
      "traveling": 6357,
      "device": 6358,
      "signific": 6359,
      "properly": 6360,
      "nich": 6361,
      "mik": 6362,
      "gripping": 6363,
      "sheep": 6364,
      "estate": 6365,
      "ral": 6366,
      "tries": 6367,
      "od": 6368,
      "fears": 6369,
      "##ji": 6370,
      "spreading": 6371,
      "brandon": 6372,
      "dish": 6373,
      "compared": 6374,
      "science": 6375,
      "separated": 6376,
      "lifet": 6377,
      "responsibility": 6378,
      "servants": 6379,
      "murdered": 6380,
      "##ada": 6381,
      "waters": 6382,
      "icy": 6383,
      "rocked": 6384,
      "isaac": 6385,
      "scree": 6386,
      "suite": 6387,
      "highly": 6388,
      "utterly": 6389,
      "signed": 6390,
      "chuckle": 6391,
      "11": 6392,
      "holes": 6393,
      "delivered": 6394,
      "sel": 6395,
      "balc": 6396,
      "dwar": 6397,
      "12": 6398,
      "shap": 6399,
      "maria": 6400,
      "sweater": 6401,
      "pilot": 6402,
      "jennifer": 6403,
      "childhood": 6404,
      "escort": 6405,
      "occasionally": 6406,
      "karen": 6407,
      "##idy": 6408,
      "drained": 6409,
      "stefan": 6410,
      "rav": 6411,
      "troll": 6412,
      "jar": 6413,
      "brings": 6414,
      "##ums": 6415,
      "naturally": 6416,
      "personally": 6417,
      "pir": 6418,
      "planted": 6419,
      "annie": 6420,
      "altern": 6421,
      "rit": 6422,
      "german": 6423,
      "daisy": 6424,
      "tearing": 6425,
      "rounded": 6426,
      "justice": 6427,
      "waitress": 6428,
      "arrival": 6429,
      "crushed": 6430,
      "clever": 6431,
      "spirits": 6432,
      "syl": 6433,
      "##var": 6434,
      "element": 6435,
      "##rees": 6436,
      "##inding": 6437,
      "blocked": 6438,
      "aaron": 6439,
      "##mes": 6440,
      "ringing": 6441,
      "ryder": 6442,
      "backwards": 6443,
      "fields": 6444,
      "ankle": 6445,
      "kr": 6446,
      "funeral": 6447,
      "mug": 6448,
      "preferred": 6449,
      "courty": 6450,
      "balcony": 6451,
      "exchanged": 6452,
      "##cast": 6453,
      "foreign": 6454,
      "crawl": 6455,
      "lick": 6456,
      "toe": 6457,
      "##kins": 6458,
      "refuse": 6459,
      "lump": 6460,
      "surprisingly": 6461,
      "client": 6462,
      "educ": 6463,
      "##ua": 6464,
      "jenks": 6465,
      "gn": 6466,
      "continues": 6467,
      "bark": 6468,
      "##erc": 6469,
      "protecting": 6470,
      "subst": 6471,
      "corp": 6472,
      "##umph": 6473,
      "chicago": 6474,
      "haz": 6475,
      "sally": 6476,
      "overwhelming": 6477,
      "unp": 6478,
      "novel": 6479,
      "cries": 6480,
      "smirked": 6481,
      "bi": 6482,
      "unit": 6483,
      "oliver": 6484,
      "mae": 6485,
      "swip": 6486,
      "adren": 6487,
      "traced": 6488,
      "wildly": 6489,
      "##bbie": 6490,
      "shone": 6491,
      "nort": 6492,
      "dall": 6493,
      "slave": 6494,
      "##hin": 6495,
      "journal": 6496,
      "apple": 6497,
      "distinct": 6498,
      "wiping": 6499,
      "##antha": 6500,
      "tat": 6501,
      "##rik": 6502,
      "dragons": 6503,
      "della": 6504,
      "eh": 6505,
      "ree": 6506,
      "cheap": 6507,
      "ak": 6508,
      "melo": 6509,
      "rey": 6510,
      "flag": 6511,
      "sought": 6512,
      "fork": 6513,
      "repeat": 6514,
      "pony": 6515,
      "exhaled": 6516,
      "carter": 6517,
      "director": 6518,
      "taylor": 6519,
      "sets": 6520,
      "quarters": 6521,
      "inspect": 6522,
      "kidna": 6523,
      "pete": 6524,
      "##ely": 6525,
      "gloves": 6526,
      "charming": 6527,
      "strangely": 6528,
      "assign": 6529,
      "nerve": 6530,
      "tate": 6531,
      "introduced": 6532,
      "##bal": 6533,
      "kir": 6534,
      "approp": 6535,
      "discussion": 6536,
      "rack": 6537,
      "selfish": 6538,
      "staircase": 6539,
      "nan": 6540,
      "shelter": 6541,
      "revenge": 6542,
      "stretching": 6543,
      "panting": 6544,
      "carriage": 6545,
      "thirteen": 6546,
      "kings": 6547,
      "nail": 6548,
      "divor": 6549,
      "##omi": 6550,
      "sang": 6551,
      "sofia": 6552,
      "platform": 6553,
      "hanna": 6554,
      "acknowled": 6555,
      "##zie": 6556,
      "corn": 6557,
      "avoiding": 6558,
      "companion": 6559,
      "##iable": 6560,
      "preparing": 6561,
      "shouldnt": 6562,
      "protective": 6563,
      "##bre": 6564,
      "magnus": 6565,
      "##ddled": 6566,
      "vincent": 6567,
      "princ": 6568,
      "tomm": 6569,
      "gentleman": 6570,
      "limp": 6571,
      "leads": 6572,
      "louis": 6573,
      "transfer": 6574,
      "angels": 6575,
      "bend": 6576,
      "cotton": 6577,
      "citiz": 6578,
      "ker": 6579,
      "jude": 6580,
      "surrender": 6581,
      "ba": 6582,
      "knot": 6583,
      "aiden": 6584,
      "tradition": 6585,
      "anxiety": 6586,
      "plu": 6587,
      "manip": 6588,
      "##iece": 6589,
      "terrif": 6590,
      "questioned": 6591,
      "scars": 6592,
      "mysterious": 6593,
      "anth": 6594,
      "pounds": 6595,
      "##iqu": 6596,
      "stan": 6597,
      "slamming": 6598,
      "entering": 6599,
      "courtyard": 6600,
      "concentrate": 6601,
      "dorm": 6602,
      "switched": 6603,
      "taller": 6604,
      "leon": 6605,
      "damon": 6606,
      "doctors": 6607,
      "puzzled": 6608,
      "andy": 6609,
      "##natural": 6610,
      "circled": 6611,
      "flowed": 6612,
      "dreamed": 6613,
      "spider": 6614,
      "tooth": 6615,
      "strained": 6616,
      "hooked": 6617,
      "lege": 6618,
      "spraw": 6619,
      "gregor": 6620,
      "mentally": 6621,
      "observed": 6622,
      "necklace": 6623,
      "soothing": 6624,
      "privacy": 6625,
      "heel": 6626,
      "##veled": 6627,
      "bottles": 6628,
      "brace": 6629,
      "candy": 6630,
      "##icop": 6631,
      "function": 6632,
      "crashing": 6633,
      "velvet": 6634,
      "calif": 6635,
      "brid": 6636,
      "grabs": 6637,
      "laws": 6638,
      "homes": 6639,
      "##iar": 6640,
      "##alled": 6641,
      "nostr": 6642,
      "suffered": 6643,
      "stake": 6644,
      "hopes": 6645,
      "cooking": 6646,
      "schedule": 6647,
      "plates": 6648,
      "bold": 6649,
      "ador": 6650,
      "shay": 6651,
      "flickered": 6652,
      "dise": 6653,
      "##mn": 6654,
      "bullets": 6655,
      "dock": 6656,
      "goss": 6657,
      "coinc": 6658,
      "fourteen": 6659,
      "squeezing": 6660,
      "miracle": 6661,
      "ing": 6662,
      "##idently": 6663,
      "##off": 6664,
      "located": 6665,
      "routine": 6666,
      "mistress": 6667,
      "tale": 6668,
      "bounced": 6669,
      "chains": 6670,
      "prey": 6671,
      "messages": 6672,
      "affect": 6673,
      "babies": 6674,
      "directed": 6675,
      "slap": 6676,
      "mex": 6677,
      "goddamn": 6678,
      "haven": 6679,
      "hatred": 6680,
      "californ": 6681,
      "immediate": 6682,
      "wigg": 6683,
      "miserable": 6684,
      "tossing": 6685,
      "degree": 6686,
      "interior": 6687,
      "hearts": 6688,
      "flip": 6689,
      "tangled": 6690,
      "slick": 6691,
      "monsters": 6692,
      "europe": 6693,
      "latest": 6694,
      "instructions": 6695,
      "eternity": 6696,
      "sadly": 6697,
      "slim": 6698,
      "aimed": 6699,
      "muffled": 6700,
      "nina": 6701,
      "ked": 6702,
      "helicop": 6703,
      "ginger": 6704,
      "accompan": 6705,
      "micro": 6706,
      "cautiously": 6707,
      "buttons": 6708,
      "##inged": 6709,
      "included": 6710,
      "trial": 6711,
      "##ini": 6712,
      "commanded": 6713,
      "legal": 6714,
      "##izes": 6715,
      "finds": 6716,
      "erin": 6717,
      "valent": 6718,
      "roman": 6719,
      "smells": 6720,
      "volunte": 6721,
      "reput": 6722,
      "terr": 6723,
      "consciousness": 6724,
      "los": 6725,
      "melan": 6726,
      "punishment": 6727,
      "toast": 6728,
      "damien": 6729,
      "arc": 6730,
      "##izzy": 6731,
      "seeking": 6732,
      "talent": 6733,
      "15": 6734,
      "equally": 6735,
      "flashlight": 6736,
      "ware": 6737,
      "intelligence": 6738,
      "duck": 6739,
      "aug": 6740,
      "##eday": 6741,
      "dex": 6742,
      "someday": 6743,
      "##bow": 6744,
      "flared": 6745,
      "whim": 6746,
      "floated": 6747,
      "swimming": 6748,
      "len": 6749,
      "greatest": 6750,
      "toilet": 6751,
      "tack": 6752,
      "structure": 6753,
      "invitation": 6754,
      "oblig": 6755,
      "##inate": 6756,
      "nad": 6757,
      "visited": 6758,
      "labor": 6759,
      "##utton": 6760,
      "grasped": 6761,
      "daily": 6762,
      "leo": 6763,
      "##lers": 6764,
      "shoving": 6765,
      "bobby": 6766,
      "scratched": 6767,
      "obsc": 6768,
      "cases": 6769,
      "questioning": 6770,
      "##win": 6771,
      "currently": 6772,
      "handing": 6773,
      "calcul": 6774,
      "squad": 6775,
      "rolls": 6776,
      "lore": 6777,
      "defeat": 6778,
      "blown": 6779,
      "territory": 6780,
      "cameron": 6781,
      "unst": 6782,
      "underground": 6783,
      "crush": 6784,
      "california": 6785,
      "nak": 6786,
      "##rol": 6787,
      "lands": 6788,
      "hits": 6789,
      "##iple": 6790,
      "dared": 6791,
      "underwear": 6792,
      "es": 6793,
      "regardless": 6794,
      "investigation": 6795,
      "impressive": 6796,
      "roy": 6797,
      "gig": 6798,
      "##osure": 6799,
      "dallas": 6800,
      "fleet": 6801,
      "ralph": 6802,
      "manager": 6803,
      "corpor": 6804,
      "thera": 6805,
      "intently": 6806,
      "descended": 6807,
      "ladder": 6808,
      "achie": 6809,
      "controlled": 6810,
      "##atter": 6811,
      "strate": 6812,
      "fever": 6813,
      "bore": 6814,
      "flee": 6815,
      "##omes": 6816,
      "##ros": 6817,
      "##isk": 6818,
      "muse": 6819,
      "sized": 6820,
      "intrig": 6821,
      "ka": 6822,
      "feeding": 6823,
      "measure": 6824,
      "##enses": 6825,
      "assault": 6826,
      "cain": 6827,
      "lifetime": 6828,
      "slender": 6829,
      "jenna": 6830,
      "remo": 6831,
      "dip": 6832,
      "worlds": 6833,
      "southern": 6834,
      "katherine": 6835,
      "glaring": 6836,
      "math": 6837,
      "##cts": 6838,
      "afterward": 6839,
      "united": 6840,
      "sinking": 6841,
      "goal": 6842,
      "meas": 6843,
      "newspaper": 6844,
      "england": 6845,
      "sorts": 6846,
      "pierce": 6847,
      "bik": 6848,
      "bless": 6849,
      "lexi": 6850,
      "glowed": 6851,
      "##iveness": 6852,
      "compound": 6853,
      "require": 6854,
      "sacrifice": 6855,
      "pretended": 6856,
      "##umpled": 6857,
      "counted": 6858,
      "unre": 6859,
      "bron": 6860,
      "intimate": 6861,
      "sunsh": 6862,
      "blinking": 6863,
      "jones": 6864,
      "dusty": 6865,
      "##ission": 6866,
      "decisions": 6867,
      "caring": 6868,
      "##ula": 6869,
      "inev": 6870,
      "ankles": 6871,
      "amelia": 6872,
      "exerc": 6873,
      "emph": 6874,
      "grav": 6875,
      "helmet": 6876,
      "options": 6877,
      "thankfully": 6878,
      "subtle": 6879,
      "sixty": 6880,
      "lid": 6881,
      "franc": 6882,
      "colour": 6883,
      "obliv": 6884,
      "scot": 6885,
      "##ibilities": 6886,
      "reflected": 6887,
      "grumbled": 6888,
      "prisoner": 6889,
      "agents": 6890,
      "designed": 6891,
      "adrenaline": 6892,
      "toby": 6893,
      "scratch": 6894,
      "transport": 6895,
      "##bles": 6896,
      "supply": 6897,
      "barrel": 6898,
      "nostrils": 6899,
      "shaky": 6900,
      "example": 6901,
      "pitch": 6902,
      "myth": 6903,
      "results": 6904,
      "darker": 6905,
      "##inge": 6906,
      "indicated": 6907,
      "mayor": 6908,
      "popular": 6909,
      "atop": 6910,
      "senior": 6911,
      "##bell": 6912,
      "grade": 6913,
      "samantha": 6914,
      "twitched": 6915,
      "deliberately": 6916,
      "impl": 6917,
      "rafe": 6918,
      "##mark": 6919,
      "draped": 6920,
      "joking": 6921,
      "servant": 6922,
      "abilities": 6923,
      "##inder": 6924,
      "successful": 6925,
      "authority": 6926,
      "sydney": 6927,
      "bee": 6928,
      "monica": 6929,
      "##mony": 6930,
      "##antically": 6931,
      "##amm": 6932,
      "persu": 6933,
      "described": 6934,
      "laying": 6935,
      "sniffed": 6936,
      "ponder": 6937,
      "species": 6938,
      "mitch": 6939,
      "penet": 6940,
      "specific": 6941,
      "groups": 6942,
      "betrayed": 6943,
      "##uten": 6944,
      "cameras": 6945,
      "seventeen": 6946,
      "neil": 6947,
      "records": 6948,
      "cuff": 6949,
      "aisle": 6950,
      "magazine": 6951,
      "bearing": 6952,
      "archer": 6953,
      "barked": 6954,
      "employ": 6955,
      "efforts": 6956,
      "ridge": 6957,
      "##acles": 6958,
      "cush": 6959,
      "##enth": 6960,
      "##berry": 6961,
      "exception": 6962,
      "##not": 6963,
      "##over": 6964,
      "wrinkled": 6965,
      "worrying": 6966,
      "hammer": 6967,
      "sunshine": 6968,
      "creating": 6969,
      "##phy": 6970,
      "related": 6971,
      "tin": 6972,
      "replace": 6973,
      "matching": 6974,
      "jung": 6975,
      "jobs": 6976,
      "##ench": 6977,
      "##cel": 6978,
      "griff": 6979,
      "nicole": 6980,
      "confirm": 6981,
      "callum": 6982,
      "curtains": 6983,
      "squinted": 6984,
      "shirts": 6985,
      "roughly": 6986,
      "conven": 6987,
      "##mates": 6988,
      "awa": 6989,
      "chasing": 6990,
      "protested": 6991,
      "recalled": 6992,
      "inhaled": 6993,
      "engage": 6994,
      "tiger": 6995,
      "flooded": 6996,
      "steep": 6997,
      "##ological": 6998,
      "bryn": 6999,
      "30": 7000,
      "settling": 7001,
      "smoking": 7002,
      "data": 7003,
      "prayed": 7004,
      "grounds": 7005,
      "dammit": 7006,
      "locker": 7007,
      "shallow": 7008,
      "##fo": 7009,
      "oddly": 7010,
      "occupied": 7011,
      "adjusted": 7012,
      "fen": 7013,
      "lieuten": 7014,
      "commit": 7015,
      "shelf": 7016,
      "##iles": 7017,
      "ara": 7018,
      "transl": 7019,
      "describe": 7020,
      "mini": 7021,
      "kil": 7022,
      "stephan": 7023,
      "##craft": 7024,
      "reported": 7025,
      "unlocked": 7026,
      "ink": 7027,
      "outfit": 7028,
      "rocky": 7029,
      "reputation": 7030,
      "activity": 7031,
      "ceremony": 7032,
      "dressing": 7033,
      "kel": 7034,
      "rebe": 7035,
      "##cca": 7036,
      "##resh": 7037,
      "##abor": 7038,
      "carm": 7039,
      "brightly": 7040,
      "guitar": 7041,
      "humili": 7042,
      "examined": 7043,
      "fade": 7044,
      "##icient": 7045,
      "detect": 7046,
      "load": 7047,
      "veget": 7048,
      "insult": 7049,
      "##gas": 7050,
      "hem": 7051,
      "engaged": 7052,
      "reports": 7053,
      "landsc": 7054,
      "stripped": 7055,
      "curt": 7056,
      "caroline": 7057,
      "arth": 7058,
      "adop": 7059,
      "guar": 7060,
      "##elie": 7061,
      "oct": 7062,
      "##ga": 7063,
      "##uish": 7064,
      "##unate": 7065,
      "increasing": 7066,
      "##itching": 7067,
      "outer": 7068,
      "floors": 7069,
      "demanding": 7070,
      "sandwich": 7071,
      "adding": 7072,
      "sib": 7073,
      "lighting": 7074,
      "memor": 7075,
      "immortal": 7076,
      "zero": 7077,
      "suic": 7078,
      "clasped": 7079,
      "parties": 7080,
      "sob": 7081,
      "collection": 7082,
      "outs": 7083,
      "increased": 7084,
      "##aze": 7085,
      "tug": 7086,
      "ath": 7087,
      "blades": 7088,
      "alongside": 7089,
      "##ification": 7090,
      "atm": 7091,
      "formal": 7092,
      "jonas": 7093,
      "value": 7094,
      "##tor": 7095,
      "##uced": 7096,
      "flush": 7097,
      "##asant": 7098,
      "smug": 7099,
      "lut": 7100,
      "choo": 7101,
      "##agne": 7102,
      "savannah": 7103,
      "avoided": 7104,
      "comforting": 7105,
      "whirled": 7106,
      "##ari": 7107,
      "triumph": 7108,
      "shouts": 7109,
      "irritated": 7110,
      "cara": 7111,
      "continuing": 7112,
      "asse": 7113,
      "elise": 7114,
      "nicholas": 7115,
      "##cting": 7116,
      "##ships": 7117,
      "##outs": 7118,
      "analy": 7119,
      "doz": 7120,
      "dishes": 7121,
      "wagon": 7122,
      "sorrow": 7123,
      "vaguely": 7124,
      "flor": 7125,
      "origin": 7126,
      "blush": 7127,
      "victory": 7128,
      "dreaming": 7129,
      "ranch": 7130,
      "seemingly": 7131,
      "embarrassment": 7132,
      "gritted": 7133,
      "railing": 7134,
      "stor": 7135,
      "panicked": 7136,
      "colonel": 7137,
      "mck": 7138,
      "compass": 7139,
      "daylight": 7140,
      "fading": 7141,
      "hoarse": 7142,
      "paw": 7143,
      "forming": 7144,
      "border": 7145,
      "juice": 7146,
      "conference": 7147,
      "virt": 7148,
      "cuts": 7149,
      "tag": 7150,
      "majesty": 7151,
      "files": 7152,
      "anch": 7153,
      "langdon": 7154,
      "model": 7155,
      "player": 7156,
      "##icted": 7157,
      "annoying": 7158,
      "dollar": 7159,
      "victims": 7160,
      "gasping": 7161,
      "suspicion": 7162,
      "gossip": 7163,
      "tact": 7164,
      "reward": 7165,
      "web": 7166,
      "##retched": 7167,
      "syn": 7168,
      "torment": 7169,
      "lingering": 7170,
      "cups": 7171,
      "distr": 7172,
      "tugging": 7173,
      "hart": 7174,
      "ves": 7175,
      "##cr": 7176,
      "operation": 7177,
      "acade": 7178,
      "ashamed": 7179,
      "cavern": 7180,
      "downt": 7181,
      "judgment": 7182,
      "pave": 7183,
      "breed": 7184,
      "intimid": 7185,
      "basically": 7186,
      "cub": 7187,
      "propped": 7188,
      "witches": 7189,
      "annoy": 7190,
      "determination": 7191,
      "accur": 7192,
      "national": 7193,
      "jasm": 7194,
      "cabinet": 7195,
      "ours": 7196,
      "realization": 7197,
      "erection": 7198,
      "jab": 7199,
      "instinctively": 7200,
      "hoo": 7201,
      "horn": 7202,
      "despair": 7203,
      "steering": 7204,
      "##lished": 7205,
      "seam": 7206,
      "amazed": 7207,
      "haunted": 7208,
      "gazing": 7209,
      "butterf": 7210,
      "##idents": 7211,
      "needle": 7212,
      "ko": 7213,
      "leaders": 7214,
      "nuts": 7215,
      "##olded": 7216,
      "dove": 7217,
      "rein": 7218,
      "grac": 7219,
      "peering": 7220,
      "suv": 7221,
      "##itated": 7222,
      "mim": 7223,
      "exasper": 7224,
      "rocking": 7225,
      "plants": 7226,
      "breathless": 7227,
      "bew": 7228,
      "soap": 7229,
      "keen": 7230,
      "sung": 7231,
      "fireplace": 7232,
      "##istered": 7233,
      "quality": 7234,
      "##uri": 7235,
      "minor": 7236,
      "campus": 7237,
      "rene": 7238,
      "combat": 7239,
      "prayer": 7240,
      "melt": 7241,
      "spots": 7242,
      "noticing": 7243,
      "giggle": 7244,
      "##lasses": 7245,
      "snapping": 7246,
      "matched": 7247,
      "buying": 7248,
      "##astically": 7249,
      "##bone": 7250,
      "indust": 7251,
      "angrily": 7252,
      "arguing": 7253,
      "oo": 7254,
      "suits": 7255,
      "stif": 7256,
      "caf": 7257,
      "frantically": 7258,
      "buff": 7259,
      "fortune": 7260,
      "fantasy": 7261,
      "##osphere": 7262,
      "staggered": 7263,
      "poked": 7264,
      "ded": 7265,
      "alpha": 7266,
      "toler": 7267,
      "frantic": 7268,
      "leaped": 7269,
      "noble": 7270,
      "anytime": 7271,
      "curl": 7272,
      "blankets": 7273,
      "choices": 7274,
      "exciting": 7275,
      "sometime": 7276,
      "mister": 7277,
      "elegant": 7278,
      "flinched": 7279,
      "goodness": 7280,
      "package": 7281,
      "bothering": 7282,
      "gentlemen": 7283,
      "wizard": 7284,
      "eyelids": 7285,
      "grat": 7286,
      "tanner": 7287,
      "grandpa": 7288,
      "peaceful": 7289,
      "marched": 7290,
      "lighter": 7291,
      "##mend": 7292,
      "striking": 7293,
      "stalked": 7294,
      "fridge": 7295,
      "swirling": 7296,
      "pine": 7297,
      "painfully": 7298,
      "appropriate": 7299,
      "lashes": 7300,
      "garb": 7301,
      "guardian": 7302,
      "dash": 7303,
      "destruction": 7304,
      "sanct": 7305,
      "##keep": 7306,
      "surroundings": 7307,
      "##azz": 7308,
      "candles": 7309,
      "belief": 7310,
      "corpse": 7311,
      "strangers": 7312,
      "travis": 7313,
      "statue": 7314,
      "miche": 7315,
      "##jah": 7316,
      "slightest": 7317,
      "gap": 7318,
      "gau": 7319,
      "marshall": 7320,
      "sipped": 7321,
      "film": 7322,
      "nons": 7323,
      "fox": 7324,
      "smashed": 7325,
      "ghosts": 7326,
      "##ardon": 7327,
      "bushes": 7328,
      "##agers": 7329,
      "assure": 7330,
      "horrified": 7331,
      "paced": 7332,
      "##aa": 7333,
      "luckily": 7334,
      "blushed": 7335,
      "vacation": 7336,
      "taunt": 7337,
      "attempting": 7338,
      "bliss": 7339,
      "awe": 7340,
      "hopped": 7341,
      "bund": 7342,
      "email": 7343,
      "lion": 7344,
      "congr": 7345,
      "##apers": 7346,
      "blocking": 7347,
      "transp": 7348,
      "momentarily": 7349,
      "throbbing": 7350,
      "##usive": 7351,
      "occasional": 7352,
      "vest": 7353,
      "instructed": 7354,
      "glim": 7355,
      "impul": 7356,
      "granted": 7357,
      "josie": 7358,
      "##mond": 7359,
      "british": 7360,
      "lieutenant": 7361,
      "isabella": 7362,
      "lunged": 7363,
      "neatly": 7364,
      "dumped": 7365,
      "consumed": 7366,
      "dwarf": 7367,
      "##inity": 7368,
      "scor": 7369,
      "sev": 7370,
      "aged": 7371,
      "##atives": 7372,
      "spike": 7373,
      "##arian": 7374,
      "spy": 7375,
      "smack": 7376,
      "fiona": 7377,
      "transf": 7378,
      "breaks": 7379,
      "clit": 7380,
      "realised": 7381,
      "typical": 7382,
      "avery": 7383,
      "##unks": 7384,
      "rows": 7385,
      "##lying": 7386,
      "mansion": 7387,
      "odds": 7388,
      "shoe": 7389,
      "counting": 7390,
      "title": 7391,
      "warren": 7392,
      "depths": 7393,
      "sealed": 7394,
      "intru": 7395,
      "hesitate": 7396,
      "zack": 7397,
      "##while": 7398,
      "mes": 7399,
      "precisely": 7400,
      "fae": 7401,
      "nause": 7402,
      "bella": 7403,
      "natalie": 7404,
      "amongst": 7405,
      "##umes": 7406,
      "distraction": 7407,
      "wasted": 7408,
      "overwhelmed": 7409,
      "ec": 7410,
      "approval": 7411,
      "benefit": 7412,
      "riv": 7413,
      "churn": 7414,
      "finan": 7415,
      "dozens": 7416,
      "healed": 7417,
      "braced": 7418,
      "bush": 7419,
      "softened": 7420,
      "miller": 7421,
      "dump": 7422,
      "joining": 7423,
      "nora": 7424,
      "greed": 7425,
      "beaten": 7426,
      "initial": 7427,
      "##avi": 7428,
      "status": 7429,
      "preser": 7430,
      "attracted": 7431,
      "shifter": 7432,
      "experiment": 7433,
      "blurted": 7434,
      "##iron": 7435,
      "##jam": 7436,
      "wishes": 7437,
      "fires": 7438,
      "internet": 7439,
      "lind": 7440,
      "polished": 7441,
      "committed": 7442,
      "temperature": 7443,
      "pathetic": 7444,
      "wry": 7445,
      "expand": 7446,
      "outl": 7447,
      "unse": 7448,
      "wrest": 7449,
      "rebecca": 7450,
      "##ali": 7451,
      "##ida": 7452,
      "helicopter": 7453,
      "stabbed": 7454,
      "ital": 7455,
      "pitched": 7456,
      "ramp": 7457,
      "graham": 7458,
      "##down": 7459,
      "##uming": 7460,
      "toy": 7461,
      "vik": 7462,
      "cade": 7463,
      "baseball": 7464,
      "politely": 7465,
      "cure": 7466,
      "headache": 7467,
      "pup": 7468,
      "collected": 7469,
      "fishing": 7470,
      "stephen": 7471,
      "pushes": 7472,
      "monk": 7473,
      "equal": 7474,
      "strands": 7475,
      "secretary": 7476,
      "dominic": 7477,
      "overhe": 7478,
      "combination": 7479,
      "washington": 7480,
      "hyster": 7481,
      "cler": 7482,
      "argued": 7483,
      "gifts": 7484,
      "visiting": 7485,
      "trey": 7486,
      "areas": 7487,
      "assuming": 7488,
      "##zzie": 7489,
      "sympathy": 7490,
      "devast": 7491,
      "jasmine": 7492,
      "electricity": 7493,
      "##arded": 7494,
      "##urd": 7495,
      "jungle": 7496,
      "coughed": 7497,
      "hovering": 7498,
      "##shot": 7499,
      "##wed": 7500,
      "tommy": 7501,
      "jeep": 7502,
      "overt": 7503,
      "rigid": 7504,
      "##away": 7505,
      "thirst": 7506,
      "wallet": 7507,
      "automatically": 7508,
      "stealing": 7509,
      "register": 7510,
      "whore": 7511,
      "hauled": 7512,
      "reminding": 7513,
      "crimson": 7514,
      "bern": 7515,
      "danc": 7516,
      "mouths": 7517,
      "misty": 7518,
      "201": 7519,
      "##ishly": 7520,
      "izzy": 7521,
      "mit": 7522,
      "uneasy": 7523,
      "recovered": 7524,
      "smash": 7525,
      "crawling": 7526,
      "om": 7527,
      "russian": 7528,
      "qual": 7529,
      "texas": 7530,
      "kira": 7531,
      "represent": 7532,
      "seized": 7533,
      "maneu": 7534,
      "monitor": 7535,
      "pacing": 7536,
      "saddle": 7537,
      "sincere": 7538,
      "licking": 7539,
      "tel": 7540,
      "unique": 7541,
      "earned": 7542,
      "appointment": 7543,
      "frances": 7544,
      "##omy": 7545,
      "instr": 7546,
      "grins": 7547,
      "basic": 7548,
      "disappearing": 7549,
      "unhapp": 7550,
      "fluttered": 7551,
      "brady": 7552,
      "##ipper": 7553,
      "channel": 7554,
      "ashley": 7555,
      "wreck": 7556,
      "desperation": 7557,
      "flir": 7558,
      "glist": 7559,
      "sweeping": 7560,
      "##add": 7561,
      "clapped": 7562,
      "media": 7563,
      "##olo": 7564,
      "whip": 7565,
      "##quis": 7566,
      "sighs": 7567,
      "remar": 7568,
      "roads": 7569,
      "mounted": 7570,
      "sweep": 7571,
      "ritual": 7572,
      "absence": 7573,
      "consequences": 7574,
      "rights": 7575,
      "painter": 7576,
      "forms": 7577,
      "##ainted": 7578,
      "sting": 7579,
      "kur": 7580,
      "##iser": 7581,
      "western": 7582,
      "##lord": 7583,
      "dani": 7584,
      "ensure": 7585,
      "extend": 7586,
      "telephone": 7587,
      "##ables": 7588,
      "##las": 7589,
      "political": 7590,
      "shred": 7591,
      "##adin": 7592,
      "##rak": 7593,
      "thrilled": 7594,
      "nightmares": 7595,
      "teaching": 7596,
      "saint": 7597,
      "cottage": 7598,
      "consp": 7599,
      "scroll": 7600,
      "curling": 7601,
      "zo": 7602,
      "##box": 7603,
      "mour": 7604,
      "identity": 7605,
      "limited": 7606,
      "greeting": 7607,
      "august": 7608,
      "survival": 7609,
      "encounter": 7610,
      "noises": 7611,
      "produced": 7612,
      "##nic": 7613,
      "psychic": 7614,
      "##mber": 7615,
      "serving": 7616,
      "coward": 7617,
      "##low": 7618,
      "guessing": 7619,
      "thorne": 7620,
      "congrat": 7621,
      "compre": 7622,
      "megan": 7623,
      "isabelle": 7624,
      "solution": 7625,
      "wandering": 7626,
      "tempted": 7627,
      "piercing": 7628,
      "shudder": 7629,
      "aven": 7630,
      "phr": 7631,
      "phill": 7632,
      "belgar": 7633,
      "mouse": 7634,
      "elabor": 7635,
      "naomi": 7636,
      "leah": 7637,
      "reassuring": 7638,
      "hugh": 7639,
      "standard": 7640,
      "##uk": 7641,
      "neighbors": 7642,
      "walker": 7643,
      "salv": 7644,
      "sale": 7645,
      "influence": 7646,
      "affair": 7647,
      "boston": 7648,
      "troops": 7649,
      "sprang": 7650,
      "revel": 7651,
      "acknowledge": 7652,
      "drifting": 7653,
      "gary": 7654,
      "stable": 7655,
      "framed": 7656,
      "hatch": 7657,
      "disgu": 7658,
      "firing": 7659,
      "tube": 7660,
      "illeg": 7661,
      "atmosphere": 7662,
      "assemb": 7663,
      "announce": 7664,
      "violently": 7665,
      "review": 7666,
      "krist": 7667,
      "technology": 7668,
      "trailer": 7669,
      "curiously": 7670,
      "shotgun": 7671,
      "apology": 7672,
      "seal": 7673,
      "jase": 7674,
      "lingered": 7675,
      "parker": 7676,
      "allie": 7677,
      "burns": 7678,
      "##chief": 7679,
      "rumors": 7680,
      "companions": 7681,
      "peeked": 7682,
      "robin": 7683,
      "fbi": 7684,
      "becomes": 7685,
      "spill": 7686,
      "touches": 7687,
      "treasure": 7688,
      "ming": 7689,
      "wary": 7690,
      "champagne": 7691,
      "locks": 7692,
      "##umer": 7693,
      "##arms": 7694,
      "fifth": 7695,
      "guided": 7696,
      "snort": 7697,
      "lav": 7698,
      "teddy": 7699,
      "repair": 7700,
      "sket": 7701,
      "##ulations": 7702,
      "orn": 7703,
      "##ethe": 7704,
      "urged": 7705,
      "muscular": 7706,
      "receive": 7707,
      "instincts": 7708,
      "tapping": 7709,
      "liber": 7710,
      "transform": 7711,
      "liv": 7712,
      "joey": 7713,
      "skinny": 7714,
      "bucket": 7715,
      "sped": 7716,
      "ella": 7717,
      "preston": 7718,
      "vessel": 7719,
      "bour": 7720,
      "abb": 7721,
      "erupted": 7722,
      "rusty": 7723,
      "##len": 7724,
      "gravel": 7725,
      "nudged": 7726,
      "##van": 7727,
      "fortunately": 7728,
      "owed": 7729,
      "speaks": 7730,
      "ribb": 7731,
      "sliced": 7732,
      "winning": 7733,
      "tucker": 7734,
      "crisp": 7735,
      "disease": 7736,
      "barrier": 7737,
      "##iper": 7738,
      "wider": 7739,
      "##itri": 7740,
      "terribly": 7741,
      "fragile": 7742,
      "nah": 7743,
      "##anne": 7744,
      "humanity": 7745,
      "facts": 7746,
      "dresser": 7747,
      "completed": 7748,
      "ripping": 7749,
      "tumbled": 7750,
      "##enced": 7751,
      "smear": 7752,
      "hovered": 7753,
      "resour": 7754,
      "carson": 7755,
      "hugging": 7756,
      "sports": 7757,
      "laurence": 7758,
      "nonsense": 7759,
      "francis": 7760,
      "forearm": 7761,
      "ster": 7762,
      "##lar": 7763,
      "downtown": 7764,
      "thumbs": 7765,
      "alan": 7766,
      "vom": 7767,
      "fingern": 7768,
      "tob": 7769,
      "songs": 7770,
      "shrugs": 7771,
      "beings": 7772,
      "dizzy": 7773,
      "panel": 7774,
      "##tes": 7775,
      "writ": 7776,
      "wander": 7777,
      "mock": 7778,
      "destination": 7779,
      "glory": 7780,
      "sull": 7781,
      "##oting": 7782,
      "eva": 7783,
      "invite": 7784,
      "ga": 7785,
      "ticket": 7786,
      "curb": 7787,
      "steven": 7788,
      "suitcase": 7789,
      "alb": 7790,
      "##arch": 7791,
      "thanked": 7792,
      "advanced": 7793,
      "georg": 7794,
      "torso": 7795,
      "ages": 7796,
      "dane": 7797,
      "wheels": 7798,
      "tiss": 7799,
      "##oti": 7800,
      "##lim": 7801,
      "rim": 7802,
      "worthy": 7803,
      "gleaming": 7804,
      "conversations": 7805,
      "noon": 7806,
      "angie": 7807,
      "##itors": 7808,
      "worries": 7809,
      "hardened": 7810,
      "zombie": 7811,
      "leaf": 7812,
      "notebook": 7813,
      "##ifying": 7814,
      "pent": 7815,
      "strap": 7816,
      "arthur": 7817,
      "chip": 7818,
      "pillows": 7819,
      "##ooled": 7820,
      "declan": 7821,
      "torch": 7822,
      "##xture": 7823,
      "involve": 7824,
      "unple": 7825,
      "apoll": 7826,
      "17": 7827,
      "jealousy": 7828,
      "flaw": 7829,
      "shelves": 7830,
      "##aying": 7831,
      "backing": 7832,
      "knights": 7833,
      "savage": 7834,
      "ninet": 7835,
      "theyll": 7836,
      "empire": 7837,
      "slice": 7838,
      "withdrew": 7839,
      "##rose": 7840,
      "excl": 7841,
      "sandy": 7842,
      "casey": 7843,
      "launched": 7844,
      "knives": 7845,
      "navy": 7846,
      "treatment": 7847,
      "anthony": 7848,
      "pry": 7849,
      "goose": 7850,
      "june": 7851,
      "clin": 7852,
      "developed": 7853,
      "possession": 7854,
      "messed": 7855,
      "permanent": 7856,
      "thoughtful": 7857,
      "frightening": 7858,
      "spoon": 7859,
      "deserted": 7860,
      "lifts": 7861,
      "pam": 7862,
      "freezing": 7863,
      "hut": 7864,
      "##stick": 7865,
      "destiny": 7866,
      "reasonable": 7867,
      "imagining": 7868,
      "valentine": 7869,
      "sher": 7870,
      "admin": 7871,
      "minim": 7872,
      "generally": 7873,
      "criminal": 7874,
      "license": 7875,
      "assassin": 7876,
      "fitting": 7877,
      "fulf": 7878,
      "recover": 7879,
      "concentrated": 7880,
      "warmed": 7881,
      "believing": 7882,
      "lam": 7883,
      "interf": 7884,
      "snugg": 7885,
      "devour": 7886,
      "##ddle": 7887,
      "finishing": 7888,
      "##ssa": 7889,
      "##agging": 7890,
      "dwell": 7891,
      "thud": 7892,
      "aly": 7893,
      "schol": 7894,
      "bills": 7895,
      "arou": 7896,
      "bould": 7897,
      "solemn": 7898,
      "##uch": 7899,
      "cells": 7900,
      "weary": 7901,
      "pic": 7902,
      "heck": 7903,
      "madness": 7904,
      "vegas": 7905,
      "smoothed": 7906,
      "##ware": 7907,
      "purchase": 7908,
      "legend": 7909,
      "##vas": 7910,
      "newly": 7911,
      "emper": 7912,
      "explode": 7913,
      "mighty": 7914,
      "##ola": 7915,
      "##aughters": 7916,
      "13": 7917,
      "foul": 7918,
      "pout": 7919,
      "aj": 7920,
      "potato": 7921,
      "##rors": 7922,
      "chewed": 7923,
      "pavement": 7924,
      "inclined": 7925,
      "##nels": 7926,
      "soup": 7927,
      "penny": 7928,
      "pinched": 7929,
      "blunt": 7930,
      "whos": 7931,
      "perry": 7932,
      "roses": 7933,
      "magnific": 7934,
      "warehouse": 7935,
      "fount": 7936,
      "longing": 7937,
      "refusing": 7938,
      "melody": 7939,
      "reminder": 7940,
      "aint": 7941,
      "pleading": 7942,
      "lazy": 7943,
      "plot": 7944,
      "cann": 7945,
      "bouncing": 7946,
      "terrifying": 7947,
      "madame": 7948,
      "topic": 7949,
      "scanning": 7950,
      "italian": 7951,
      "corrected": 7952,
      "medicine": 7953,
      "county": 7954,
      "##lets": 7955,
      "##ender": 7956,
      "##lad": 7957,
      "assess": 7958,
      "smoothly": 7959,
      "superior": 7960,
      "##wing": 7961,
      "hawk": 7962,
      "deaf": 7963,
      "##ipher": 7964,
      "##ii": 7965,
      "clients": 7966,
      "bending": 7967,
      "lew": 7968,
      "failure": 7969,
      "explaining": 7970,
      "misery": 7971,
      "disag": 7972,
      "ponytail": 7973,
      "effects": 7974,
      "ally": 7975,
      "ambul": 7976,
      "wealth": 7977,
      "affected": 7978,
      "volume": 7979,
      "veron": 7980,
      "brutal": 7981,
      "twir": 7982,
      "isol": 7983,
      "##uable": 7984,
      "elijah": 7985,
      "xavier": 7986,
      "zombies": 7987,
      "ruby": 7988,
      "portal": 7989,
      "swirled": 7990,
      "creepy": 7991,
      "vicious": 7992,
      "pipe": 7993,
      "decades": 7994,
      "##imately": 7995,
      "judging": 7996,
      "impatient": 7997,
      "sack": 7998,
      "##ulted": 7999,
      "landscape": 8000,
      "facility": 8001,
      "barg": 8002,
      "lon": 8003,
      "liar": 8004,
      "testing": 8005,
      "alto": 8006,
      "sleeves": 8007,
      "##ounded": 8008,
      "surg": 8009,
      "pron": 8010,
      "layer": 8011,
      "##quar": 8012,
      "becky": 8013,
      "fem": 8014,
      "gradually": 8015,
      "insides": 8016,
      "dies": 8017,
      "crooked": 8018,
      "bury": 8019,
      "prospect": 8020,
      "clamped": 8021,
      "##inese": 8022,
      "services": 8023,
      "suggestion": 8024,
      "trous": 8025,
      "smacked": 8026,
      "jap": 8027,
      "##ador": 8028,
      "broo": 8029,
      "socks": 8030,
      "average": 8031,
      "persp": 8032,
      "maddie": 8033,
      "regarded": 8034,
      "clust": 8035,
      "plunged": 8036,
      "bug": 8037,
      "yo": 8038,
      "mage": 8039,
      "telep": 8040,
      "workers": 8041,
      "witnessed": 8042,
      "blouse": 8043,
      "mmm": 8044,
      "sober": 8045,
      "##essa": 8046,
      "attor": 8047,
      "dil": 8048,
      "replies": 8049,
      "##epend": 8050,
      "accompanied": 8051,
      "eyeing": 8052,
      "tortured": 8053,
      "##osition": 8054,
      "injuries": 8055,
      "kellan": 8056,
      "##cut": 8057,
      "bump": 8058,
      "sighing": 8059,
      "cats": 8060,
      "vigor": 8061,
      "##zer": 8062,
      "trailing": 8063,
      "stunning": 8064,
      "gained": 8065,
      "clam": 8066,
      "spilling": 8067,
      "##isha": 8068,
      "##aware": 8069,
      "dimitri": 8070,
      "arrested": 8071,
      "##rim": 8072,
      "recon": 8073,
      "##ulty": 8074,
      "pleaded": 8075,
      "##enn": 8076,
      "##itute": 8077,
      "perched": 8078,
      "##ouch": 8079,
      "thoroughly": 8080,
      "14": 8081,
      "helps": 8082,
      "neut": 8083,
      "mistakes": 8084,
      "edged": 8085,
      "museum": 8086,
      "drama": 8087,
      "aura": 8088,
      "sunglasses": 8089,
      "chinese": 8090,
      "temporary": 8091,
      "zone": 8092,
      "adventure": 8093,
      "customers": 8094,
      "samuel": 8095,
      "clinging": 8096,
      "mcc": 8097,
      "irre": 8098,
      "vehicles": 8099,
      "##oid": 8100,
      "##uge": 8101,
      "griffin": 8102,
      "flicker": 8103,
      "tools": 8104,
      "linc": 8105,
      "exited": 8106,
      "seed": 8107,
      "claud": 8108,
      "rattled": 8109,
      "personality": 8110,
      "##erted": 8111,
      "##enelle": 8112,
      "##icated": 8113,
      "##iments": 8114,
      "disaster": 8115,
      "praying": 8116,
      "princip": 8117,
      "discussed": 8118,
      "joshua": 8119,
      "dealt": 8120,
      "storage": 8121,
      "beds": 8122,
      "electron": 8123,
      "shivering": 8124,
      "scowl": 8125,
      "reed": 8126,
      "pump": 8127,
      "afric": 8128,
      "tires": 8129,
      "##uttered": 8130,
      "shades": 8131,
      "cities": 8132,
      "kor": 8133,
      "##cha": 8134,
      "gloss": 8135,
      "##iano": 8136,
      "introduce": 8137,
      "prime": 8138,
      "hector": 8139,
      "chased": 8140,
      "tas": 8141,
      "interrog": 8142,
      "werewolves": 8143,
      "troubled": 8144,
      "tilt": 8145,
      "rhys": 8146,
      "##ndry": 8147,
      "whiskey": 8148,
      "##oen": 8149,
      "foyer": 8150,
      "daughters": 8151,
      "cran": 8152,
      "juliet": 8153,
      "kinda": 8154,
      "##vey": 8155,
      "deciding": 8156,
      "capture": 8157,
      "suicide": 8158,
      "kneeling": 8159,
      "deer": 8160,
      "independ": 8161,
      "lance": 8162,
      "limit": 8163,
      "mold": 8164,
      "beloved": 8165,
      "strict": 8166,
      "hastily": 8167,
      "bodygu": 8168,
      "piled": 8169,
      "eden": 8170,
      "hopeless": 8171,
      "jaenelle": 8172,
      "profile": 8173,
      "choking": 8174,
      "jerry": 8175,
      "fid": 8176,
      "bunk": 8177,
      "pecul": 8178,
      "levels": 8179,
      "sparks": 8180,
      "bubble": 8181,
      "##arre": 8182,
      "##bbling": 8183,
      "article": 8184,
      "disturbing": 8185,
      "annoyance": 8186,
      "nut": 8187,
      "haze": 8188,
      "overs": 8189,
      "deaths": 8190,
      "sage": 8191,
      "heaved": 8192,
      "beasts": 8193,
      "##udge": 8194,
      "unbelie": 8195,
      "abandon": 8196,
      "celest": 8197,
      "puzzle": 8198,
      "assignment": 8199,
      "echoing": 8200,
      "oppon": 8201,
      "drain": 8202,
      "fantastic": 8203,
      "roth": 8204,
      "##gra": 8205,
      "awh": 8206,
      "prisoners": 8207,
      "squat": 8208,
      "junior": 8209,
      "awkwardly": 8210,
      "creek": 8211,
      "emphas": 8212,
      "waiter": 8213,
      "chad": 8214,
      "unpleasant": 8215,
      "##gers": 8216,
      "##ani": 8217,
      "sworn": 8218,
      "tease": 8219,
      "mout": 8220,
      "blows": 8221,
      "dale": 8222,
      "temples": 8223,
      "encourage": 8224,
      "bruises": 8225,
      "##ays": 8226,
      "whoa": 8227,
      "awareness": 8228,
      "intelligent": 8229,
      "##power": 8230,
      "artist": 8231,
      "divorce": 8232,
      "impatiently": 8233,
      "femin": 8234,
      "melanie": 8235,
      "lia": 8236,
      "winds": 8237,
      "garbage": 8238,
      "feast": 8239,
      "levi": 8240,
      "selling": 8241,
      "specul": 8242,
      "belgarath": 8243,
      "dangling": 8244,
      "decorated": 8245,
      "##anging": 8246,
      "environ": 8247,
      "rabbit": 8248,
      "han": 8249,
      "brains": 8250,
      "studio": 8251,
      "16": 8252,
      "reject": 8253,
      "caution": 8254,
      "junk": 8255,
      "mant": 8256,
      "pearl": 8257,
      "taxi": 8258,
      "##hi": 8259,
      "##ulating": 8260,
      "harper": 8261,
      "##aude": 8262,
      "shuffled": 8263,
      "##iders": 8264,
      "kent": 8265,
      "##rad": 8266,
      "awak": 8267,
      "blazing": 8268,
      "##riger": 8269,
      "##char": 8270,
      "exhaustion": 8271,
      "slides": 8272,
      "thoughtfully": 8273,
      "##unken": 8274,
      "sylv": 8275,
      "clip": 8276,
      "refriger": 8277,
      "steadily": 8278,
      "remarked": 8279,
      "##uction": 8280,
      "bartender": 8281,
      "intentions": 8282,
      "arrogant": 8283,
      "appreciated": 8284,
      "mara": 8285,
      "regarding": 8286,
      "generous": 8287,
      "charges": 8288,
      "leth": 8289,
      "##bling": 8290,
      "fran": 8291,
      "safer": 8292,
      "trib": 8293,
      "coin": 8294,
      "tests": 8295,
      "tunnels": 8296,
      "differently": 8297,
      "promises": 8298,
      "compliment": 8299,
      "fuel": 8300,
      "histor": 8301,
      "michelle": 8302,
      "##ooping": 8303,
      "skyla": 8304,
      "lucivar": 8305,
      "maxim": 8306,
      "japan": 8307,
      "crumpled": 8308,
      "##entially": 8309,
      "accus": 8310,
      "##ulsion": 8311,
      "reporter": 8312,
      "capital": 8313,
      "peculiar": 8314,
      "humming": 8315,
      "charity": 8316,
      "recru": 8317,
      "loyalty": 8318,
      "##worth": 8319,
      "patiently": 8320,
      "##athed": 8321,
      "negoti": 8322,
      "##ban": 8323,
      "flare": 8324,
      "wrath": 8325,
      "sensual": 8326,
      "lowering": 8327,
      "curves": 8328,
      "##inter": 8329,
      "emperor": 8330,
      "conclusion": 8331,
      "concentration": 8332,
      "micah": 8333,
      "guarded": 8334,
      "partners": 8335,
      "lessons": 8336,
      "pills": 8337,
      "razor": 8338,
      "lasted": 8339,
      "sparkling": 8340,
      "lizzie": 8341,
      "##aneously": 8342,
      "inher": 8343,
      "stung": 8344,
      "offended": 8345,
      "##inkling": 8346,
      "accused": 8347,
      "000": 8348,
      "motorcy": 8349,
      "enthusiasm": 8350,
      "##celer": 8351,
      "cares": 8352,
      "##point": 8353,
      "pauses": 8354,
      "inward": 8355,
      "##ctive": 8356,
      "sweaty": 8357,
      "burden": 8358,
      "##aire": 8359,
      "crushing": 8360,
      "thrill": 8361,
      "fare": 8362,
      "description": 8363,
      "bin": 8364,
      "shri": 8365,
      "tops": 8366,
      "##ndy": 8367,
      "centre": 8368,
      "twitch": 8369,
      "##wind": 8370,
      "allison": 8371,
      "cassidy": 8372,
      "damaged": 8373,
      "releasing": 8374,
      "citizens": 8375,
      "strolled": 8376,
      "visitors": 8377,
      "fiery": 8378,
      "##nge": 8379,
      "wisdom": 8380,
      "dess": 8381,
      "phoen": 8382,
      "scal": 8383,
      "online": 8384,
      "acceler": 8385,
      "##mie": 8386,
      "slipp": 8387,
      "cem": 8388,
      "conver": 8389,
      "discussing": 8390,
      "visions": 8391,
      "luther": 8392,
      "faintly": 8393,
      "powder": 8394,
      "jewelry": 8395,
      "thankful": 8396,
      "albert": 8397,
      "shrieked": 8398,
      "injury": 8399,
      "##zzle": 8400,
      "##force": 8401,
      "##rence": 8402,
      "contrast": 8403,
      "awhile": 8404,
      "fest": 8405,
      "folk": 8406,
      "calvin": 8407,
      "scur": 8408,
      "picks": 8409,
      "ecst": 8410,
      "jules": 8411,
      "soil": 8412,
      "conqu": 8413,
      "wool": 8414,
      "cherry": 8415,
      "belle": 8416,
      "thump": 8417,
      "pole": 8418,
      "compassion": 8419,
      "##engers": 8420,
      "ambulance": 8421,
      "fashioned": 8422,
      "inevitable": 8423,
      "messy": 8424,
      "brun": 8425,
      "officially": 8426,
      "fiercely": 8427,
      "sham": 8428,
      "passes": 8429,
      "##cest": 8430,
      "##fic": 8431,
      "assigned": 8432,
      "##ooling": 8433,
      "ki": 8434,
      "##oma": 8435,
      "##chant": 8436,
      "corps": 8437,
      "tightening": 8438,
      "sucks": 8439,
      "cookies": 8440,
      "abo": 8441,
      "##rell": 8442,
      "snick": 8443,
      "resistance": 8444,
      "yel": 8445,
      "shorter": 8446,
      "retreated": 8447,
      "roots": 8448,
      "##akable": 8449,
      "cassandra": 8450,
      "presented": 8451,
      "print": 8452,
      "handled": 8453,
      "menu": 8454,
      "dashed": 8455,
      "lantern": 8456,
      "irritation": 8457,
      "population": 8458,
      "huddled": 8459,
      "hunched": 8460,
      "##rical": 8461,
      "altogether": 8462,
      "##mail": 8463,
      "tiff": 8464,
      "cancer": 8465,
      "overcome": 8466,
      "delic": 8467,
      "dazed": 8468,
      "exercise": 8469,
      "skipped": 8470,
      "##lict": 8471,
      "sticks": 8472,
      "malcol": 8473,
      "thorn": 8474,
      "disturbed": 8475,
      "zeke": 8476,
      "##uits": 8477,
      "paperwork": 8478,
      "embarrassing": 8479,
      "disappro": 8480,
      "casting": 8481,
      "rubber": 8482,
      "##bag": 8483,
      "sobbing": 8484,
      "attempts": 8485,
      "philos": 8486,
      "phoenix": 8487,
      "complained": 8488,
      "multiple": 8489,
      "##bon": 8490,
      "concept": 8491,
      "streaming": 8492,
      "vlad": 8493,
      "skye": 8494,
      "northern": 8495,
      "bites": 8496,
      "pierced": 8497,
      "seventy": 8498,
      "##inent": 8499,
      "cracking": 8500,
      "dol": 8501,
      "scul": 8502,
      "madison": 8503,
      "##aste": 8504,
      "bewild": 8505,
      "delighted": 8506,
      "internal": 8507,
      "marc": 8508,
      "commented": 8509,
      "lords": 8510,
      "sculpt": 8511,
      "dismissed": 8512,
      "senator": 8513,
      "weigh": 8514,
      "appet": 8515,
      "slope": 8516,
      "rex": 8517,
      "chips": 8518,
      "vivid": 8519,
      "inviting": 8520,
      "yer": 8521,
      "christo": 8522,
      "limits": 8523,
      "eagerly": 8524,
      "restless": 8525,
      "dryly": 8526,
      "##keeper": 8527,
      "surged": 8528,
      "environment": 8529,
      "urgent": 8530,
      "00": 8531,
      "illusion": 8532,
      "##esday": 8533,
      "stew": 8534,
      "##ienna": 8535,
      "stove": 8536,
      "bic": 8537,
      "##itches": 8538,
      "jade": 8539,
      "##esy": 8540,
      "##vable": 8541,
      "method": 8542,
      "session": 8543,
      "logic": 8544,
      "oxy": 8545,
      "indul": 8546,
      "watches": 8547,
      "furrowed": 8548,
      "amid": 8549,
      "oblivious": 8550,
      "mead": 8551,
      "sweating": 8552,
      "freeze": 8553,
      "technically": 8554,
      "##rod": 8555,
      "cargo": 8556,
      "ignor": 8557,
      "slaves": 8558,
      "##ppers": 8559,
      "unaware": 8560,
      "circling": 8561,
      "envelop": 8562,
      "bolted": 8563,
      "inex": 8564,
      "removing": 8565,
      "##seat": 8566,
      "forgetting": 8567,
      "ford": 8568,
      "tuesday": 8569,
      "cos": 8570,
      "discon": 8571,
      "flickering": 8572,
      "apollo": 8573,
      "gus": 8574,
      "speaker": 8575,
      "malcolm": 8576,
      "jagged": 8577,
      "boom": 8578,
      "disgusted": 8579,
      "vivian": 8580,
      "si": 8581,
      "rogue": 8582,
      "murmur": 8583,
      "valuable": 8584,
      "tune": 8585,
      "spanish": 8586,
      "partially": 8587,
      "##mod": 8588,
      "supper": 8589,
      "geor": 8590,
      "incredulous": 8591,
      "attraction": 8592,
      "antonio": 8593,
      "##otes": 8594,
      "##ties": 8595,
      "parano": 8596,
      "bruised": 8597,
      "patrol": 8598,
      "coincidence": 8599,
      "chem": 8600,
      "folding": 8601,
      "focusing": 8602,
      "##za": 8603,
      "exagger": 8604,
      "cursing": 8605,
      "surreal": 8606,
      "gust": 8607,
      "##ader": 8608,
      "theater": 8609,
      "tracking": 8610,
      "mixture": 8611,
      "gruff": 8612,
      "merc": 8613,
      "##olved": 8614,
      "slung": 8615,
      "bish": 8616,
      "encl": 8617,
      "awoke": 8618,
      "shaken": 8619,
      "##icia": 8620,
      "brisk": 8621,
      "hav": 8622,
      "lissa": 8623,
      "##ighed": 8624,
      "slack": 8625,
      "rory": 8626,
      "absently": 8627,
      "dated": 8628,
      "performance": 8629,
      "##cery": 8630,
      "trousers": 8631,
      "##etan": 8632,
      "strapped": 8633,
      "deput": 8634,
      "backseat": 8635,
      "resolve": 8636,
      "pand": 8637,
      "ul": 8638,
      "construction": 8639,
      "shapes": 8640,
      "district": 8641,
      "notion": 8642,
      "mocking": 8643,
      "catherine": 8644,
      "pac": 8645,
      "temp": 8646,
      "darius": 8647,
      "##elling": 8648,
      "blackness": 8649,
      "##lee": 8650,
      "flipping": 8651,
      "chu": 8652,
      "budd": 8653,
      "rational": 8654,
      "fund": 8655,
      "biz": 8656,
      "##angle": 8657,
      "tad": 8658,
      "##vant": 8659,
      "stella": 8660,
      "wea": 8661,
      "carn": 8662,
      "recom": 8663,
      "sunset": 8664,
      "nadia": 8665,
      "hire": 8666,
      "fluid": 8667,
      "catches": 8668,
      "flex": 8669,
      "machines": 8670,
      "lilly": 8671,
      "winding": 8672,
      "sanctuary": 8673,
      "carlos": 8674,
      "meanwhile": 8675,
      "aboard": 8676,
      "beau": 8677,
      "financial": 8678,
      "##chair": 8679,
      "##ceded": 8680,
      "pix": 8681,
      "schedul": 8682,
      "sensing": 8683,
      "spur": 8684,
      "backyard": 8685,
      "emerald": 8686,
      "lounge": 8687,
      "genuinely": 8688,
      "sasha": 8689,
      "hiss": 8690,
      "advance": 8691,
      "indian": 8692,
      "combined": 8693,
      "amaze": 8694,
      "dorian": 8695,
      "marco": 8696,
      "communication": 8697,
      "##ko": 8698,
      "##orse": 8699,
      "felix": 8700,
      "reluctant": 8701,
      "sept": 8702,
      "##pit": 8703,
      "##ala": 8704,
      "##issy": 8705,
      "gravity": 8706,
      "laced": 8707,
      "##usions": 8708,
      "pictured": 8709,
      "interp": 8710,
      "strings": 8711,
      "##rr": 8712,
      "##isher": 8713,
      "##ician": 8714,
      "registered": 8715,
      "bonnie": 8716,
      "swallowing": 8717,
      "doubts": 8718,
      "aggress": 8719,
      "##osal": 8720,
      "##hea": 8721,
      "##eped": 8722,
      "elaborate": 8723,
      "attacks": 8724,
      "starving": 8725,
      "fiction": 8726,
      "downward": 8727,
      "mab": 8728,
      "union": 8729,
      "cemet": 8730,
      "drunken": 8731,
      "toll": 8732,
      "nep": 8733,
      "sleepy": 8734,
      "swayed": 8735,
      "confess": 8736,
      "chant": 8737,
      "##scri": 8738,
      "thurs": 8739,
      "##imeter": 8740,
      "kara": 8741,
      "closes": 8742,
      "france": 8743,
      "cemetery": 8744,
      "stilled": 8745,
      "thursday": 8746,
      "##urg": 8747,
      "strain": 8748,
      "##ota": 8749,
      "##ww": 8750,
      "males": 8751,
      "dus": 8752,
      "napkin": 8753,
      "##ito": 8754,
      "spells": 8755,
      "rats": 8756,
      "ancest": 8757,
      "dalton": 8758,
      "##acity": 8759,
      "laundry": 8760,
      "greek": 8761,
      "magnificent": 8762,
      "mistaken": 8763,
      "locking": 8764,
      "dub": 8765,
      "comments": 8766,
      "merry": 8767,
      "caressed": 8768,
      "fantas": 8769,
      "oldest": 8770,
      "tremble": 8771,
      "##mic": 8772,
      "pausing": 8773,
      "kaladin": 8774,
      "packing": 8775,
      "aer": 8776,
      "boats": 8777,
      "commer": 8778,
      "relent": 8779,
      "pencil": 8780,
      "eleanor": 8781,
      "whimp": 8782,
      "whimper": 8783,
      "heir": 8784,
      "bumped": 8785,
      "##oses": 8786,
      "flashes": 8787,
      "talks": 8788,
      "prepar": 8789,
      "numer": 8790,
      "illegal": 8791,
      "scalp": 8792,
      "practical": 8793,
      "distress": 8794,
      "sprawled": 8795,
      "##kind": 8796,
      "sales": 8797,
      "##apse": 8798,
      "presses": 8799,
      "prize": 8800,
      "flav": 8801,
      "filthy": 8802,
      "score": 8803,
      "accepting": 8804,
      "tended": 8805,
      "##zo": 8806,
      "arrows": 8807,
      "##apor": 8808,
      "refrigerator": 8809,
      "rapha": 8810,
      "arriving": 8811,
      "obst": 8812,
      "explore": 8813,
      "##heron": 8814,
      "flatt": 8815,
      "goin": 8816,
      "##tegr": 8817,
      "unlikely": 8818,
      "pregnancy": 8819,
      "ropes": 8820,
      "mah": 8821,
      "proc": 8822,
      "serena": 8823,
      "margaret": 8824,
      "sacred": 8825,
      "dresses": 8826,
      "teenager": 8827,
      "brooke": 8828,
      "positioned": 8829,
      "plo": 8830,
      "scale": 8831,
      "bout": 8832,
      "lovers": 8833,
      "##robe": 8834,
      "acheron": 8835,
      "mari": 8836,
      "dial": 8837,
      "shutting": 8838,
      "luis": 8839,
      "##ifully": 8840,
      "extraord": 8841,
      "scenar": 8842,
      "eag": 8843,
      "attacking": 8844,
      "insurance": 8845,
      "drivers": 8846,
      "gross": 8847,
      "convincing": 8848,
      "rus": 8849,
      "pond": 8850,
      "clerk": 8851,
      "sup": 8852,
      "sunny": 8853,
      "##hend": 8854,
      "ric": 8855,
      "jonah": 8856,
      "denied": 8857,
      "claude": 8858,
      "willow": 8859,
      "unhappy": 8860,
      "blasted": 8861,
      "meetings": 8862,
      "genius": 8863,
      "wax": 8864,
      "helpful": 8865,
      "navig": 8866,
      "mommy": 8867,
      "##umbles": 8868,
      "scarf": 8869,
      "retrieve": 8870,
      "hazel": 8871,
      "bethany": 8872,
      "neutral": 8873,
      "scooped": 8874,
      "reacted": 8875,
      "blessed": 8876,
      "initi": 8877,
      "april": 8878,
      "guts": 8879,
      "##hered": 8880,
      "sobs": 8881,
      "females": 8882,
      "variety": 8883,
      "larry": 8884,
      "hopeful": 8885,
      "venge": 8886,
      "sympat": 8887,
      "returns": 8888,
      "cowboy": 8889,
      "daw": 8890,
      "goo": 8891,
      "secured": 8892,
      "china": 8893,
      "repeatedly": 8894,
      "buzzing": 8895,
      "additional": 8896,
      "education": 8897,
      "ruff": 8898,
      "nash": 8899,
      "clad": 8900,
      "folds": 8901,
      "##nesday": 8902,
      "rounds": 8903,
      "elle": 8904,
      "tool": 8905,
      "objects": 8906,
      "stuart": 8907,
      "reserved": 8908,
      "conso": 8909,
      "demands": 8910,
      "bizarre": 8911,
      "whistle": 8912,
      "wednesday": 8913,
      "smelling": 8914,
      "##ishes": 8915,
      "stumbling": 8916,
      "joel": 8917,
      "callie": 8918,
      "surviv": 8919,
      "scoffed": 8920,
      "disgusting": 8921,
      "buzzed": 8922,
      "recip": 8923,
      "##fits": 8924,
      "undead": 8925,
      "betrayal": 8926,
      "bom": 8927,
      "motionless": 8928,
      "grie": 8929,
      "##agues": 8930,
      "resort": 8931,
      "millions": 8932,
      "asshole": 8933,
      "swam": 8934,
      "##uffed": 8935,
      "bishop": 8936,
      "feathers": 8937,
      "eighty": 8938,
      "##ulting": 8939,
      "proceeded": 8940,
      "lana": 8941,
      "adults": 8942,
      "cringed": 8943,
      "oxygen": 8944,
      "depos": 8945,
      "romance": 8946,
      "sly": 8947,
      "heavens": 8948,
      "identify": 8949,
      "pursed": 8950,
      "kitten": 8951,
      "##alf": 8952,
      "accidentally": 8953,
      "canvas": 8954,
      "examine": 8955,
      "reminds": 8956,
      "##atell": 8957,
      "motel": 8958,
      "diana": 8959,
      "sock": 8960,
      "dele": 8961,
      "lurched": 8962,
      "tipto": 8963,
      "constru": 8964,
      "tire": 8965,
      "duties": 8966,
      "chewing": 8967,
      "##gic": 8968,
      "summoned": 8969,
      "cracks": 8970,
      "portion": 8971,
      "punish": 8972,
      "##ustomed": 8973,
      "cody": 8974,
      "giggling": 8975,
      "dj": 8976,
      "silky": 8977,
      "murphy": 8978,
      "##amiliar": 8979,
      "significant": 8980,
      "blinding": 8981,
      "fountain": 8982,
      "madeline": 8983,
      "concerns": 8984,
      "exquis": 8985,
      "upside": 8986,
      "mouthed": 8987,
      "elsewhere": 8988,
      "rumbled": 8989,
      "referring": 8990,
      "tut": 8991,
      "supernatural": 8992,
      "sawyer": 8993,
      "brighter": 8994,
      "delivery": 8995,
      "sticky": 8996,
      "glittering": 8997,
      "defensive": 8998,
      "raphael": 8999,
      "##bris": 9000,
      "encountered": 9001,
      "freely": 9002,
      "bum": 9003,
      "unfamiliar": 9004,
      "altar": 9005,
      "expressions": 9006,
      "dign": 9007,
      "largest": 9008,
      "phillip": 9009,
      "activities": 9010,
      "solve": 9011,
      "autumn": 9012,
      "##ivity": 9013,
      "linked": 9014,
      "midst": 9015,
      "evidently": 9016,
      "pod": 9017,
      "shine": 9018,
      "audrey": 9019,
      "liking": 9020,
      "religious": 9021,
      "outst": 9022,
      "robot": 9023,
      "classroom": 9024,
      "furiously": 9025,
      "cath": 9026,
      "particip": 9027,
      "axe": 9028,
      "talon": 9029,
      "proudly": 9030,
      "basis": 9031,
      "gaping": 9032,
      "francesca": 9033,
      "shack": 9034,
      "brass": 9035,
      "shocking": 9036,
      "void": 9037,
      "##berg": 9038,
      "countless": 9039,
      "compar": 9040,
      "##bits": 9041,
      "nineteen": 9042,
      "whitney": 9043,
      "jem": 9044,
      "subs": 9045,
      "pend": 9046,
      "piper": 9047,
      "piano": 9048,
      "econ": 9049,
      "upd": 9050,
      "cane": 9051,
      "pumping": 9052,
      "tribe": 9053,
      "##quet": 9054,
      "stomped": 9055,
      "stride": 9056,
      "rug": 9057,
      "fascinated": 9058,
      "andrea": 9059,
      "##unching": 9060,
      "dna": 9061,
      "pardon": 9062,
      "tiffany": 9063,
      "resisted": 9064,
      "attorney": 9065,
      "glorious": 9066,
      "systems": 9067,
      "##inkle": 9068,
      "##foot": 9069,
      "identical": 9070,
      "itll": 9071,
      "battered": 9072,
      "depend": 9073,
      "dialed": 9074,
      "infected": 9075,
      "calmed": 9076,
      "##ours": 9077,
      "absorbed": 9078,
      "feminine": 9079,
      "creeping": 9080,
      "stench": 9081,
      "cautious": 9082,
      "dome": 9083,
      "index": 9084,
      "depends": 9085,
      "##xic": 9086,
      "sust": 9087,
      "traitor": 9088,
      "bacon": 9089,
      "fee": 9090,
      "bedside": 9091,
      "mound": 9092,
      "stance": 9093,
      "beamed": 9094,
      "cue": 9095,
      "##arming": 9096,
      "drowning": 9097,
      "lucian": 9098,
      "raises": 9099,
      "absurd": 9100,
      "##lder": 9101,
      "semi": 9102,
      "stray": 9103,
      "##ologet": 9104,
      "gin": 9105,
      "mused": 9106,
      "puppy": 9107,
      "paintings": 9108,
      "shifters": 9109,
      "strand": 9110,
      "plas": 9111,
      "dates": 9112,
      "retrieved": 9113,
      "consci": 9114,
      "tales": 9115,
      "##alls": 9116,
      "assistance": 9117,
      "minister": 9118,
      "avenue": 9119,
      "##agan": 9120,
      "strongly": 9121,
      "crest": 9122,
      "skept": 9123,
      "##omet": 9124,
      "obey": 9125,
      "hilt": 9126,
      "scraped": 9127,
      "startling": 9128,
      "##irm": 9129,
      "column": 9130,
      "jumps": 9131,
      "players": 9132,
      "timing": 9133,
      "choosing": 9134,
      "##ody": 9135,
      "willingly": 9136,
      "sienna": 9137,
      "withdraw": 9138,
      "choke": 9139,
      "root": 9140,
      "immense": 9141,
      "##herent": 9142,
      "stormed": 9143,
      "##ela": 9144,
      "stays": 9145,
      "meantime": 9146,
      "teachers": 9147,
      "degrees": 9148,
      "sarcasm": 9149,
      "trusting": 9150,
      "defeated": 9151,
      "stirring": 9152,
      "shifts": 9153,
      "offers": 9154,
      "salad": 9155,
      "gulped": 9156,
      "dramatic": 9157,
      "eastern": 9158,
      "secretly": 9159,
      "##tr": 9160,
      "trucks": 9161,
      "rank": 9162,
      "saetan": 9163,
      "bray": 9164,
      "arous": 9165,
      "##lands": 9166,
      "ledge": 9167,
      "possibilities": 9168,
      "disturb": 9169,
      "ego": 9170,
      "theyve": 9171,
      "gallery": 9172,
      "arousal": 9173,
      "gay": 9174,
      "carr": 9175,
      "logical": 9176,
      "roaring": 9177,
      "resent": 9178,
      "sche": 9179,
      "delay": 9180,
      "outrage": 9181,
      "rumble": 9182,
      "drowned": 9183,
      "wield": 9184,
      "league": 9185,
      "aspect": 9186,
      "reacher": 9187,
      "hind": 9188,
      "ninety": 9189,
      "oun": 9190,
      "happier": 9191,
      "difficulty": 9192,
      "sunk": 9193,
      "britt": 9194,
      "coven": 9195,
      "confessed": 9196,
      "highest": 9197,
      "specifically": 9198,
      "adri": 9199,
      "papa": 9200,
      "simult": 9201,
      "joint": 9202,
      "lame": 9203,
      "eerie": 9204,
      "chan": 9205,
      "peeled": 9206,
      "guarant": 9207,
      "stalk": 9208,
      "orle": 9209,
      "diner": 9210,
[...]
