[PAD]
[UNK]
[CLS]
[SEP]
[MASK]
!
#
$
%
&
'
(
)
*
+
,
-
.
/
0
1
2
3
4
5
6
7
8
9
:
;
<
=
>
?
@
[
\
]
^
_
`
a
b
c
d
e
f
g
h
i
j
k
l
m
n
o
p
q
r
s
t
u
v
w
x
y
z
{
|
}
~
##r
##o
##m
##f
##a
##c
##t
##s
##e
##i
##k
##l
##u
##v
##y
##h
##g
##d
##n
##p
##b
##z
##x
##6
##0
##1
##2
##3
##8
##q
##w
##j
##7
##5
##4
##9
##he
the
##in
##er
##ed
##ou
##nd
##ing
to
##at
##re
th
##is
and
##as
##en
##an
##on
##ll
he
##ar
##or
##es
of
in
##it
ha
##om
you
##ow
be
her
##id
##ut
was
it
##ot
##le
##ld
##ac
##gh
on
she
##et
st
his
that
##ly
##im
##ay
##st
##ve
##ic
wh
as
re
my
me
##ad
##al
##se
##oo
##ver
##ght
##ould
##ur
##ith
##ir
for
with
##ent
do
an
##ke
had
li
at
sh
##am
we
but
##ion
him
##all
fr
##her
se
sa
not
##ter
##ight
##ked
##pp
ne
##ro
##ack
so
##ain
##ch
##ill
##ant
##ce
##il
kn
out
what
##ore
is
##el
up
##out
##ust
##rou
##ri
whe
have
##ome
said
they
no
##hing
##ard
this
ch
from
go
su
did
ab
##ra
##ct
le
##nt
##king
##ere
all
##ie
de
al
##us
##one
could
##ind
loo
back
would
were
##to
##hed
like
fe
if
##ess
##art
##ge
##own
##est
one
cl
there
##un
##ood
sp
con
##ss
just
ag
into
##ab
##ast
##au
when
wor
ex
know
##ers
##ry
ro
##ide
about
##ep
##ck
##ace
##and
bl
or
hand
##ally
##ake
then
##um
see
them
your
want
##way
over
##ul
te
any
##op
are
##ong
##lf
ey
been
##ist
##ate
sm
get
##ven
tim
##ap
pl
down
lo
co
ever
some
mo
too
##ig
##ame
bo
again
##urn
##ft
thou
com
##are
who
##round
man
off
##ation
##ice
ar
br
time
now
how
##ink
fl
by
##ff
po
##ous
eyes
##ag
head
us
qu
more
##ick
##ive
##ort
##ine
##ull
can
sl
en
##ak
sc
tr
##pped
##ect
##ther
##other
tw
##ound
##os
than
un
##our
##nder
##itt
##self
even
their
##ved
way
im
##fore
##led
##ile
##dd
before
gr
##ire
every
around
will
##reat
say
going
other
##ass
##ure
pre
##ving
here
pro
af
som
right
##th
##ade
somet
only
think
##rough
bec
turn
through
need
gl
##ue
##ip
looked
##ear
##ered
##ose
look
pr
##fe
let
thought
##ite
should
sw
thing
##ward
##act
##iss
still
after
away
##ol
gu
kne
something
face
##thing
am
door
##pt
mu
##ont
exp
##ity
good
##ies
##ause
long
##ang
never
##ment
wat
ac
##ened
pe
wa
##ach
##dy
##iz
bet
feel
ll
##ble
got
well
asked
where
che
##able
car
##ark
two
##ree
op
##ated
fo
##wn
##ance
##ell
fir
arm
made
##ched
why
##ich
much
ve
##med
##ave
##ather
##ious
our
because
tell
##ting
rem
room
knew
dis
##ittle
##age
##aking
##ath
under
ho
little
mom
##te
##ning
##ady
##ough
day
cr
ke
make
##ery
come
##co
take
##elt
##gg
call
happ
wal
em
may
##ried
##ase
##ful
##ks
first
##ress
cont
##side
##be
##ru
##air
vo
##ber
its
felt
jo
##ence
sure
wo
ca
##ves
start
hands
##ied
tal
##ans
##ared
hel
pull
wanted
took
##ah
comp
##int
turned
##em
night
el
app
sk
really
##ling
##ps
per
des
mar
##oth
try
##ild
##ily
against
voice
sur
has
ad
##uck
##ia
part
res
bel
##ud
fin
hard
##qu
peop
real
##ced
left
which
##ens
##bb
very
beh
help
cou
people
came
told
another
##ds
last
put
##owed
##ise
side
life
##een
##ook
##ish
while
##ross
body
wom
wait
##ty
find
few
sn
##av
spe
gra
anything
rep
moment
yes
##az
being
##les
new
##hes
war
breat
nothing
##ned
##get
ph
##xt
str
own
di
behind
ste
keep
unt
##ions
year
enough
toward
went
light
lau
does
mat
might
##ouse
saw
wr
hair
bed
dr
##ci
##igh
##per
beg
dark
clos
sound
gir
old
hu
until
things
love
mind
cle
##outh
##ways
though
id
##ars
maybe
bu
those
set
##amp
##ching
##ail
open
end
##ys
act
##aring
looking
fing
##ness
once
##ng
##ord
##ost
##orm
most
##ream
##ince
care
##ne
##iend
both
gi
girl
friend
##ool
always
ass
##dded
next
##ons
##cked
##ner
place
sil
att
cur
min
hold
##ower
imp
oh
kill
smil
house
mouth
inside
sat
run
found
front
##row
ple
##ted
heart
inst
without
dec
ser
gre
##less
##ating
home
##ian
rel
blood
same
##ory
work
##aw
everything
rest
##ually
someone
himself
sho
stand
inter
small
##ary
woman
hop
bit
bre
##sw
trying
heard
better
ok
arms
pulled
flo
cor
dra
ret
cour
betw
each
between
father
stre
give
##ised
kiss
mean
wind
##cond
mother
seemed
black
##ier
deep
##ung
smile
##red
second
answ
##pping
##if
##ange
##tered
far
ang
alm
##tain
across
##ably
##sp
fam
pain
stop
myself
hur
sto
three
##ready
##sh
##used
since
dri
already
pass
##ever
sle
##aught
started
point
##ump
quick
almost
gave
stu
breath
##ict
dont
years
must
belie
stay
##ached
stood
men
kind
##ix
##ank
remem
ear
air
else
done
mor
wall
dro
okay
foll
##ors
doing
hell
##gether
tried
tra
##umb
world
ob
##ible
##ings
lips
walked
close
##ane
words
big
ev
hum
tou
mon
slow
##ater
minut
together
##rew
##ized
feet
nodded
ye
sig
##ott
##so
##ple
##ense
didnt
##ushed
wonder
held
near
seen
##ph
met
many
miss
##ured
##ren
these
lot
ra
quest
underst
##ully
##anc
##ash
bar
diff
##ently
ma
supp
int
##gs
##irt
##ason
tre
sim
whis
pers
ent
##ond
##icked
##inking
hear
##pr
play
yet
talk
says
move
conf
##ither
bad
##ows
##akes
floor
water
expl
leave
ed
smiled
mr
##ib
##day
sor
aw
red
##iv
##ained
##gn
inc
great
dam
gone
step
##gged
table
##owing
herself
##ying
##ub
acc
eas
##ek
fingers
##iet
past
chest
char
hour
needed
##ention
prob
##der
##iver
began
dist
##ny
##here
##ished
##aced
name
##ift
also
cons
##ected
swe
getting
shook
lu
half
##ept
called
##rie
along
yeah
##cept
bro
##ately
ter
soon
fore
course
ben
soft
coming
bus
finally
##dden
fall
probably
ide
dead
child
pa
##ical
fre
such
sudden
comm
inv
##ined
god
lean
least
##bo
best
happened
cra
moved
stra
pat
high
col
poss
contin
return
##ction
person
##ering
eye
##ush
reached
sorry
believe
resp
skin
##ms
white
later
phone
fire
stopped
gaz
##na
##bbed
boy
tight
list
making
feeling
##idd
dem
jack
surpr
##ipped
ask
##ition
opened
press
ap
meet
anyone
##ged
ran
je
used
##itting
sit
inf
family
remember
sleep
ind
understand
##ters
##ening
##ret
##ual
everyone
hor
plan
##vel
##iously
idea
hot
sec
dire
fact
##ided
brother
##fully
taking
cover
differ
morning
##arent
shoulder
mag
forward
cut
ground
bes
neck
fight
cat
##aps
lar
kept
power
read
##ins
dad
hurt
top
##anced
comple
reg
##room
young
##cer
quiet
clear
##aut
perf
quickly
repl
days
rec
##lo
##oke
four
##head
vis
##che
prot
##ued
roll
##aken
guy
slowly
##sc
able
ref
##ize
##cc
use
alone
del
##no
par
exc
wrong
onto
lea
##iness
##ents
##og
thinking
having
closed
ru
cap
ready
##uth
laugh
full
please
dress
mine
##ial
stared
sch
sun
talking
det
fell
##ically
hit
question
watched
either
thro
##mm
lift
coll
pol
##ount
fill
##fort
minutes
mem
##cking
whisp
bab
beaut
ty
##airs
fine
pret
##ead
tri
fig
actually
cal
outside
##ister
##ult
##app
hall
dou
chap
##where
cold
##ghed
##ton
##ets
cer
matter
suddenly
guess
pur
vamp
##ger
har
glass
ill
word
lost
lou
gaze
##up
ele
king
##oney
mus
hope
sy
reason
standing
mur
hes
low
##ife
appear
bur
##que
short
prom
##att
##ped
##night
times
walk
land
blue
##ations
whole
pretty
exact
caught
pres
kid
##tend
##ips
thank
##ides
##ased
free
##ax
instead
##ten
break
answer
laughed
waiting
##ee
grin
five
death
chapter
fur
complete
sever
##ames
##io
##eth
friends
##man
lay
##ma
warm
##als
vampire
##ures
build
others
taken
ago
shot
different
def
##vers
##osed
guard
scream
##uring
show
school
##enty
looks
##rought
##ike
legs
certain
##ired
throat
##ited
meant
foot
imag
##ken
fun
strong
tom
whispered
shirt
ale
glanced
##cus
gen
contro
burn
bare
##iding
perfect
human
straight
ins
gun
bring
##eks
window
##ored
whatever
cho
less
brought
sex
##ric
chr
##ock
##acked
shut
sent
##ove
unc
large
holding
mess
sign
stepped
exactly
adm
dream
##ming
touch
##ates
quite
##by
watch
sub
leaned
##zy
disapp
sense
sitting
watching
cross
happy
count
cry
bott
realized
##cy
##ield
thir
##pe
entire
##unt
seat
sam
##iful
lead
cent
##anger
##lt
bra
##anged
chair
nice
##land
running
finger
##ression
followed
na
six
hours
wood
win
kit
closer
several
shit
true
grabbed
continued
shru
fear
job
##br
##ants
replied
##iced
##ik
##ison
##ape
la
##els
line
##ular
mad
beautiful
##aster
##otion
attention
thr
clot
##orn
wra
deal
pushed
##pl
##apped
youre
##ces
damn
chance
longer
##aces
ten
yell
trust
beside
hung
baby
##ze
appro
##chen
saying
speak
##ches
tonight
consid
cir
##read
shoulders
interest
##ract
month
bag
control
heav
din
grand
town
##its
eng
today
lear
stru
##iff
tem
squ
stom
sky
safe
##ject
##haps
apart
pap
sweet
living
moving
pri
case
perhaps
money
sing
proble
ir
slight
##gan
##aged
given
##cess
##de
sens
##ina
pie
change
fast
shad
dev
smell
sort
av
tears
##ines
circ
known
road
pal
##isted
kitchen
thats
##jo
parent
son
wasnt
rose
add
live
dropped
mil
leaving
couple
loved
tu
reco
##antly
bene
hon
office
eff
above
truth
##bed
decided
jump
sister
green
form
rock
nat
women
##sel
gri
##ror
ign
business
tor
pet
##ones
protect
esc
cre
city
##son
street
doub
mir
alex
filled
##ility
##ots
da
##arr
ris
##imes
##iew
creat
##ime
obv
##ashed
anyway
##ief
##ident
##iny
##cent
spoke
working
passed
direct
##ply
stomach
completely
##body
lifted
##oun
##unch
shar
drink
parents
##arth
silence
mut
bright
gas
raised
dan
arri
worry
seeing
twenty
pay
forg
coun
corner
secret
trou
ner
begin
pict
late
ce
rather
frown
staring
walking
sar
empt
guys
pos
book
hund
expression
supposed
##rupt
hundred
##lly
killed
exper
##medi
makes
food
edge
##aining
sque
shift
happen
##ley
immedi
##ging
##acing
##nding
mist
within
##light
abs
hang
sou
##ann
gar
die
shout
coff
knowing
conn
crow
##la
picked
##ony
##ster
du
##ushing
teeth
ext
norm
building
nearly
jul
wide
yourself
sighed
pleas
gro
week
mark
##ude
grow
##raid
sear
##aled
cam
##ience
girls
tong
##ilt
joh
thanks
story
box
draw
stuff
upon
afraid
eat
convers
clean
thoughts
cla
towards
##ator
cant
giving
couldnt
danger
gold
##cial
##hel
##yed
easy
turning
clothes
noticed
possible
expect
##let
enjo
adv
seem
dep
##ards
returned
##itch
jer
##any
waited
stud
susp
sight
thick
loud
except
kissed
import
##unk
##ists
drive
gray
##ute
luck
occ
opp
##zz
grou
worked
rolled
minute
##ler
sal
sad
beneath
dest
pressed
trans
pointed
##ments
become
stro
##more
##erg
##ili
john
shrugged
spot
telling
##umber
##tem
barely
##iddle
class
bir
clim
strange
##ains
##lic
##ien
hey
leg
sometimes
christ
##bs
concer
ann
##pid
mer
desk
children
wife
tongue
sett
wondered
empty
remind
pick
order
figure
surprised
answered
cheek
##olog
##rief
##ign
##ient
immediately
pock
ball
slid
coffee
problem
smo
##use
knows
comfort
led
##sed
##ities
##umbled
##uff
spr
during
middle
##ha
bill
##icking
##amed
covered
ord
earth
heavy
##ories
changed
disappear
appeared
terri
##tern
stupid
stri
##though
##selves
crowd
##sing
stone
##aded
##ices
doubt
sol
sir
bath
although
fu
pack
##ls
lady
nose
##orrow
pan
months
wearing
er
conversation
died
aff
##ances
calm
pulling
inform
however
art
fle
##ene
anymore
main
vict
simply
##how
liked
hers
##od
steps
number
gener
loc
fair
med
eight
lim
round
tall
throw
finished
check
ring
sounded
##du
law
slightly
hed
knees
wish
cell
##mb
became
##my
##spe
##aughter
ble
##cially
alive
none
paper
attack
lit
rele
headed
##bered
##iting
tast
cool
softly
fift
lord
##vin
group
force
important
space
sand
ur
musc
cop
direction
spent
desp
bedroom
##ask
##cing
##ision
##yl
sounds
fly
##ively
##ital
hus
##ctor
added
##itted
##ship
ahead
##iling
##bbing
den
tomorrow
brown
dinner
##ought
beat
surprise
sold
##iled
somehow
weeks
forget
mount
wants
reach
prof
nick
##ork
boo
recogn
crazy
worse
tiny
touched
cast
quietly
rid
trouble
somewhere
drew
threat
ones
accept
lie
espe
hesit
police
jen
broken
follow
tone
single
pen
gently
deser
##ez
swall
##tering
summ
glad
##ney
broke
especially
##band
seconds
earl
hun
wrapped
wild
##ails
kids
darkness
state
##vous
rich
worried
bey
remembered
stairs
command
demand
sick
##oring
heat
area
##oof
##me
doors
##itely
weap
beyond
##aching
van
silent
mill
prep
pract
weak
tow
managed
mel
view
questions
fav
paused
threw
mrs
situ
anger
means
placed
spl
##ested
sigh
walls
ive
ash
huge
##ara
trees
batt
offic
information
magic
daughter
scr
seems
cab
stret
##ior
cas
stare
##gging
lip
sugg
val
expected
game
##ages
##ey
distance
mention
comes
angry
gotten
##reed
shaking
##ising
wound
##sy
##osp
serious
meeting
brief
##ael
##ibly
tree
news
##ns
lying
ge
catch
sharp
##ining
##ues
##tempt
spread
##cious
piece
listen
pocket
self
##ination
##oss
wed
event
##aint
ry
early
party
##vent
bull
priv
position
carry
##ipp
jaw
##sand
path
##gr
matt
dav
ship
smiling
dar
##fer
gather
##igg
wet
arg
slam
waist
chuck
##ale
##orted
react
tired
gent
forced
##aped
##aling
promise
enc
hide
##esh
bottom
defin
drag
serv
##ics
rain
##ica
murm
eyeb
respond
fuck
clearly
luc
thousand
blank
agreed
surround
tot
cond
strugg
toss
bal
relax
desper
##erm
nervous
husband
anim
save
ell
##ats
##ky
const
snapped
often
kno
fut
##iliar
pun
chin
grace
bother
keeping
below
##nded
mis
##vered
hate
choice
##ection
surv
further
##oming
##ana
suit
whether
bell
star
lock
max
thin
ant
takes
worth
boys
playing
##riend
##old
truck
##ipping
mass
pleasure
vi
silver
earlier
using
odd
streng
partic
attempt
pu
incl
amaz
##ena
bathroom
slipped
grinned
obviously
locked
sword
normal
pound
demon
##imed
lights
evening
repe
send
team
ears
letting
dry
situation
requ
crossed
ver
##idence
honest
##aked
shall
arrived
asking
##eng
lived
emb
##oint
ice
bod
eyebrow
jumped
apparent
bow
dog
eth
handed
apartment
coo
dressed
wolf
invol
frowned
camp
explain
angel
mid
wip
fold
dim
carefully
center
hoping
muttered
lap
cheeks
rad
##tended
##ancing
##ishing
assum
contact
showed
realize
##set
spir
##ote
hoped
music
james
shed
breathing
certainly
und
##orth
band
flat
##ety
laughing
jake
glance
##cho
gentle
lose
##fied
themselves
weight
track
agree
strength
imagine
picture
soul
##usted
##using
##ager
grew
cup
##ative
whisper
##ault
##cted
##ding
##inc
brain
super
jon
favor
pair
##oc
notice
ol
wore
fix
lives
##era
nor
despite
##aned
queen
snow
##yle
cass
doctor
##owers
clou
scared
shoot
definitely
##kes
captain
fail
hosp
offered
tun
visit
ah
field
usually
##reen
familiar
beginning
talked
color
charl
energ
future
cand
mich
##ja
besides
age
handle
firm
##aul
avo
lower
##ping
##elle
base
river
##orge
disc
disco
motion
easily
special
wid
wel
forehead
battle
entered
shouted
aware
helped
appre
##zen
jud
memory
thirty
level
key
fighting
knife
gest
allowed
forever
stayed
##idden
remained
mal
metal
don
##go
##ural
pot
pop
suff
itself
pill
test
counter
crack
relation
wouldnt
tar
ethan
simple
tru
fresh
neither
jam
dangerous
##rian
moon
needs
among
shock
scar
##asing
phot
##ific
##iel
afterno
hen
focus
horse
vampires
david
rac
cried
ow
##right
push
scent
missed
pub
equ
surf
##inked
lad
aside
phys
effort
reve
##ird
gets
company
pin
flesh
##ises
##ressed
fro
squeez
diffic
hospital
pale
note
bat
destro
stick
willing
##come
##inct
gh
falling
shadow
##rig
proper
sweat
energy
court
older
adam
##ges
##izing
une
drop
afternoon
##ayed
jeans
personal
present
blond
##usion
burst
seven
park
married
emotion
desire
explained
##ries
asks
##lin
master
following
frey
##idge
kat
gon
fa
port
hated
wanting
##ession
hat
mike
##ope
##rit
moments
treat
pour
fit
gab
store
learned
putting
couch
##pper
spo
##acy
apparently
##ration
##oned
fil
lab
dom
imm
##olute
shower
##urity
##vern
relief
particular
discus
speed
wondering
drove
nar
shake
goes
inde
opening
turns
##stairs
mot
settled
dear
hol
heal
thigh
noise
stuck
likely
hanging
##ashing
busy
third
cu
prov
##ives
understood
hunt
books
grim
##ston
##ug
screen
escape
carried
##ived
starting
windows
calling
jason
ride
hill
date
pant
screamed
##amb
rh
bent
fool
hips
disappeared
ta
maj
viol
##cher
##iers
bottle
figured
michael
theres
poor
##cl
ended
determ
powerful
tele
shifted
rob
##ulous
ari
hunter
##astic
mary
study
grip
##nds
obs
unless
imposs
hea
fort
##ils
missing
mirror
##asm
##ert
absolute
##line
wear
happening
##ob
wake
bodies
rece
dust
murmured
echo
careful
lets
jos
##onse
hallway
hy
summer
speaking
learn
security
pants
offer
eventually
taste
belong
pink
comput
zane
##val
peace
hist
dance
##ution
guards
truly
flash
forest
rachel
bast
clen
##ett
freyja
difficult
country
twisted
dru
##ading
harder
##itten
##men
share
##oved
humans
sea
club
est
sleeping
entr
thumb
##aff
pul
##ses
##stem
relationship
mort
yours
weird
tens
peter
##ians
iv
storm
shiver
jess
horri
prop
yelled
dig
smoke
gift
uncle
satis
nod
lucky
##bert
jes
##inting
blind
doesnt
leather
pushing
response
unf
interrupt
laid
system
card
swallowed
aunt
##leep
grab
ly
usual
palm
growing
station
ways
##ring
admit
spend
sav
compl
message
asleep
places
##attered
enem
##miss
##atic
shes
enter
##par
##like
considered
doll
##rent
purp
reading
trip
smooth
beth
##illed
##umped
sof
##unity
##athan
##otten
finding
hadnt
##ords
effect
##ledge
##anda
rough
mov
wine
##ball
seriously
rom
funny
thom
burning
lang
blinked
leaning
waved
post
miles
confused
obvious
##acher
##arm
craw
frank
burned
hole
hotel
feelings
##res
amer
distract
##rid
bas
island
presence
##ified
birth
leng
vill
sarah
soph
##ius
wit
anywhere
drift
private
final
##arrass
north
##bby
##ron
embarrass
ut
reminded
##cri
appreci
consider
emp
victor
cause
defe
##iot
emma
lunch
shop
refle
forth
enjoy
murder
shadows
hidden
listening
corre
bear
piss
var
paul
impossible
rub
##omb
##iam
suppose
vision
##icious
rap
##rated
elect
cabin
block
mart
uh
faint
frust
directly
aid
prison
fallen
song
##roud
believed
whats
pier
feels
##cks
##cil
##ency
mach
bite
shoes
mere
arr
allow
includ
necess
shoved
gard
##urch
narrow
##ander
surface
##ounced
ju
##lyn
colle
doorway
seth
text
##inal
oppos
disg
west
##port
mic
jacket
demanded
evil
succ
conv
aut
trick
wont
##ury
male
entrance
grass
sides
length
report
vol
experience
respect
##ole
##ormed
extra
repeated
climbed
aud
spell
por
rubbed
##itive
finish
faces
##gar
capt
warri
circle
elb
numb
crying
wave
fought
memories
##yer
loose
approached
join
played
wished
amazing
driving
##aur
mac
faster
##oose
##lessly
breathe
ghost
totally
cole
nobody
clut
##ners
ment
wheel
reaching
buck
coat
##inging
jim
##ades
slammed
warning
##riage
nic
lowered
roof
invest
laught
feed
ian
##asion
board
pit
##ai
involved
tossed
hearing
hardly
trail
stiff
muscles
##omfort
laughter
brand
beer
clock
fist
computer
##bing
inno
ceiling
apolog
##fast
chang
lung
naked
##cul
thrust
unable
cleared
tech
##ids
sne
##hood
iss
perfectly
##het
##mer
chase
flick
south
size
wrist
cru
heads
possibly
tip
checked
##uct
church
##issa
rush
mostly
bound
interested
nur
continue
##yal
##udd
smart
process
tremb
yellow
killing
exist
##teen
exha
rul
image
lat
bitch
buy
ordered
rev
gasped
accom
subject
hiding
general
kicked
support
##eless
weapon
twice
dir
##board
respons
foc
brothers
born
nine
heading
decision
spark
forgotten
##ald
opt
gate
instantly
cock
blow
fully
hi
incred
army
beast
pretend
##izz
henry
##wise
iron
narr
swung
gigg
purpose
button
tab
attract
eric
regret
panic
##rage
##ibility
squeezed
brushed
feat
focused
gras
risk
promised
##well
logan
anno
driver
gut
comfortable
blo
terrible
##anted
div
mood
breakfast
ignored
##den
##nel
##male
simon
thomas
amb
soldiers
stream
paid
female
##ented
##essed
public
fright
fat
claire
proud
history
flew
luci
joe
##ium
##eke
##lish
suggest
concerned
flying
jour
luke
neigh
blade
##inn
##aming
struck
welcome
upset
##roll
scene
non
rising
##wh
lines
##ague
hello
univer
fault
pool
gods
blur
surely
neighb
til
rushed
beach
excited
worst
daniel
pieces
produ
absolutely
inj
woods
separ
##iday
bloody
##ern
stretched
boat
wedding
comb
scra
parking
current
tightly
honey
grey
disappoint
opposite
boots
wooden
cost
plate
##rest
##bers
jerked
built
excuse
search
quar
kick
pad
##anna
rum
elev
leaves
claw
breaking
breast
indeed
##omed
instinct
##ral
saf
##eps
screaming
joined
##inted
steady
eyed
type
dreams
harm
eating
joy
train
psy
kissing
rang
lake
mas
##otions
magn
backward
##annah
##hen
plans
dut
huh
descri
##alk
tick
sha
##uit
##ama
ya
swear
##sion
ident
movement
curled
kate
fucking
##work
faced
concent
interesting
deliver
spirit
studied
bones
touching
##agged
##ilar
golden
unb
broad
scan
dirt
hungry
emotions
##ground
##house
engine
knock
happens
yester
##illy
brow
slept
##ov
exam
creature
easier
##une
yesterday
greet
regard
ken
tent
fren
##allen
prepared
reaction
released
accident
##rodu
ban
rand
shape
knowledge
##ias
losing
decl
flight
##isto
caused
oper
narrowed
shudd
##ensive
guest
whose
flashed
deeper
mistake
godd
concern
listened
##ism
##ancy
hig
##aret
growled
anx
sour
trave
josh
##ective
mix
##00
sink
##col
isnt
prince
screw
square
decide
auth
knee
##aly
jamie
bree
prefer
travel
##iley
ryan
##unately
thinks
staying
arch
shield
butt
##ceed
fifteen
opport
stun
dying
kell
thor
fer
hesitated
woke
favorite
searching
steel
##under
object
clenched
smiles
pray
animal
shel
govern
boss
tightened
##uing
wings
##ume
crew
shocked
weapons
dirty
inch
tan
landed
vir
scrat
occasion
##icle
removed
spun
college
eyebrows
william
double
eliz
entirely
refused
uncomfort
hurry
tea
cy
chuckled
wonderful
carrying
##velop
hug
avoid
grown
##mas
bastard
nearby
drunk
##friend
awk
planned
showing
awkward
##itude
##umbling
hors
obser
bringing
recognized
##arily
instant
knocked
orig
everywhere
breathed
reply
uns
shared
solid
san
suggested
admitted
dun
indic
##ially
saved
row
charlie
gives
desperate
theyre
##imp
##nday
julian
gathered
mountain
##gie
cook
dare
warmth
smir
##igned
yan
cow
major
belly
closing
comment
##asy
answers
##antic
otherwise
bought
##por
mc
anci
sending
19
pregn
sucked
##ously
convin
depart
stories
bridge
giant
sexy
deeply
boyfriend
hurried
restaur
claim
record
buried
heaven
calls
staff
groaned
libr
pure
emily
techn
liz
instru
cars
stage
pleased
##key
um
tear
rare
silently
meaning
beauty
pictures
tour
rolling
##ique
unfort
helping
awake
investig
jeff
dragged
stab
stir
##eled
glow
##ese
marry
challen
dragon
belt
author
reality
bru
##rel
##ura
cust
sac
##reme
exch
common
success
fifty
prin
deck
adj
surrounded
faded
spin
drawn
letter
stat
eld
host
fal
##agg
names
deb
insp
##str
necessary
eager
noah
##eping
imagined
relie
holl
training
gle
tur
works
intense
jac
pulls
##ogra
##case
ling
##itor
amount
##ded
##ational
action
prec
lily
local
pause
##ican
##ument
service
remain
##ences
folded
##nes
rage
leading
langu
determined
##nie
charge
cig
lack
glasses
bank
displ
wiped
excite
mate
youve
##ios
##rick
grate
##dom
sus
ren
nature
ancient
introdu
drawing
gabri
drinking
horses
leap
##bit
officer
tort
sliding
pointing
##ashes
occur
##uss
stars
movie
gall
cale
expecting
mentioned
richard
considering
passing
##asons
chat
betr
younger
natural
discovered
chick
waves
mod
slip
voices
plenty
opportunity
rise
##uc
aband
curious
witch
##thy
##lled
streets
rooms
heels
##wood
glared
dozen
recall
fab
excitement
details
hom
horror
crap
domin
jared
physical
##itary
rout
intim
garden
bul
problems
oliv
assist
cave
lightly
blame
dart
jew
wand
ray
pressure
written
##mp
clo
##iment
##aches
loss
throwing
badly
resist
members
lif
relaxed
enemy
##the
##ham
##gu
##ooked
##iculous
seb
bry
keys
##agger
hous
grunt
incre
kyl
safety
experien
ignore
christmas
##ette
setting
stronger
york
match
glo
blast
spar
prev
##gress
ank
tied
cassie
dawn
correct
holy
##alous
tail
account
orders
##arsh
fol
blanket
##end
interrupted
kisses
rested
fac
target
lucas
weeke
veh
##ilities
##tle
pissed
##ye
witness
##ille
twel
ability
tv
inh
##oted
wis
##ker
christian
##lfriend
features
guilt
jan
thighs
girlfriend
temper
##ts
greg
sebast
failed
psych
swept
confir
obl
elevator
corrid
pred
anna
becoming
kylie
council
olivia
##ella
jesus
honor
edd
unlike
terror
##itched
plane
##abeth
nowhere
##can
skill
commun
pressing
tucked
fish
english
hint
intern
george
slee
million
##erial
bitter
organ
named
skirt
flames
sell
evidence
forty
manage
doc
##father
silk
release
##iant
firmly
poured
mission
smelled
sebastian
porch
abrupt
overw
scow
youll
cha
##ante
sed
bon
sen
##acks
including
##ev
twist
restaurant
irrit
bigger
prove
chill
unw
responded
tang
reb
east
##isters
##uries
fant
##icate
cash
fart
result
##ires
##eling
starts
##aging
flowers
nate
pace
compan
##very
##olves
blake
cared
##min
higher
struggled
planning
##neath
winter
village
massive
##rog
cous
##action
##mother
twelve
phil
##oe
project
upstairs
backed
spoken
ivy
isab
log
exh
##hew
lovely
similar
facing
disp
vib
french
##uses
grad
difference
robert
gripped
jane
widened
page
##lla
tony
ripped
marriage
buzz
fed
planet
##nn
cream
material
whenever
rick
extreme
##rop
papers
parked
bay
passion
##ider
uncomfortable
##mit
##icip
whom
carp
jealous
kar
demons
castle
flood
nightm
oce
##ature
##sey
swim
snar
ridiculous
liam
machine
##iction
##aine
purse
powers
reasons
briefly
elizabeth
weather
vac
underneath
tension
insisted
pil
##amber
liqu
enjoyed
choose
slide
practically
relieved
race
monster
plain
survive
nights
startled
gorge
cel
##inary
satisf
##con
heavily
plastic
lex
princess
##ization
parts
trent
handsome
sniff
knight
confusion
stopping
dancing
##ival
chris
cryst
library
anticip
##icing
fang
urge
profess
ted
##isa
fier
blew
eve
emer
cart
warned
camera
pip
##lies
jace
stair
write
innocent
tit
##zed
tunnel
hamm
guns
##ctions
wow
conscious
##iving
sts
##pes
nightmare
attend
ate
merely
##vering
rules
##dding
connection
##iest
ger
neg
grave
radio
beck
leader
brush
cloud
picking
faith
forgot
ms
inches
bleed
upper
##oll
accord
emplo
ven
rear
agent
sank
swir
connor
##iber
##antage
##eter
clay
camer
##iently
embr
sean
victim
idiot
julia
##idding
teen
split
ber
horrible
ward
tells
pounding
##ality
##top
honestly
tatt
rif
rust
froze
creatures
normally
brad
assumed
##ira
teacher
thrown
reass
intell
frame
ron
address
writing
ug
yard
##istic
glancing
created
weekend
stumbled
tess
develop
reluct
##ify
##yn
nods
farm
overwhel
##ca
military
##view
dread
swift
rail
lots
flipped
##af
unfortunately
##umps
##ndon
fash
orange
access
understanding
unif
suck
resting
closet
ease
nathan
lungs
tempt
animals
hood
appreciate
fixed
fists
grateful
destroy
convinced
freed
utter
##hol
spring
spine
stands
pregnant
soot
grabbing
##gram
awful
cheer
cigaret
##laimed
tender
damp
sin
somebody
##ki
ni
##acle
resc
fan
ting
##now
hugged
fury
glare
ram
loudly
beating
pile
##gest
furn
carol
eddie
refer
##time
distant
jay
events
torn
strang
trembling
##aper
map
##aunt
thunder
##ppy
rever
dropping
daddy
jose
worn
bone
damned
grandmother
meal
custom
surprising
##book
##itions
sco
ocean
##enger
resear
fierce
bird
##for
cele
activ
taught
delight
fired
meat
nik
wer
##ddy
temple
recognize
tattoo
rapid
painting
##vision
##ential
fate
height
fashion
##istan
tilted
##iance
american
clouds
##ech
##ita
practice
killer
wes
accepted
crim
##lor
guil
curtain
ack
acting
language
gorgeous
dere
hip
distur
riley
clothing
cro
buildings
damage
cott
abby
elbow
warrior
harsh
wash
chain
##ront
##ora
dug
rubbing
##erson
frozen
celebr
tugged
##vis
due
##ka
shakes
rocks
##aks
marsh
crou
chew
##asure
whir
cad
corridor
stranger
cracked
skull
##mo
spotted
##form
joke
priest
brick
explod
plus
depe
breeze
sensation
ignoring
government
##ris
tie
ali
chose
flut
polit
grandfather
chairs
myst
explos
forgive
assured
chlo
##ivid
##inated
frustration
gw
towel
suspected
pillow
searched
duty
waste
downstairs
protest
##ograph
cred
intended
unlo
gy
peered
gal
dick
##mon
scott
escaped
mia
judge
birthday
causing
smaller
andrew
vers
guilty
whoever
puzz
shell
various
received
suspic
stunned
gabriel
##illing
plat
regular
##ec
tore
conc
desperately
climb
ja
settle
charac
derek
secrets
##osen
mail
balance
groan
##ino
##asha
##otic
##gy
chief
hissed
popped
egg
enjoying
brows
farther
civ
brian
lifting
nav
kim
soldier
##phone
begun
attacked
chamber
vel
et
pride
palms
chosen
hero
loving
professor
partner
sisters
pulse
ens
bags
amy
stepping
suspect
trapped
nin
##ram
alright
london
##cture
abruptly
aim
footst
disgust
returning
nurse
kend
collaps
kal
wil
alarm
desce
gesture
##amped
notes
surre
walks
bunch
students
bri
mum
terrified
explan
hal
##rate
capable
virg
##umed
drifted
dor
snat
formed
yanked
##ators
##cif
sip
caress
ladies
brill
cher
cute
##ases
landing
chloe
exhausted
sara
painful
muscle
won
display
rib
program
les
sensed
curse
sake
##kin
particularly
unex
intent
covering
perform
rode
##athy
mountains
lined
rule
rot
werew
##heart
circum
##itation
##fit
##bel
houses
ros
changing
bran
condition
liter
##do
shame
discuss
moan
##ushes
bond
rhy
acknow
marcus
##ology
larger
term
##what
##ffic
purple
glowing
underw
gazed
signs
concl
impat
##ites
prim
detail
shr
checking
echoed
shooting
blonde
uniform
grant
gage
vio
snorted
blaz
arrow
washed
licked
bullet
rip
##hip
##ulf
dogs
points
lied
garage
arched
gear
advantage
announced
straightened
footsteps
init
chocol
hast
ai
embarrassed
##ales
approach
##apping
cutting
##ption
fingert
vanished
encou
mental
total
ugly
collar
mask
sooner
confident
20
raced
tower
vin
##ache
raw
deserve
raise
##ule
##ception
halfway
gav
sofa
##asc
retreat
butter
according
##ught
##ishment
##walk
tables
bowl
contract
holds
devil
numbers
violet
sheet
##umping
##aker
neighbor
##vor
##zing
occup
##rif
filling
frag
matters
steve
victoria
der
morgan
tense
lies
mumbled
satur
task
caleb
catching
moves
convince
electric
exit
##wards
throughout
wink
clearing
alley
intellig
connected
likes
carl
everybody
price
journey
inner
riding
lauren
lucy
stal
alco
destroyed
insane
##ico
##iety
##uts
##place
bench
whispers
steal
remaining
jax
silly
opin
maggie
fel
##otte
org
##mission
drown
sway
nap
appearance
paying
jere
deg
havent
vide
bob
rope
poison
tapped
soci
tex
ratt
gestured
##ago
dumb
detective
perio
haw
grinning
protection
billy
served
slapped
forcing
trace
file
item
profession
##vet
frightened
games
clar
social
harry
surrounding
lust
keeps
##elled
ep
##hern
##eg
tray
bang
balls
cousin
speech
##erie
##met
##aky
specif
images
challenge
fabric
##lu
tough
wrote
##han
shade
##bbled
sunlight
manner
decor
etern
pattern
guessed
president
hunting
##raw
##inger
##ona
recently
argue
##awk
enorm
senses
punch
seeming
strike
lur
style
painted
urg
##hetic
eased
cooper
##ints
dang
unexp
smith
loves
hitting
##bble
pee
##iring
tristan
symp
trained
struggling
sounding
charles
vul
vehicle
satisfied
drank
holly
traffic
packed
neat
##oop
exclaimed
afford
sharply
tam
lone
ourselves
unexpected
##pher
source
experienced
hay
dining
request
##ads
net
haul
##eze
dean
dismiss
##onscious
##kn
crystal
sched
member
autom
drug
chocolate
circumst
stroked
copy
##ran
liquid
driveway
friendly
colored
caut
##atically
flin
occurred
vague
cops
##asket
closely
##ordan
fellow
haunt
##agon
gasp
##unched
mult
##urs
sid
jonathan
impress
letters
arrange
##oy
weve
inqu
wrap
louder
gran
remembering
##cell
cliff
cursed
explanation
encoun
patted
washing
somewhat
scramb
##ait
hmm
unh
alec
replaced
conce
##emon
palace
blink
bothered
##imm
toes
theyd
##don
statement
ske
purs
snap
##ounce
lightning
##ylan
acqu
research
invis
tap
##stand
wren
connect
assume
slowed
royal
location
possess
dull
cloth
dollars
shore
bread
##rous
##rib
flu
casual
##atherine
design
section
possibility
ere
crime
series
##ruction
##ients
behav
existence
##cies
fasc
##riff
raven
danny
garion
whist
charlotte
reser
nodding
intens
responsible
collect
hundreds
former
moaned
racing
paint
pleasant
##rier
enth
evan
link
##aves
clue
constant
contr
teach
avail
disbel
werent
plant
unus
bored
pisto
fangs
falls
##eral
bord
ess
distracted
previous
genu
##inkled
drum
eyel
##lan
sacrif
kidding
##certain
noted
issue
trusted
emerg
squeeze
##amps
grasp
nails
abandoned
##lle
drinks
confidence
stall
teasing
lee
ax
attached
bleeding
##otted
##ado
curios
ast
fence
goddam
cigarette
saturday
agreement
##gger
studying
laughs
stops
sexual
colon
rig
sport
humor
television
fake
##ended
complic
veins
trailed
pockets
clas
cere
threatened
alice
ellie
holiday
goodby
code
amused
extremely
10
##rating
property
##arest
wing
cage
arrest
##bled
runs
yards
colin
sophie
tank
carpet
##eline
amanda
mall
strode
panties
prevent
drake
##olf
##jected
genuine
serge
##rey
zomb
restr
disappointed
##asty
sunday
sheets
env
##ata
shrug
wicked
haired
fred
lace
extended
##ulation
jacob
martin
univers
dw
mans
offering
diss
murd
##coming
ri
seated
zach
amber
sarc
slipping
kay
sees
dylan
compet
claws
exposed
kevin
hannah
todd
deserved
raising
contain
barn
core
medic
covers
original
bowed
maintain
gown
finn
susan
diam
flame
medical
rifle
sevent
vall
withd
amuse
##rete
grief
ships
gavin
period
sheriff
fingertips
enormous
universe
##isy
tub
parted
##andra
centuries
wise
justin
wan
eli
##we
immort
curiosity
exec
freedom
##ato
hook
sole
surve
thousands
##lock
##ero
feared
##atively
anybody
nerves
##ugg
vulner
happiness
##aren
##ta
background
belonged
hopefully
##aping
swallow
##field
shy
swing
mile
tend
##vation
midnight
##olas
adult
tax
birds
beard
ends
wolves
scru
##und
jordan
squir
invisible
##atory
##pack
shuddered
brilliant
nipp
##org
visible
purch
##umble
##uted
loyal
spending
monst
shuff
##cle
shorts
robe
friday
realizing
##bl
##ples
shining
paris
##hawk
allowing
express
kyle
interview
##aud
bud
##back
civil
answering
rab
stated
russ
delicate
##inda
nervously
##beat
passenger
span
market
jerk
deliber
kelly
daemon
collapsed
warriors
nud
claimed
##uce
shivered
ais
spinning
retrie
thread
approaching
remark
gwen
arent
##iter
dating
accent
##nat
advice
shown
desert
assass
hurting
invited
rhyth
bolt
horiz
emerged
serve
##iven
guests
stones
stubb
actions
lev
choked
bart
required
##bly
rushing
darling
quit
cris
video
pow
wrists
expensive
overhead
##dle
##rett
screams
defense
chann
entertain
crawled
champ
photo
complex
trap
muff
##rant
##uel
proceed
ache
exploded
##fl
##anches
flicked
tracks
##mi
precious
jenny
vent
##vert
alcohol
eleven
intention
ult
creep
marks
uncertain
digging
opinion
states
tuck
freak
mortal
scanned
actual
ras
shif
commander
courage
spare
##ode
jun
##sequ
roland
drugs
myster
hunger
shopping
revealed
##chan
society
spect
circumstances
lately
coast
spear
bars
bomb
jet
knelt
knuck
##orter
depth
eaten
laz
progress
passage
bye
concrete
daz
matthew
lan
dante
johnny
jol
##eness
##icles
##chie
##nal
jackson
gathering
wounds
official
lover
##ooped
department
mud
mixed
sandw
beam
brave
bubb
drops
##hh
ham
##pan
flushed
communic
stern
betray
virgin
rhythm
colt
sits
jeremy
breaths
jenn
scare
cord
saving
fairly
motioned
scient
cards
shouting
crash
tasted
character
excell
dagger
symb
elder
deny
delicious
dragging
rat
informed
annoyed
trunk
feather
##zzy
fog
knocking
ava
dude
embrace
helen
boot
amusement
moder
magaz
motor
punched
anton
unkn
patient
##iture
ripp
az
tyler
devon
stubborn
teased
waving
secure
dave
puff
cit
scen
brushing
##eds
trad
remains
gul
pra
bike
glances
option
##ample
whit
credit
create
corners
branches
clary
##illa
nest
aye
terms
##ores
singing
glit
famil
airport
diamond
##ige
##uous
leans
disbelief
colors
yep
foolish
dal
ruth
flow
goodbye
revealing
ribs
dee
reaches
shattered
ideas
##oms
addition
lor
mack
##esome
prompt
sparhawk
##bur
reveal
kane
basket
marked
random
pages
available
behavior
rapidly
##imate
grandp
lux
vic
shaped
boxes
##reek
winked
##usi
hid
till
tighter
roar
stead
chicken
switch
furniture
symbol
accompl
ps
que
melissa
vast
bust
wishing
impro
amel
click
trevor
##olen
confront
seats
pistol
julie
wrapping
precise
incredible
pity
content
survived
dealing
biggest
##ex
begins
unconscious
##py
##asper
whipped
milk
lin
opens
remote
##ability
circles
armed
edges
shane
scattered
jean
furious
##ament
crept
##ooks
shifting
changes
march
skills
##urally
trade
dod
clutched
handful
trem
stock
quinn
cocked
quarter
appl
sleeve
photograph
remove
newsp
proof
anxious
##die
calmly
argument
growl
jail
wre
impressed
kicking
tipped
##oud
mason
placing
appoint
provided
##itar
sentence
miser
rent
appe
insist
##gen
career
##iger
minds
alert
satisfaction
spat
equip
sidewalk
youd
grunted
##oph
treated
student
literally
##aph
version
football
apologize
range
impression
stretch
makeup
roger
nope
jill
##lights
valley
winced
joseph
adjust
habit
threatening
##oon
emergency
##nda
##lling
exchange
ny
##ila
barb
driven
nasty
emotional
##gue
gang
learning
unusual
eighteen
puts
fourth
sweetheart
arrive
wy
families
weal
miranda
goddess
danced
##uments
marie
pear
enthusi
fi
climbing
freaking
enemies
repres
##tery
##shit
##lass
individ
roared
sneak
coach
resol
patrick
throne
upward
equipment
rescue
##fall
oil
duncan
asp
sire
lawyer
##urance
##encer
wiz
crown
role
cupped
lun
jessica
defend
cough
stolen
cult
##ano
based
##tt
struggle
advent
floating
crossing
hollow
greeted
intend
##ops
ducked
sugar
closest
##ford
helpless
mothers
stagg
ky
rome
illum
kin
fet
directions
inn
edward
officers
##com
wounded
katie
hank
mont
##hens
ruin
upright
shortly
mattress
anticipation
separate
heather
lobby
owner
dried
##impse
glimpse
contem
crad
relig
##mate
cloak
cheese
jumping
brut
anne
movements
frost
drawer
giggled
gym
heartbeat
##ville
unknown
sab
lucien
shots
excellent
alexander
nearest
charged
crashed
frustrated
realm
shove
biting
ox
halt
aston
##oul
strip
brit
rod
prick
##umn
isa
darted
alien
adrian
backpack
fruit
snake
sadness
perman
century
##gun
awesome
quiver
jesse
##ffed
twin
##wor
sixteen
begged
curve
##rowed
obe
duke
oak
cruel
discover
stuffed
##tail
ruined
sail
percent
deadly
jewel
rarely
casually
scout
gem
swore
chic
sele
bac
disappointment
gradu
##xed
ze
yelling
professional
impact
##mar
shows
torture
ending
snarled
mama
happily
territ
##ctors
erupt
mattered
##fire
##li
garrett
##oning
ought
suspicious
##ifer
mi
elena
alt
wandered
twisting
clicked
owe
eur
##ika
##erence
glor
fathers
crowded
limbs
##hem
##inating
radi
mild
owned
scri
agony
##isions
trash
stef
booth
pretending
permission
##ulated
##oci
injured
mechan
tempor
potential
aching
##venge
armor
##ulate
gain
pizz
boun
flashing
##ilet
absor
guide
pig
stress
molly
provide
vulnerable
swiftly
folks
site
university
aust
##aries
sergeant
##ingly
ez
cleaning
straw
aver
##avier
##gment
sophia
marg
kendra
moist
##stone
elbows
stares
##bi
recent
##reg
kingdom
patch
sharing
##itty
meg
sucking
leapt
aidan
dism
crouched
pounded
##iona
basement
mystery
blowing
stole
spencer
forces
##aron
sideways
existed
bullshit
sout
ashe
nu
imper
string
babe
stroke
gide
tay
individual
tessa
influ
gates
tape
##yard
orgasm
sensitive
affection
viv
audience
revol
thorough
##osing
marble
##rily
movies
##riate
##arse
owen
##ension
aria
lawn
scary
attempted
##ggy
mob
doubted
scrambled
swinging
##iana
violent
##lings
##aline
acted
shrie
##uded
arranged
healing
modern
stack
holden
possessed
surge
greater
monday
chances
associ
health
entry
tensed
lamp
##hand
reluctantly
reception
estab
##oops
frowning
bor
##da
hesitation
horizon
endless
positive
fancy
patience
alph
kinds
dece
salt
eleg
begging
rate
chaos
therefore
cake
flowing
##hole
confirmed
whispering
dow
gideon
volunt
unsure
suc
##etic
signal
mercy
maid
useless
candle
##va
sty
hunters
complicated
lonely
hills
sant
##aid
grandma
darkened
##uary
fled
clan
incredibly
clutching
craft
souls
sheer
frequ
lane
photos
youth
raz
##erald
rings
atl
##rom
mered
gabe
buddy
las
romantic
assistant
trembled
ned
melted
sore
##rin
flower
##esty
meredith
succeed
apr
contents
##alie
resem
slo
spilled
reflection
##armed
classes
supplies
##cra
community
laura
ragged
famous
mand
waking
rude
tara
traveled
consequ
incident
curved
lic
meth
seek
crit
##omp
appears
steam
##spect
constantly
carved
##raged
shiny
bol
envel
kh
route
neighborhood
smoot
tro
fairy
envelope
##bor
lod
##nis
sinc
backs
aloud
bald
useful
snatched
18
explosion
syd
##icy
stark
##ya
decent
attitude
angle
prepare
magical
spray
loaded
contempl
season
moonlight
expert
needing
bride
cleaned
dipped
knuckles
intensity
##isc
blocks
soaked
lisa
thus
captured
false
america
werewolf
weakness
breasts
ached
polite
protected
##itable
exhaust
ton
##mist
violence
highway
hired
mane
plung
pouring
pinned
physically
issues
typ
suffer
yawn
smirk
items
swell
imagination
neckl
##anor
loos
##immed
shimm
admir
##hold
attractive
wherever
ordinary
screwed
heated
hyp
charm
friendship
stiffened
central
curls
boring
bits
ped
dripping
vig
reck
slumped
swords
healthy
##vy
shaft
andre
prior
forb
scowled
py
doug
sons
##rison
innoc
spite
theory
flung
inse
jessie
##ollen
rag
##attering
wipe
grimaced
stirred
figures
stroking
declared
##ele
wire
zoe
contained
fond
##boy
eggs
laptop
pizza
swollen
hurts
stool
spit
tips
nipple
arrog
bun
twins
clung
jimmy
branch
suffering
stained
sticking
trigger
overl
proved
safely
lesson
warn
dram
earn
lil
##hest
scarlet
traveling
device
signific
properly
nich
mik
gripping
sheep
estate
ral
tries
od
fears
##ji
spreading
brandon
dish
compared
science
separated
lifet
responsibility
servants
murdered
##ada
waters
icy
rocked
isaac
scree
suite
highly
utterly
signed
chuckle
11
holes
delivered
sel
balc
dwar
12
shap
maria
sweater
pilot
jennifer
childhood
escort
occasionally
karen
##idy
drained
stefan
rav
troll
jar
brings
##ums
naturally
personally
pir
planted
annie
altern
rit
german
daisy
tearing
rounded
justice
waitress
arrival
crushed
clever
spirits
syl
##var
element
##rees
##inding
blocked
aaron
##mes
ringing
ryder
backwards
fields
ankle
kr
funeral
mug
preferred
courty
balcony
exchanged
##cast
foreign
crawl
lick
toe
##kins
refuse
lump
surprisingly
client
educ
##ua
jenks
gn
continues
bark
##erc
protecting
subst
corp
##umph
chicago
haz
sally
overwhelming
unp
novel
cries
smirked
bi
unit
oliver
mae
swip
adren
traced
wildly
##bbie
shone
nort
dall
slave
##hin
journal
apple
distinct
wiping
##antha
tat
##rik
dragons
della
eh
ree
cheap
ak
melo
rey
flag
sought
fork
repeat
pony
exhaled
carter
director
taylor
sets
quarters
inspect
kidna
pete
##ely
gloves
charming
strangely
assign
nerve
tate
introduced
##bal
kir
approp
discussion
rack
selfish
staircase
nan
shelter
revenge
stretching
panting
carriage
thirteen
kings
nail
divor
##omi
sang
sofia
platform
hanna
acknowled
##zie
corn
avoiding
companion
##iable
preparing
shouldnt
protective
##bre
magnus
##ddled
vincent
princ
tomm
gentleman
limp
leads
louis
transfer
angels
bend
cotton
citiz
ker
jude
surrender
ba
knot
aiden
tradition
anxiety
plu
manip
##iece
terrif
questioned
scars
mysterious
anth
pounds
##iqu
stan
slamming
entering
courtyard
concentrate
dorm
switched
taller
leon
damon
doctors
puzzled
andy
##natural
circled
flowed
dreamed
spider
tooth
strained
hooked
lege
spraw
gregor
mentally
observed
necklace
soothing
privacy
heel
##veled
bottles
brace
candy
##icop
function
crashing
velvet
calif
brid
grabs
laws
homes
##iar
##alled
nostr
suffered
stake
hopes
cooking
schedule
plates
bold
ador
shay
flickered
dise
##mn
bullets
dock
goss
coinc
fourteen
squeezing
miracle
ing
##idently
##off
located
routine
mistress
tale
bounced
chains
prey
messages
affect
babies
directed
slap
mex
goddamn
haven
hatred
californ
immediate
wigg
miserable
tossing
degree
interior
hearts
flip
tangled
slick
monsters
europe
latest
instructions
eternity
sadly
slim
aimed
muffled
nina
ked
helicop
ginger
accompan
micro
cautiously
buttons
##inged
included
trial
##ini
commanded
legal
##izes
finds
erin
valent
roman
smells
volunte
reput
terr
consciousness
los
melan
punishment
toast
damien
arc
##izzy
seeking
talent
15
equally
flashlight
ware
intelligence
duck
aug
##eday
dex
someday
##bow
flared
whim
floated
swimming
len
greatest
toilet
tack
structure
invitation
oblig
##inate
nad
visited
labor
##utton
grasped
daily
leo
##lers
shoving
bobby
scratched
obsc
cases
questioning
##win
currently
handing
calcul
squad
rolls
lore
defeat
blown
territory
cameron
unst
underground
crush
california
nak
##rol
lands
hits
##iple
dared
underwear
es
regardless
investigation
impressive
roy
gig
##osure
dallas
fleet
ralph
manager
corpor
thera
intently
descended
ladder
achie
controlled
##atter
strate
fever
bore
flee
##omes
##ros
##isk
muse
sized
intrig
ka
feeding
measure
##enses
assault
cain
lifetime
slender
jenna
remo
dip
worlds
southern
katherine
glaring
math
##cts
afterward
united
sinking
goal
meas
newspaper
england
sorts
pierce
bik
bless
lexi
glowed
##iveness
compound
require
sacrifice
pretended
##umpled
counted
unre
bron
intimate
sunsh
blinking
jones
dusty
##ission
decisions
caring
##ula
inev
ankles
amelia
exerc
emph
grav
helmet
options
thankfully
subtle
sixty
lid
franc
colour
obliv
scot
##ibilities
reflected
grumbled
prisoner
agents
designed
adrenaline
toby
scratch
transport
##bles
supply
barrel
nostrils
shaky
example
pitch
myth
results
darker
##inge
indicated
mayor
popular
atop
senior
##bell
grade
samantha
twitched
deliberately
impl
rafe
##mark
draped
joking
servant
abilities
##inder
successful
authority
sydney
bee
monica
##mony
##antically
##amm
persu
described
laying
sniffed
ponder
species
mitch
penet
specific
groups
betrayed
##uten
cameras
seventeen
neil
records
cuff
aisle
magazine
bearing
archer
barked
employ
efforts
ridge
##acles
cush
##enth
##berry
exception
##not
##over
wrinkled
worrying
hammer
sunshine
creating
##phy
related
tin
replace
matching
jung
jobs
##ench
##cel
griff
nicole
confirm
callum
curtains
squinted
shirts
roughly
conven
##mates
awa
chasing
protested
recalled
inhaled
engage
tiger
flooded
steep
##ological
bryn
30
settling
smoking
data
prayed
grounds
dammit
locker
shallow
##fo
oddly
occupied
adjusted
fen
lieuten
commit
shelf
##iles
ara
transl
describe
mini
kil
stephan
##craft
reported
unlocked
ink
outfit
rocky
reputation
activity
ceremony
dressing
kel
rebe
##cca
##resh
##abor
carm
brightly
guitar
humili
examined
fade
##icient
detect
load
veget
insult
##gas
hem
engaged
reports
landsc
stripped
curt
caroline
arth
adop
guar
##elie
oct
##ga
##uish
##unate
increasing
##itching
outer
floors
demanding
sandwich
adding
sib
lighting
memor
immortal
zero
suic
clasped
parties
sob
collection
outs
increased
##aze
tug
ath
blades
alongside
##ification
atm
formal
jonas
value
##tor
##uced
flush
##asant
smug
lut
choo
##agne
savannah
avoided
comforting
whirled
##ari
triumph
shouts
irritated
cara
continuing
asse
elise
nicholas
##cting
##ships
##outs
analy
doz
dishes
wagon
sorrow
vaguely
flor
origin
blush
victory
dreaming
ranch
seemingly
embarrassment
gritted
railing
stor
panicked
colonel
mck
compass
daylight
fading
hoarse
paw
forming
border
juice
conference
virt
cuts
tag
majesty
files
anch
langdon
model
player
##icted
annoying
dollar
victims
gasping
suspicion
gossip
tact
reward
web
##retched
syn
torment
lingering
cups
distr
tugging
hart
ves
##cr
operation
acade
ashamed
cavern
downt
judgment
pave
breed
intimid
basically
cub
propped
witches
annoy
determination
accur
national
jasm
cabinet
ours
realization
erection
jab
instinctively
hoo
horn
despair
steering
##lished
seam
amazed
haunted
gazing
butterf
##idents
needle
ko
leaders
nuts
##olded
dove
rein
grac
peering
suv
##itated
mim
exasper
rocking
plants
breathless
bew
soap
keen
sung
fireplace
##istered
quality
##uri
minor
campus
rene
combat
prayer
melt
spots
noticing
giggle
##lasses
snapping
matched
buying
##astically
##bone
indust
angrily
arguing
oo
suits
stif
caf
frantically
buff
fortune
fantasy
##osphere
staggered
poked
ded
alpha
toler
frantic
leaped
noble
anytime
curl
blankets
choices
exciting
sometime
mister
elegant
flinched
goodness
package
bothering
gentlemen
wizard
eyelids
grat
tanner
grandpa
peaceful
marched
lighter
##mend
striking
stalked
fridge
swirling
pine
painfully
appropriate
lashes
garb
guardian
dash
destruction
sanct
##keep
surroundings
##azz
candles
belief
corpse
strangers
travis
statue
miche
##jah
slightest
gap
gau
marshall
sipped
film
nons
fox
smashed
ghosts
##ardon
bushes
##agers
assure
horrified
paced
##aa
luckily
blushed
vacation
taunt
attempting
bliss
awe
hopped
bund
email
lion
congr
##apers
blocking
transp
momentarily
throbbing
##usive
occasional
vest
instructed
glim
impul
granted
josie
##mond
british
lieutenant
isabella
lunged
neatly
dumped
consumed
dwarf
##inity
scor
sev
aged
##atives
spike
##arian
spy
smack
fiona
transf
breaks
clit
realised
typical
avery
##unks
rows
##lying
mansion
odds
shoe
counting
title
warren
depths
sealed
intru
hesitate
zack
##while
mes
precisely
fae
nause
bella
natalie
amongst
##umes
distraction
wasted
overwhelmed
ec
approval
benefit
riv
churn
finan
dozens
healed
braced
bush
softened
miller
dump
joining
nora
greed
beaten
initial
##avi
status
preser
attracted
shifter
experiment
blurted
##iron
##jam
wishes
fires
internet
lind
polished
committed
temperature
pathetic
wry
expand
outl
unse
wrest
rebecca
##ali
##ida
helicopter
stabbed
ital
pitched
ramp
graham
##down
##uming
toy
vik
cade
baseball
politely
cure
headache
pup
collected
fishing
stephen
pushes
monk
equal
strands
secretary
dominic
overhe
combination
washington
hyster
cler
argued
gifts
visiting
trey
areas
assuming
##zzie
sympathy
devast
jasmine
electricity
##arded
##urd
jungle
coughed
hovering
##shot
##wed
tommy
jeep
overt
rigid
##away
thirst
wallet
automatically
stealing
register
whore
hauled
reminding
crimson
bern
danc
mouths
misty
201
##ishly
izzy
mit
uneasy
recovered
smash
crawling
om
russian
qual
texas
kira
represent
seized
maneu
monitor
pacing
saddle
sincere
licking
tel
unique
earned
appointment
frances
##omy
instr
grins
basic
disappearing
unhapp
fluttered
brady
##ipper
channel
ashley
wreck
desperation
flir
glist
sweeping
##add
clapped
media
##olo
whip
##quis
sighs
remar
roads
mounted
sweep
ritual
absence
consequences
rights
painter
forms
##ainted
sting
kur
##iser
western
##lord
dani
ensure
extend
telephone
##ables
##las
political
shred
##adin
##rak
thrilled
nightmares
teaching
saint
cottage
consp
scroll
curling
zo
##box
mour
identity
limited
greeting
august
survival
encounter
noises
produced
##nic
psychic
##mber
serving
coward
##low
guessing
thorne
congrat
compre
megan
isabelle
solution
wandering
tempted
piercing
shudder
aven
phr
phill
belgar
mouse
elabor
naomi
leah
reassuring
hugh
standard
##uk
neighbors
walker
salv
sale
influence
affair
boston
troops
sprang
revel
acknowledge
drifting
gary
stable
framed
hatch
disgu
firing
tube
illeg
atmosphere
assemb
announce
violently
review
krist
technology
trailer
curiously
shotgun
apology
seal
jase
lingered
parker
allie
burns
##chief
rumors
companions
peeked
robin
fbi
becomes
spill
touches
treasure
ming
wary
champagne
locks
##umer
##arms
fifth
guided
snort
lav
teddy
repair
sket
##ulations
orn
##ethe
urged
muscular
receive
instincts
tapping
liber
transform
liv
joey
skinny
bucket
sped
ella
preston
vessel
bour
abb
erupted
rusty
##len
gravel
nudged
##van
fortunately
owed
speaks
ribb
sliced
winning
tucker
crisp
disease
barrier
##iper
wider
##itri
terribly
fragile
nah
##anne
humanity
facts
dresser
completed
ripping
tumbled
##enced
smear
hovered
resour
carson
hugging
sports
laurence
nonsense
francis
forearm
ster
##lar
downtown
thumbs
alan
vom
fingern
tob
songs
shrugs
beings
dizzy
panel
##tes
writ
wander
mock
destination
glory
sull
##oting
eva
invite
ga
ticket
curb
steven
suitcase
alb
##arch
thanked
advanced
georg
torso
ages
dane
wheels
tiss
##oti
##lim
rim
worthy
gleaming
conversations
noon
angie
##itors
worries
hardened
zombie
leaf
notebook
##ifying
pent
strap
arthur
chip
pillows
##ooled
declan
torch
##xture
involve
unple
apoll
17
jealousy
flaw
shelves
##aying
backing
knights
savage
ninet
theyll
empire
slice
withdrew
##rose
excl
sandy
casey
launched
knives
navy
treatment
anthony
pry
goose
june
clin
developed
possession
messed
permanent
thoughtful
frightening
spoon
deserted
lifts
pam
freezing
hut
##stick
destiny
reasonable
imagining
valentine
sher
admin
minim
generally
criminal
license
assassin
fitting
fulf
recover
concentrated
warmed
believing
lam
interf
snugg
devour
##ddle
finishing
##ssa
##agging
dwell
thud
aly
schol
bills
arou
bould
solemn
##uch
cells
weary
pic
heck
madness
vegas
smoothed
##ware
purchase
legend
##vas
newly
emper
explode
mighty
##ola
##aughters
13
foul
pout
aj
potato
##rors
chewed
pavement
inclined
##nels
soup
penny
pinched
blunt
whos
perry
roses
magnific
warehouse
fount
longing
refusing
melody
reminder
aint
pleading
lazy
plot
cann
bouncing
terrifying
madame
topic
scanning
italian
corrected
medicine
county
##lets
##ender
##lad
assess
smoothly
superior
##wing
hawk
deaf
##ipher
##ii
clients
bending
lew
failure
explaining
misery
disag
ponytail
effects
ally
ambul
wealth
affected
volume
veron
brutal
twir
isol
##uable
elijah
xavier
zombies
ruby
portal
swirled
creepy
vicious
pipe
decades
##imately
judging
impatient
sack
##ulted
landscape
facility
barg
lon
liar
testing
alto
sleeves
##ounded
surg
pron
layer
##quar
becky
fem
gradually
insides
dies
crooked
bury
prospect
clamped
##inese
services
suggestion
trous
smacked
jap
##ador
broo
socks
average
persp
maddie
regarded
clust
plunged
bug
yo
mage
telep
workers
witnessed
blouse
mmm
sober
##essa
attor
dil
replies
##epend
accompanied
eyeing
tortured
##osition
injuries
kellan
##cut
bump
sighing
cats
vigor
##zer
trailing
stunning
gained
clam
spilling
##isha
##aware
dimitri
arrested
##rim
recon
##ulty
pleaded
##enn
##itute
perched
##ouch
thoroughly
14
helps
neut
mistakes
edged
museum
drama
aura
sunglasses
chinese
temporary
zone
adventure
customers
samuel
clinging
mcc
irre
vehicles
##oid
##uge
griffin
flicker
tools
linc
exited
seed
claud
rattled
personality
##erted
##enelle
##icated
##iments
disaster
praying
princip
discussed
joshua
dealt
storage
beds
electron
shivering
scowl
reed
pump
afric
tires
##uttered
shades
cities
kor
##cha
gloss
##iano
introduce
prime
hector
chased
tas
interrog
werewolves
troubled
tilt
rhys
##ndry
whiskey
##oen
foyer
daughters
cran
juliet
kinda
##vey
deciding
capture
suicide
kneeling
deer
independ
lance
limit
mold
beloved
strict
hastily
bodygu
piled
eden
hopeless
jaenelle
profile
choking
jerry
fid
bunk
pecul
levels
sparks
bubble
##arre
##bbling
article
disturbing
annoyance
nut
haze
overs
deaths
sage
heaved
beasts
##udge
unbelie
abandon
celest
puzzle
assignment
echoing
oppon
drain
fantastic
roth
##gra
awh
prisoners
squat
junior
awkwardly
creek
emphas
waiter
chad
unpleasant
##gers
##ani
sworn
tease
mout
blows
dale
temples
encourage
bruises
##ays
whoa
awareness
intelligent
##power
artist
divorce
impatiently
femin
melanie
lia
winds
garbage
feast
levi
selling
specul
belgarath
dangling
decorated
##anging
environ
rabbit
han
brains
studio
16
reject
caution
junk
mant
pearl
taxi
##hi
##ulating
harper
##aude
shuffled
##iders
kent
##rad
awak
blazing
##riger
##char
exhaustion
slides
thoughtfully
##unken
sylv
clip
refriger
steadily
remarked
##uction
bartender
intentions
arrogant
appreciated
mara
regarding
generous
charges
leth
##bling
fran
safer
trib
coin
tests
tunnels
differently
promises
compliment
fuel
histor
michelle
##ooping
skyla
lucivar
maxim
japan
crumpled
##entially
accus
##ulsion
reporter
capital
peculiar
humming
charity
recru
loyalty
##worth
patiently
##athed
negoti
##ban
flare
wrath
sensual
lowering
curves
##inter
emperor
conclusion
concentration
micah
guarded
partners
lessons
pills
razor
lasted
sparkling
lizzie
##aneously
inher
stung
offended
##inkling
accused
000
motorcy
enthusiasm
##celer
cares
##point
pauses
inward
##ctive
sweaty
burden
##aire
crushing
thrill
fare
description
bin
shri
tops
##ndy
centre
twitch
##wind
allison
cassidy
damaged
releasing
citizens
strolled
visitors
fiery
##nge
wisdom
dess
phoen
scal
online
acceler
##mie
slipp
cem
conver
discussing
visions
luther
faintly
powder
jewelry
thankful
albert
shrieked
injury
##zzle
##force
##rence
contrast
awhile
fest
folk
calvin
scur
picks
ecst
jules
soil
conqu
wool
cherry
belle
thump
pole
compassion
##engers
ambulance
fashioned
inevitable
messy
brun
officially
fiercely
sham
passes
##cest
##fic
assigned
##ooling
ki
##oma
##chant
corps
tightening
sucks
cookies
abo
##rell
snick
resistance
yel
shorter
retreated
roots
##akable
cassandra
presented
print
handled
menu
dashed
lantern
irritation
population
huddled
hunched
##rical
altogether
##mail
tiff
cancer
overcome
delic
dazed
exercise
skipped
##lict
sticks
malcol
thorn
disturbed
zeke
##uits
paperwork
embarrassing
disappro
casting
rubber
##bag
sobbing
attempts
philos
phoenix
complained
multiple
##bon
concept
streaming
vlad
skye
northern
bites
pierced
seventy
##inent
cracking
dol
scul
madison
##aste
bewild
delighted
internal
marc
commented
lords
sculpt
dismissed
senator
weigh
appet
slope
rex
chips
vivid
inviting
yer
christo
limits
eagerly
restless
dryly
##keeper
surged
environment
urgent
00
illusion
##esday
stew
##ienna
stove
bic
##itches
jade
##esy
##vable
method
session
logic
oxy
indul
watches
furrowed
amid
oblivious
mead
sweating
freeze
technically
##rod
cargo
ignor
slaves
##ppers
unaware
circling
envelop
bolted
inex
removing
##seat
forgetting
ford
tuesday
cos
discon
flickering
apollo
gus
speaker
malcolm
jagged
boom
disgusted
vivian
si
rogue
murmur
valuable
tune
spanish
partially
##mod
supper
geor
incredulous
attraction
antonio
##otes
##ties
parano
bruised
patrol
coincidence
chem
folding
focusing
##za
exagger
cursing
surreal
gust
##ader
theater
tracking
mixture
gruff
merc
##olved
slung
bish
encl
awoke
shaken
##icia
brisk
hav
lissa
##ighed
slack
rory
absently
dated
performance
##cery
trousers
##etan
strapped
deput
backseat
resolve
pand
ul
construction
shapes
district
notion
mocking
catherine
pac
temp
darius
##elling
blackness
##lee
flipping
chu
budd
rational
fund
biz
##angle
tad
##vant
stella
wea
carn
recom
sunset
nadia
hire
fluid
catches
flex
machines
lilly
winding
sanctuary
carlos
meanwhile
aboard
beau
financial
##chair
##ceded
pix
schedul
sensing
spur
backyard
emerald
lounge
genuinely
sasha
hiss
advance
indian
combined
amaze
dorian
marco
communication
##ko
##orse
felix
reluctant
sept
##pit
##ala
##issy
gravity
laced
##usions
pictured
interp
strings
##rr
##isher
##ician
registered
bonnie
swallowing
doubts
aggress
##osal
##hea
##eped
elaborate
attacks
starving
fiction
downward
mab
union
cemet
drunken
toll
nep
sleepy
swayed
confess
chant
##scri
thurs
##imeter
kara
closes
france
cemetery
stilled
thursday
##urg
strain
##ota
##ww
males
dus
napkin
##ito
spells
rats
ancest
dalton
##acity
laundry
greek
magnificent
mistaken
locking
dub
comments
merry
caressed
fantas
oldest
tremble
##mic
pausing
kaladin
packing
aer
boats
commer
relent
pencil
eleanor
whimp
whimper
heir
bumped
##oses
flashes
talks
prepar
numer
illegal
scalp
practical
distress
sprawled
##kind
sales
##apse
presses
prize
flav
filthy
score
accepting
tended
##zo
arrows
##apor
refrigerator
rapha
arriving
obst
explore
##heron
flatt
goin
##tegr
unlikely
pregnancy
ropes
mah
proc
serena
margaret
sacred
dresses
teenager
brooke
positioned
plo
scale
bout
lovers
##robe
acheron
mari
dial
shutting
luis
##ifully
extraord
scenar
eag
attacking
insurance
drivers
gross
convincing
rus
pond
clerk
sup
sunny
##hend
ric
jonah
denied
claude
willow
unhappy
blasted
meetings
genius
wax
helpful
navig
mommy
##umbles
scarf
retrieve
hazel
bethany
neutral
scooped
reacted
blessed
initi
april
guts
##hered
sobs
females
variety
larry
hopeful
venge
sympat
returns
cowboy
daw
goo
secured
china
repeatedly
buzzing
additional
education
ruff
nash
clad
folds
##nesday
rounds
elle
tool
objects
stuart
reserved
conso
demands
bizarre
whistle
wednesday
smelling
##ishes
stumbling
joel
callie
surviv
scoffed
disgusting
buzzed
recip
##fits
undead
betrayal
bom
motionless
grie
##agues
resort
millions
asshole
swam
##uffed
bishop
feathers
eighty
##ulting
proceeded
lana
adults
cringed
oxygen
depos
romance
sly
heavens
identify
pursed
kitten
##alf
accidentally
canvas
examine
reminds
##atell
motel
diana
sock
dele
lurched
tipto
constru
tire
duties
chewing
##gic
summoned
cracks
portion
punish
##ustomed
cody
giggling
dj
silky
murphy
##amiliar
significant
blinding
fountain
madeline
concerns
exquis
upside
mouthed
elsewhere
rumbled
referring
tut
supernatural
sawyer
brighter
delivery
sticky
glittering
defensive
raphael
##bris
encountered
freely
bum
unfamiliar
altar
expressions
dign
largest
phillip
activities
solve
autumn
##ivity
linked
midst
evidently
pod
shine
audrey
liking
religious
outst
robot
classroom
furiously
cath
particip
axe
talon
proudly
basis
gaping
francesca
shack
brass
shocking
void
##berg
countless
compar
##bits
nineteen
whitney
jem
subs
pend
piper
piano
econ
upd
cane
pumping
tribe
##quet
stomped
stride
rug
fascinated
andrea
##unching
dna
pardon
tiffany
resisted
attorney
glorious
systems
##inkle
##foot
identical
itll
battered
depend
dialed
infected
calmed
##ours
absorbed
feminine
creeping
stench
cautious
dome
index
depends
##xic
sust
traitor
bacon
fee
bedside
mound
stance
beamed
cue
##arming
drowning
lucian
raises
absurd
##lder
semi
stray
##ologet
gin
mused
puppy
paintings
shifters
strand
plas
dates
retrieved
consci
tales
##alls
assistance
minister
avenue
##agan
strongly
crest
skept
##omet
obey
hilt
scraped
startling
##irm
column
jumps
players
timing
choosing
##ody
willingly
sienna
withdraw
choke
root
immense
##herent
stormed
##ela
stays
meantime
teachers
degrees
sarcasm
trusting
defeated
stirring
shifts
offers
salad
gulped
dramatic
eastern
secretly
##tr
trucks
rank
saetan
bray
arous
##lands
ledge
possibilities
disturb
ego
theyve
gallery
arousal
gay
carr
logical
roaring
resent
sche
delay
outrage
rumble
drowned
wield
league
aspect
reacher
hind
ninety
oun
happier
difficulty
sunk
britt
coven
confessed
highest
specifically
adri
papa
simult
joint
lame
eerie
chan
peeled
guarant
stalk
orle
diner
##annon
alter
patients
offices
fumbled
towns
##enzie
cul
bastards
stacked
complain
husky
fingernails
uncont
alike
elliot
barre
gunner
os
scarce
frankly
shark
200
taut
foster
##igan
##uf
collapse
phones
follows
wasting
gesturing
vote
stil
saun
peek
prophe
##laim
ana
wond
masters
og
relationships
suspiciously
##amble
positions
prompted
apprehens
seduct
layla
mascul
hayden
nephew
blurred
resources
offense
gaped
virus
##ciously
cousins
bou
##words
unl
fans
mars
coy
guarantee
owners
huff
threats
##ailed
celebrate
theirs
maya
##yees
##see
hates
grinding
employees
##bey
nightstand
tones
pained
jerking
weakly
stain
mak
agency
sequ
##bar
discomfort
knob
condom
##ras
motorcycle
pose
dessert
unco
vital
sneaking
outstretched
hud
##comed
popping
script
gratitude
document
dense
applied
halls
tissue
predict
skip
acknowledged
isabel
appearing
dripped
thresh
requested
shops
##hou
tattoos
tripped
sweetie
recognition
perfection
##ho
partly
stink
styx
lacey
##azar
suited
abig
debris
rowan
heap
achieve
jokes
pel
##sa
##yers
adds
motions
muttering
tested
negative
melting
##ologist
elderly
bloss
huffed
##iva
numerous
traum
americ
##anth
mast
gee
lecture
spaces
relaxing
studies
tricks
bucks
lucan
straining
diego
gardens
alexia
minded
types
##ills
##iac
##eland
addressed
originally
##nold
##azed
beef
essence
passengers
believes
golf
exter
strokes
joan
christopher
omin
threshold
daring
nix
grimly
peer
escaping
pus
conner
dat
##water
swaying
proven
unfortunate
##olyn
mobile
region
importance
joked
freaked
teenage
santa
##acon
chunk
loop
##quarters
comprom
garr
poking
dana
homework
innocence
deme
illuminated
murmurs
amazement
maddy
perp
olive
duff
rue
##ein
weighed
##ressing
sleek
metall
tide
chand
counsel
governor
flan
mexico
orleans
##uman
improve
welcomed
aden
##istent
explains
abdom
debt
marty
ties
quir
22
craig
fighter
##rum
##itha
ronan
slips
eliza
flies
admired
severe
murderer
lush
paraly
earnest
ire
plague
discovery
caden
dab
perfume
soda
outward
tighten
abigail
##shield
raging
brood
hairs
theo
flinch
##mitted
relatively
absent
harv
campa
uses
patio
flirt
naught
bubba
asce
##theless
kindness
infin
uncomfortably
hound
accommod
oath
headlights
nevertheless
console
academy
##ba
##oken
roast
brim
arrangement
lewis
unle
honesty
##oped
janet
organization
##born
determine
##onym
cement
mick
succeeded
cheerful
bert
conj
encoura
clipped
desired
resumed
shir
##inar
ultimate
##hl
seld
tyr
motiv
groom
gasps
fucked
burnt
rect
uncontroll
engines
aliens
banged
linda
##ummy
circular
undo
##bones
##alt
rises
wealthy
alf
nancy
include
elf
pierre
glimps
robes
##reet
nikki
eternal
lethal
stephanie
hailey
elim
divine
##otch
lever
accustomed
yells
luxury
sorcer
phrase
austin
tavi
chart
moaning
meals
##most
simpl
thrusting
intact
##rus
##phe
cellar
borrow
tomb
beams
jag
restraint
##fted
scre
failing
scratching
windshield
hasnt
commission
hunted
halted
bid
fetch
warily
splin
indicating
rays
computers
belongs
gil
##orld
##och
bumps
pang
carmine
##augh
acid
displayed
examining
extract
afterwards
confession
goods
slowing
thy
visual
nation
mode
redd
concluded
dent
indign
lincol
##arn
sue
apologet
stores
overly
slit
intrigued
competition
dennis
encouraged
dive
inhab
active
establish
##agn
lining
unwilling
orb
kidnapped
bind
fiance
plucked
agon
lifeless
jolt
correctly
unison
##ikes
messenger
growling
conscience
lass
purchased
ruins
splashed
cind
plum
copper
bible
network
grocery
stairwell
grasping
coughing
playful
conspir
throws
cooked
elders
handy
chamb
sweetly
##cal
##ryn
kindly
##orters
attic
surgery
exposing
coffin
thief
banks
descend
corrupt
tasting
lair
enh
##mpt
fried
prow
##attle
ceased
nonethe
claiming
25
noelle
nicely
troy
patterns
swamp
escorted
implic
nonetheless
swive
##boards
fortress
##aux
##ouched
favour
lemon
ounce
##but
nurses
unset
atlant
documents
toys
cradled
##oman
arrangements
snaps
erra
rox
flirting
glove
discip
harley
disagree
##udged
politics
moss
bared
warlord
layers
##ppled
overnight
deepened
raf
bells
plays
##rael
tant
metallic
sloane
lena
photographs
mol
##ending
invent
mace
mush
forbidden
gord
float
parad
regretted
nuzz
##ayer
asher
flet
sentin
strategy
veil
harbor
thee
retire
clenching
contest
scooted
muddy
bulk
inquis
coins
shimmering
gram
coke
##ovan
headquarters
characters
coord
##vo
philip
benn
##uated
lincoln
launch
accomplish
cushion
##load
outline
satin
native
slur
banging
destroying
investigate
24
twent
erotic
irish
artif
##hire
wraps
evident
tracing
pey
quin
neared
##rons
silhou
unner
effective
webs
playfully
produce
bargain
jaws
dur
slapping
pupp
indication
##iner
woken
paths
conditions
deserves
cora
ay
marking
indiff
hack
##ergus
bitten
##asions
ivan
simultaneously
gleam
hudson
reapp
##chers
respected
##acious
pulsing
heaving
needles
streaked
gazes
##front
shaw
photogra
certainty
padded
rumm
chatting
##occ
poet
grain
##atch
urgency
##leton
overheard
vibr
wyatt
loosened
practiced
uttered
receiver
proced
reflex
fidget
complaint
campaign
obed
picnic
##ivan
tabitha
admire
anxiously
clu
receiving
##aulted
##0s
administ
osc
vince
handc
reid
##ria
countered
unmist
folder
retired
traditional
stumble
carrie
snakes
squealed
masculine
prem
refuge
cooler
ezio
engagement
manners
philosoph
bax
compart
execut
conflict
drives
chuckles
visitor
terminal
towers
portra
vengeance
emotionally
maze
stradd
opponent
burnett
pumped
frig
cafe
bitterly
georgie
sauce
ts
oven
reins
concealed
promptly
advised
cafeter
straps
announ
21
coax
oc
horns
fights
lynn
swiped
doyle
challenged
retorted
unbear
##works
unsett
appeal
##aser
roommate
posture
stamm
##wr
tile
darcy
##prints
##eraire
bundle
temeraire
suspended
whimpered
lara
aub
pall
religion
fallon
jett
##shirt
henri
anticipated
##ahn
hush
##chal
healer
veronica
brist
barry
kait
development
##rigg
mam
contrib
##dia
menacing
imprison
yank
transformed
texted
bait
puck
battles
florida
crowds
warming
mildly
swelled
epis
excitedly
drawers
accomplished
tourists
clawed
raked
ashes
hushed
underworld
cafeteria
shannon
clark
##lene
teams
aroused
##hail
annab
punching
candid
fatig
blamed
abdomen
guardians
encouraging
regan
contempt
unne
bellowed
##bra
tingling
unbutton
worship
##chell
clarity
gemma
walter
infant
caves
communicate
july
bracelet
kills
scientists
vas
##inges
##apt
dren
##mans
majority
gloom
unseen
##ntice
bure
reun
disguise
##door
towering
presum
wayne
donovan
gret
smashwords
helena
##ilst
##igner
performed
messing
aur
darting
carly
lodge
sobbed
##ril
attended
rae
fascinating
temptation
engulf
gleamed
hans
terry
therapy
gren
aircraft
sphere
stalking
##hers
brooks
##hett
##iration
##bted
passionate
yawned
adorable
becca
vain
ditch
scrut
moans
chemical
ugh
kath
##lom
fay
kendall
hating
reaper
##mph
graceful
shields
mutter
##ulars
artifact
knots
backup
redhead
balth
printed
flour
promising
steaming
artem
solar
##utes
vamps
pepper
hideous
lila
hesitantly
congratulations
chambers
punct
tickets
courtney
inquired
seattle
groaning
tumbling
controlling
curly
exquisite
zipper
etched
mates
mikhail
casc
chor
sipping
clinic
mesmer
profound
sanity
surveyed
openly
##ista
subd
vanessa
dimension
##ambling
ot
verity
disor
dancer
soaking
##of
loft
verge
dunge
spec
##scent
organized
deputy
shattering
entertainment
overd
alliance
weeping
liquor
pau
zeus
ups
established
residence
egy
lac
cigarettes
fluff
sixth
##giving
cong
##coat
regain
coop
lexie
amos
tucking
sandwic
unnecess
occasions
walt
butler
ideal
extraordinary
daph
##yon
marrying
freshly
mainly
shawn
bourne
endure
dag
accurate
artemis
skirts
longed
obeyed
household
##sell
millie
chim
visibly
optim
rou
inched
cupping
races
poker
amusing
tempting
mare
ding
factory
##hell
exotic
diamonds
##world
laurel
generation
lawyers
snarl
##eenth
susannah
scheduled
limo
colorful
embraced
##aver
someplace
crypt
limb
adol
suz
fuzzy
##iah
perspective
remn
automatic
extent
johnson
egypt
orph
jackie
mig
layne
youngest
reub
##standing
moo
sizz
summon
perimeter
##idded
##sis
frowns
tracked
rape
snuck
exasperated
pickup
##acular
craved
jewels
ellen
excuses
culture
neal
container
erik
privile
captive
perse
kenned
principal
wilder
welcoming
international
caressing
anchor
showered
situations
authorities
dizz
yanking
benny
bram
heavier
reference
slither
rocket
cri
peak
nickn
sketch
##storm
troubles
via
whistled
##occup
stroll
japanese
blessing
necessarily
il
##inations
satell
increase
dot
shriek
##itution
traged
wars
glint
latter
##esc
shuddering
nonchal
complaining
sneered
reappear
trips
advert
leaping
##ember
bureau
venom
impulse
render
##opard
gan
wrigg
##piece
maintained
costume
resigned
reverse
muscled
bruce
claudia
harness
wee
paradise
fergus
jut
tee
fills
bled
chir
locate
briefcase
swat
frequently
sympathetic
##xton
frankie
##run
grimace
coated
loung
electronic
perpet
anderson
##oooo
guid
bian
hesitant
flexed
harris
witnesses
mitchell
ace
rotten
alexandra
slower
manic
sends
manor
crimes
catal
daphne
accounts
reuben
anguish
pops
##kers
glistening
##gara
brandy
employee
mackenzie
confusing
lash
##arring
vomit
##section
whilst
err
mau
margu
flynn
granny
nov
behave
micha
baron
bursting
americans
##sen
giggles
risen
scarred
stem
interests
misunder
uncon
busted
tid
relative
wardrobe
boxers
rebu
##lod
admiring
vines
grows
acts
previously
loomed
claims
cheating
polgara
##urned
abdu
evans
##rial
nestled
chatter
discreet
modest
knox
kennedy
robbie
mira
##adel
glee
alternative
panc
audible
patting
composure
signature
flutter
selected
twitching
intric
regina
##uls
cattle
tennis
cot
##sters
uncertainty
eman
elves
nausea
momma
calming
bass
doubled
manif
gag
##ayne
##ox
fluttering
remarkable
adopted
lydia
##oping
manny
sprinted
davis
carolina
filed
blankly
surveill
kenny
writh
india
beats
ecstasy
##uished
gaunt
supposedly
##olai
alexis
marina
comparison
bugs
departure
##kerchief
apply
suggesting
revelation
##oused
handkerchief
alarmed
colby
pyram
pupils
bandage
parlor
viper
##child
glam
behalf
repeating
blan
keith
outcome
surveillance
corr
tren
scientist
##imated
sarcastically
potatoes
viktor
dak
pursuit
norman
kam
##ucks
##ounted
splash
aiming
jammed
##mont
winkler
brenn
astonishment
quivering
vine
basketball
foundation
figuring
tremend
doorbell
protru
##cript
wheres
interrupting
ranks
eyelashes
bears
finest
strides
bleak
dawson
reese
robb
wives
tracy
flatly
helplessly
##amon
contacts
apologized
anonym
connections
##rise
abuse
##ae
lugg
product
granite
##anky
glob
permanently
angled
suspicions
instance
##nar
joyah
gor
##estic
blushing
coldly
dict
nolan
wiggled
butterflies
couples
##cedes
##anity
ticked
prophecy
archit
customer
linen
cookie
piles
francisco
aggressive
involunt
nape
swings
##soever
octo
sagged
niece
georgia
kade
ark
snuggled
punished
gulp
##ooking
grandd
rehe
moisture
acquaint
##zes
lef
howled
barking
ribbon
##umin
unfair
hummed
luggage
exhib
architect
eug
solo
jacqu
instrument
awakened
speechless
demet
crisis
rasped
dimly
gabrielle
scrap
stored
rumbling
unsp
fidd
rash
october
referred
boards
franklin
anya
dimin
##burg
wears
critical
##vi
coats
##ookie
priests
hord
alison
sickness
##aggers
peyton
decade
acceptance
magazines
bands
##othy
spectacular
howl
cruise
thu
bodyguard
ultimately
flopped
panted
eb
##yd
twil
rebell
##you
celebration
boulder
tina
fitted
demeanor
legged
plac
##ienne
handling
carolyn
gregory
agitated
vick
siblings
##atore
##mat
gingerly
compartment
spiritual
eagle
bruise
obtain
grandparent
##encies
monkey
illness
uneas
nanny
##etta
denny
23
appetite
springs
skim
charging
pirate
unz
mouthful
apron
shaved
noting
nam
rescued
##hun
##brush
concentrating
diet
celia
trigg
creation
tilting
microphone
##put
lurking
scraping
colton
bronze
responding
ellis
discarded
warden
jin
valerie
wheeled
subur
escal
execution
ori
rotting
rumor
treas
boiling
womans
mull
fraction
##ogue
courtesy
pussy
##enne
trails
##assed
fletcher
commercial
appreciation
greatly
baff
groin
theat
jell
stammered
feb
shadowy
gis
elements
purposes
supported
conceal
shuffling
##long
cocky
##aina
threaten
depending
rippled
packs
streamed
clicking
scenario
##olding
jaime
lamps
whirl
commands
blaze
umb
hyd
sensations
towels
queens
guild
vacant
grove
##lette
##was
bluff
gaw
denying
hull
yourselves
writhing
gill
samp
##neys
virginia
excess
dreadful
chapel
leonard
gene
twilight
whatsoever
##olic
composed
exploring
canop
glided
coal
##hift
hurriedly
whipping
howling
conser
##hale
harmless
maris
wrenched
cans
strangled
barr
desires
paranoid
muted
nove
tran
hotter
custody
siren
swelling
sirens
tangle
##athom
comprehend
jed
controls
vow
gerald
throbbed
mortals
resembled
typed
flattened
emptied
##car
winston
tavern
isolated
kow
glued
rosie
unin
searing
##ilah
denial
##ilda
bever
##oh
indicate
dodge
cron
dazz
goat
reporters
surprises
cheekbones
ruled
luce
salvatore
scand
wither
undou
##lend
silas
##nut
persons
pairs
mole
marian
marissa
lipstick
reyes
woo
affairs
flicking
poem
undoubted
increasingly
sheath
remorse
genetic
emerson
incon
tingle
##ij
donna
mirrors
sum
bewildered
treating
consuming
craving
clubs
telepath
obsessed
electrical
vial
addict
mons
vault
##ester
tanned
companies
kimber
cramped
##inals
crick
approve
casino
tentatively
dusk
marguer
##lon
##xon
worm
nedra
steak
depressed
odor
##iantly
stamped
reassure
prost
unmistakable
##pent
conduct
clare
plastered
kad
unexpectedly
sufficient
eg
howard
inspector
venture
quicker
##wan
chimed
candace
meadow
commitment
iris
helm
wires
brittany
100
rejo
groans
gum
ii
flaming
selena
marguerite
pige
cram
##licted
landon
tastes
chilled
creaked
wilson
convenient
applic
tongues
scenes
beans
nuc
tragedy
reduced
ballroom
widen
bernard
##alle
badge
corpses
causes
##anche
##strom
cuffs
incap
##gor
mutual
writer
javier
disd
makeshift
grandparents
hyper
bail
payment
bates
hardest
bombs
disorient
undoubtedly
battery
astonished
vimes
seet
ther
hears
tet
arena
identified
clues
##assing
shuttle
ivory
observation
ald
buckled
haley
stubble
meters
slashed
##onic
ck
pouch
herd
cela
stinging
freck
evelyn
bathed
harshly
vice
islands
softer
doin
##master
balthazar
##rice
smold
rend
jogged
hugs
unbelievable
lend
rider
smeared
committ
hollywood
static
sadd
##jamas
tunic
butterfly
aval
stiffly
brianna
##ahl
streak
##lest
condem
delilah
forgiveness
operations
twig
reh
experiences
jasper
smother
##igo
classic
diary
matches
##iat
coup
##ensively
strongest
climax
revolution
admiral
spa
backside
designer
commotion
##iques
##net
shards
hooded
pinning
announcement
coco
radar
##inkles
capacity
tenderly
generations
##icians
greedy
unders
##stream
suffoc
sparkled
scarcely
seductive
piv
importantly
subjects
jury
risked
clutch
transferred
##ffe
parting
##aryn
paces
managing
waistband
cape
##going
clench
chilly
ominous
smallest
##oured
schools
amu
vibrated
blazed
slut
fixing
sweatshirt
narrowing
muster
oly
weed
tomas
littered
gnaw
shelby
##occupied
poised
subc
negle
growth
crude
worker
brennan
measured
riot
thumping
wouldve
lola
refres
##ortion
crosses
policy
legion
corridors
exterior
concert
hissing
##itious
recording
wept
skies
guarding
abbey
endelle
legit
keeper
perce
gestures
alc
clint
morris
angles
balanced
celaena
thie
recorded
unnatural
containing
babys
jai
texts
survivors
september
waterfall
substance
kier
curran
discer
hardy
##cloth
priority
vaugh
drenched
ross
blindly
draft
daggers
halluc
cycle
accusing
goth
suppl
infer
simone
longest
##cs
##bbles
reader
counts
oversized
naughty
commanding
reckless
##wny
blend
##iors
lucia
vert
nucle
killers
sterling
brightened
unbearable
skilled
mechanical
olymp
##burst
pulsed
chast
grayson
##taking
borrowed
boil
spoiled
speakers
bryan
##edly
##hu
photographer
##step
paige
interfere
nun
regained
disconn
screeched
##kno
##stan
##break
mandy
dre
##uation
poster
burying
suitable
sentiment
dalinar
abra
traces
defined
horm
temporarily
peeking
vegetables
tier
independent
yield
gretchen
##boat
##burn
scheme
brock
colum
hurrying
dangerously
rivers
symbols
cannon
oclock
providing
marth
lyn
archie
##west
thal
##icity
marshal
fits
##edge
aback
mona
pandora
sandwiches
nell
##rics
angela
squirmed
recommend
shoots
rosa
disdain
visits
ruthless
vowed
relatives
grind
mischie
looming
gladly
supporting
bitterness
bubbles
spared
prose
murders
scientific
mischievous
beha
blinded
basha
thrusts
dawned
leis
naz
kl
lids
sunrise
##umm
wag
screens
plea
gaining
uniforms
planes
checks
patches
kicks
laser
##athing
teenagers
##roid
rattling
debate
##unning
chorus
##anse
targets
wonders
lure
##bie
explor
adjusting
sights
twe
antique
abe
easing
daim
##ouses
pointless
airpl
sweetness
demetri
vein
dax
beautifully
peoples
creative
dismay
zev
attending
hearth
##igning
hallow
disin
marching
prox
growls
scrubbed
endured
arts
harrison
lis
medium
galen
altered
##maid
##made
strick
spi
##pson
momentum
jolted
awaiting
conviction
sund
rebel
##itter
goodnight
tart
tits
##chess
feral
scales
plump
sarcastic
careless
thumped
shitty
bedrooms
leto
posted
diver
moral
treacher
shovel
warmly
valer
divided
emptiness
presumably
galax
beads
ski
dissip
cable
##aza
lesser
mercedes
bot
chemist
gordon
##stein
ricky
leisure
##wal
seas
##ersed
deepest
##udging
collecting
wryly
yup
slacks
craz
federal
expanse
deafening
kelsey
pla
binding
urging
anti
dill
randy
rehears
tents
gunfire
appealing
exaggerated
unspoken
accomp
slab
marine
squinting
honored
thirsty
##imer
recovery
##wyl
listed
sandals
doorkno
ezra
durn
forearms
africa
parall
production
drawled
carries
duchess
annabelle
##tin
beaming
rearview
tammy
trim
hurled
wince
##omen
proposal
revers
gracie
talents
squeaked
predator
monit
applause
vod
tasha
##iko
topped
attent
churning
disappearance
motherf
infuri
whod
resur
contacted
benjam
fabulous
departed
ip
rico
hangs
puddle
episode
sample
austral
butch
rifles
caps
plainly
immune
50
tol
dodged
candi
sailing
caine
##nth
va
angus
pean
rice
wad
stale
resign
owns
eleph
fascination
##wyn
lonel
wist
angeles
remnants
douglas
stifled
arching
upwards
dew
softness
shallan
satisfy
pondered
buckle
evol
challenging
paws
germ
##eys
tons
reapers
scrambling
fairies
diplom
dignity
tramp
shrink
canopy
rena
##ggs
personnel
bathing
allies
fatal
bradley
##itively
##ctures
##icks
torches
libby
primary
resolved
cyl
shadowhun
cluster
consult
considerable
strikes
chuckling
hostile
january
waits
stur
trance
shadowed
##riet
disple
mallory
jas
splend
broadcast
edition
plopped
satellite
chef
cert
fearful
continent
bennett
accompany
italy
rejected
deed
faltered
dotted
cupboard
loth
apologies
mun
##hill
##auc
fisted
twenties
##fold
talented
assembled
hust
sofie
lashed
##ati
smar
somber
pursue
##phic
frenzy
possessive
perple
curses
worthless
rely
sapp
##udes
widening
vet
compare
##iry
darren
praise
bounce
##uously
##itz
ced
nothin
butcher
farmer
marvel
cheered
denise
cheerfully
##rings
collins
louise
statues
sickening
boiled
##iddy
tul
standards
itch
exped
label
sliver
##uffs
belongings
##phones
wendy
sailed
blackened
insight
reassured
vodka
##esa
screwing
##roe
insanity
approved
singer
unnecessary
##amic
phant
widow
##oly
sane
stations
serial
devices
##bour
whined
angelica
pajamas
lacked
gurg
athlet
##gage
genev
ic
shepher
brushes
##nox
camps
dads
turkey
evapor
betty
planets
thanksgiving
##held
skinned
countries
reverber
oy
yog
admiration
presents
##osis
colleagues
willed
##rina
bobbed
straightening
##lines
spitting
irony
disting
moms
shin
musical
ventured
heed
stables
quant
renee
##cases
canyon
##vol
farewell
successfully
protector
latch
proving
sniffing
adopt
scowling
regularly
##bird
welled
imperial
volunteered
tremendous
##iots
impatience
pronounced
tread
radiated
invasion
observe
flooding
reson
bren
assassins
##finger
facial
seventh
##enson
strewn
##ieve
fools
blinds
##orous
ferry
insec
esp
pros
contrary
lest
trotted
compelled
connecting
doorknob
copyright
knotted
potent
psycho
wincing
##ocr
impass
##vations
vibrating
karl
hmmm
raining
termin
##oria
guiding
trek
upt
##renia
comfortably
surviving
linger
sharon
cigar
shrill
humiliation
chained
warmer
pedest
dup
ushered
parade
nuclear
bursts
slippery
effectively
ironic
##aneous
ruler
november
meets
spiral
depression
boast
##obile
volcan
acquired
##eted
##acey
skimmed
ashton
nay
##ustered
emerge
entertaining
bikini
kinc
december
cunning
glazed
nearer
sylvia
iona
chal
awaited
ancestors
tink
slaughter
benjamin
acceptable
polish
envy
##gard
sabine
##elope
##ggie
unfolded
soothe
raid
satisfying
catcher
thri
elite
division
stabbing
##umbered
comr
##ailing
enforce
baked
nas
differences
published
titan
daunt
rubs
shh
essential
interven
##lie
graduated
blah
champion
nickname
rubble
brakes
reflecting
tah
##life
warrant
##izer
interact
shrugging
##bedded
dungeon
stressed
artific
pirates
rented
##inable
handwr
weeds
walkway
views
raped
erase
sins
glossy
##ucker
slicing
sutton
distrib
wade
vit
whoo
glen
fey
distracting
confrontation
uneven
##imity
signaled
gargo
spook
demonst
gloria
phoe
fellows
frail
risks
##jack
transformation
##anes
adams
extending
##ok
##akers
kiara
smoked
intimidating
chess
sonia
stry
interjected
cheated
weakened
sass
##wined
issued
bulging
skylar
husbands
portrait
##ders
outta
mornings
gree
tory
liza
interrogation
weaving
fraser
condo
trickle
nave
rattle
boarding
lull
maps
poll
keyboard
reckon
##aki
loading
fleeting
chalk
evie
devoted
unease
##ettle
kincaid
##ew
seeped
practicing
expectations
cheerle
lave
##antial
vance
lawrence
glittered
overlooking
martha
##ridan
trickled
##sten
pyramid
confirmation
hunk
##ptions
budge
oscar
devyn
##irts
lill
sophistic
sparked
##leigh
resembl
sensible
wesley
braith
lud
##osaur
pins
hades
nikolai
fantasies
wraith
error
deliberate
sul
reverend
striding
pointedly
experiencing
durnik
zipped
exploding
conrad
homeless
flown
columns
silvery
niall
bolts
45
elo
sentinel
persuade
exasperation
quivered
brenda
receptionist
annwyl
individuals
intimacy
rental
cheers
disappears
cling
##fish
snatch
stricken
vibrant
stacks
nicolas
costs
scrape
fastened
##fight
deter
rustling
beers
thad
swig
##abouts
buddies
expose
colony
graduation
##cles
dose
aler
##ublic
naive
committee
bachel
descent
peters
hazy
instruments
cushions
hysterical
diving
##bes
##omic
resident
harold
##rud
##eem
cort
seldom
drums
insects
fighters
fulfill
tomato
phase
chemistry
management
restaurants
drugged
##anya
humid
hass
##asia
exists
severed
benji
tickled
bricks
draws
flap
seph
maccon
gyps
brunette
dedicated
leash
rainbow
##hr
collin
jersey
consideration
admission
##bec
##lit
ku
sinister
russell
crumbling
petite
##acc
##ciating
##ray
scurried
underest
defenses
mos
dipping
tourist
mexican
resemblance
highness
admitting
agenda
##ux
dyn
phoebe
decides
merr
confronted
aqu
chel
disrupt
bev
sadie
speeding
cozy
shivers
##ufact
vacu
procedure
myr
nipples
orch
straighten
squeak
intruder
bount
inspection
fewer
##ava
greasy
darkening
expectantly
alleg
sullen
pendant
hinges
incomp
loneliness
puffed
shimmered
gregori
trunks
plun
scarlett
##rep
neon
pinch
contrad
manufact
protoc
intellect
biceps
gel
weep
##ctic
sult
pew
powered
honeymo
solemnly
##gression
##zar
tenderness
supreme
republic
protocol
patron
virtually
sternly
tolerate
shim
blat
shroud
retreating
elvis
battlefield
batter
ley
detailed
dramatically
soc
accusation
brook
crunch
198
attendant
acute
##ods
##ensed
snarling
soothed
scotland
##dox
manh
colder
doomed
snack
gunsling
htt
twists
##sea
policeman
##leen
##idly
riders
arguments
unlock
lys
##ington
maddox
mutters
fleeing
graves
interv
mainten
globe
elemental
tablet
patri
##riers
##iciently
fries
institute
inhale
gliding
semes
hend
steele
##nin
eaves
paled
##rella
ridd
scotch
drill
gracefully
stere
dred
##thor
demonstr
musk
maker
##approp
peeling
loosely
##umsy
hammering
vale
cradling
aimee
blackmail
##icorn
cocktail
sadi
storms
crackled
crotch
infection
ordering
represented
fatigue
bash
ridden
bulb
clumsy
petty
encir
vag
##itate
dough
##mun
smoky
enveloped
scab
cheat
richards
understands
pleasantly
envision
tho
packet
prints
corin
denver
cindy
zak
nursing
arrogance
intensely
spade
brew
phen
efficient
countryside
hul
cathed
zip
##kar
heath
beckoned
celeste
doom
smarter
tobias
giants
40
curving
bully
vaughn
suppressed
lilith
haste
outright
##angular
stocking
luna
ornate
www
louisa
consol
squeal
restroom
impossibly
amulet
fuss
forcefully
newspapers
tentative
laken
nom
ticking
sew
untouched
dais
##mented
harvey
dexter
reads
clapping
mund
carpath
forgiven
##rance
poke
attach
whine
mourn
highlight
##ogen
prayers
tiles
corporate
##road
citizen
##gon
bland
draining
vane
##word
units
operating
rans
penelope
wig
clouded
viola
fortunate
pools
snickered
##keys
verbal
defending
monstrous
briskly
aroma
scratches
evalle
relentless
era
inspired
wearily
sullivan
sift
honeymoon
merit
attacker
renna
cadence
fluffy
ignition
geoff
crackling
##bul
streaks
recovering
##ni
spiders
cabinets
kurt
##yr
mend
grill
ambass
dangled
kaitlyn
holster
##quin
##mund
inapprop
evenly
sharpened
childish
penis
succumb
obsession
rann
staggering
bandages
##yson
##athon
braid
##rossed
braden
unra
umm
##istics
civilization
brack
nathaniel
halloween
unicorn
exting
##headed
inwardly
chunks
##bridge
rut
approx
swer
##phed
maneuver
tragic
followers
delicately
conor
bisc
cod
simm
brink
##oty
poisoned
associated
clawing
facebook
darn
graduate
goof
trot
##rup
urgently
mercen
sauntered
##bin
kiran
grazed
drying
mating
loser
stim
patrons
bloom
spiked
recl
cardboard
wizards
pipes
kyrian
constructed
fract
residents
motioning
unnot
irration
jaxon
terrain
tranqu
sling
mirac
serpent
##stage
editor
smoothing
taryn
uncom
oph
salute
lazily
tubes
##gown
haunting
lacy
199
liberty
fathom
##rows
darlin
scents
gigantic
resid
bracing
jerks
##insley
initially
crouch
expressed
sincer
paras
wheelchair
gru
smoldering
somethin
salon
brig
##ielle
fuckin
transparent
jerich
intricate
fisher
giddy
oz
stillness
echoes
proximity
executed
innocently
##corn
weaker
rover
stacy
cate
clown
preoccupied
foam
calf
bodo
nico
prevented
subt
sailors
maintenance
feature
criminals
skidded
ghostly
cliffs
sephrenia
clara
knit
merch
purely
petals
mature
bloods
purred
kayla
poetry
beld
scented
hitched
##obs
kan
##oran
reeling
cobb
jur
peach
fooled
##attan
prud
idiots
fus
slash
collective
##eries
##esto
integr
fireworks
mingled
plaster
digital
##aya
radiating
realise
asph
sturdy
idly
interpret
faye
semester
##asms
locals
rhea
detached
chop
doorstep
##iche
nuzzled
inconven
cia
##fr
byron
##dro
##izable
##ucky
pancakes
##liness
loan
sandra
superst
medication
spears
stamp
inject
barren
horribly
responds
lavender
merlin
projects
salty
outburst
luca
industrial
strictly
poppy
european
pon
risky
dots
valid
punches
nightgown
absorb
rival
teresa
hammered
website
vile
intoxic
copies
heights
downed
precaut
materials
##kirts
armies
breathlessly
calend
habits
prett
thicker
unhe
robots
obliged
smugg
##ogne
coiled
madam
strawberry
encouragement
noisy
##version
strung
williams
amelie
baffled
flustered
gunslinger
leveled
pastor
faithful
##rem
preparation
muzzle
maam
mixing
##rix
teens
sis
maia
inherited
wetness
cockpit
reece
thieves
centered
rejection
gry
contemplated
expense
horrific
sprout
bria
tying
squared
boundaries
##cake
##celyn
everyday
restrained
parallel
embedded
kidnapping
gansey
lori
gloved
arab
skyler
streams
swirl
##vie
distaste
benefits
chis
signals
industry
##ottie
volunteer
engulfed
performing
sincerely
holt
burger
sources
depended
rests
reasoning
##ricted
##uate
widely
##roc
##aska
stalker
##onsciously
##estyle
profit
##irin
milit
solved
ira
moth
alche
heres
genes
necessity
spikes
hairy
festival
##enance
horace
reactions
futile
sneer
cait
louie
undone
hugo
pas
dissolved
orphan
cologne
tingled
##oes
apartments
guidance
massage
##inis
beet
carving
librarian
mankind
dahl
auction
footing
outskirts
atlanta
miniature
breathtaking
imaginary
penthouse
tumble
##ormal
hooves
faerie
lamb
##apes
logs
definition
minimum
boomed
cheering
lacking
conceded
kah
apologetic
crook
infl
circuit
inhabit
bows
experiments
excru
##acent
quizz
whirling
hats
brent
slams
collarbone
miraculous
aggra
latin
preserve
##usal
sheen
monitors
trio
wits
tribes
tir
destined
skelet
jocelyn
197
barbara
dislike
ouch
tak
quent
##actor
incredulously
tyrion
essentially
##alling
stupidity
contemplating
anonymous
compulsion
##kel
quickened
croaked
hallways
syll
sneakers
##far
##tos
viewing
kitty
bowing
moons
sprung
guarante
clasp
lem
ignorant
pains
proposed
cd
slumber
funds
loosen
artificial
spied
excruciating
##pa
millenn
unwanted
monroe
renewed
fished
newest
popcorn
balloon
therap
alyssa
harlow
stunt
vigil
##osity
tinted
seeping
tanks
harvest
splitting
tasks
enclosed
ronnie
clarissa
rita
fingered
arrives
##eous
intr
detected
tuned
excused
consisted
shielded
primal
bubbling
glimpsed
quilt
bonds
cathedral
##oren
gash
actor
##ocks
snagged
disapproval
judy
##ees
truthfully
hostage
jelly
gull
donald
sparkle
immortality
unim
peripher
randall
orche
awfully
wavered
snug
serene
luxur
sheridan
housed
wrestling
snaked
##avan
restored
sorted
styl
info
blurry
sincerity
##icit
crystals
descending
##will
metaph
##chel
diso
transition
trenton
mul
defle
agreeing
watery
##lynn
hows
scrub
spying
##hop
laylen
prone
lifestyle
daniels
jericho
threads
rasp
mint
reared
whistling
##atics
shatter
concerning
unnoticed
dia
##iago
jacks
intercept
silenced
suppress
primitive
sincl
invaded
savoring
zachary
galaxy
polly
pawn
mcke
falcon
subdued
roberts
##alia
sare
brat
bowls
cater
verd
wrought
michaels
weekends
pots
##oons
##woman
##kyrian
cull
wins
nykyrian
errand
weighing
abraham
realizes
shells
cronus
coron
##mind
grocer
array
sputtered
darkly
hedge
grips
##ocity
murmuring
adele
emerging
reassurance
noel
overfl
crazed
ignorance
smashing
##lah
earrings
holder
##state
communications
lark
##rah
investigating
##angled
barbie
historical
##cers
wheez
splashing
latched
tattooed
shaun
myra
##ixed
crouching
exhale
##zi
apprehension
##quate
involvement
unread
booze
##essions
crust
adored
brody
##grown
##dream
triple
manipulate
ainsley
insulted
27
##adium
nec
cradle
wretched
##ampoo
conserv
scolded
rapt
##lson
anita
shampoo
##fol
bak
woven
##iate
mirr
striped
##utions
sau
boarded
twinge
##ridge
articles
denim
arian
devastating
##itating
splayed
kalten
mushroom
dancers
motive
sinclair
##ghan
opportun
noses
stairway
manhattan
##osh
bethel
bounded
explosive
heating
steered
separating
##ener
jael
discern
tattered
flur
unsc
scoot
shard
releases
bianca
##beth
airplane
remotely
subsided
steer
theresa
headboard
clearer
dirk
bumping
mirrored
plains
mercer
infect
bounty
##hor
fearing
attire
parch
stretches
exhilar
rippling
ripple
darkest
bos
insign
aph
##fect
herbs
epic
seren
nervousness
devastated
bats
cack
cope
katy
perplexed
kneel
plush
remembers
balled
barak
ambush
chills
philosophy
rud
idle
insistent
domen
brandt
##isons
juan
convent
bryce
irritating
paralyzed
snoring
valky
vibration
clap
wrinkles
rimmed
##gher
notch
humble
housekeeper
travels
indo
flavor
jeez
filtered
sprawling
comfor
creased
stuffing
twirled
resume
merchant
nig
tori
brenna
heroes
observing
swipe
fert
hail
boone
rained
##say
agnes
agrees
dealer
##irs
scholar
brett
flapping
eval
intensified
meek
##proof
apples
##athe
ingr
israel
##adian
marker
tremor
stryker
masks
disre
spies
inherit
benches
squeezes
overlooked
indiffer
opera
confidently
maiden
administr
exert
footage
enlight
endear
sprayed
sophisticated
vanish
runner
billion
##pert
remainder
##bid
upcoming
theme
intersection
swan
daydream
kathy
passport
grandson
##eady
flock
dimmed
seduce
manifest
trimmed
whereabouts
##inky
nibbled
bile
appra
considerably
inspected
brightness
##making
bridget
charred
wakes
terra
officials
situated
overse
trist
scrunched
##oked
lowers
mateo
##lli
formation
doubtful
jug
gifted
definite
remarkably
equipped
chatted
##hot
grandchild
silhouette
opposed
holidays
taunting
torak
sections
chilling
padd
horde
reflect
terrace
budget
handcuffs
avi
drac
defl
##books
fitz
squirm
plummet
preacher
jak
##icism
discovering
biological
inappropriate
##ede
unsteady
rushes
shielding
enthusiastic
ine
plunging
uncontrollably
##just
soccer
discipline
pigeon
frog
crate
natasha
enhanced
employed
novels
scoop
peep
decipher
risking
designs
churned
vase
##rying
stealth
keira
righteous
syring
chattering
scaring
hitch
hostess
convention
##uro
intending
rio
##mble
consume
gob
impending
malach
rides
sector
##teenth
exclusive
frequent
28
##11
fling
boobs
stakes
straighter
bio
evenings
improved
##rils
caller
chandel
groceries
##ilized
pines
offensive
mute
ruffled
throng
captains
drip
skeptical
reprodu
binoc
hilar
##town
imprisoned
slot
ribbons
clayton
coma
aristo
sapphire
##she
sedan
##ivalent
glimmer
##vial
uneasily
speck
enterpr
hauling
ariz
appointed
nim
unmo
masc
gunshot
mortimer
glide
##inates
teren
raymond
laden
skit
merci
requires
mcg
##aria
wilderness
notor
swarm
evac
##glass
villa
roam
installed
dispat
eer
rewarded
poo
caval
asphalt
26
starved
voy
vicinity
hover
clothed
##resist
hauk
comforted
owl
sans
penetrated
fumbling
cove
twinkling
grunts
aeron
asses
inserted
newt
creak
tidy
resentment
drople
predicted
jabbed
##bro
chelsea
infinite
investigator
opinions
stitches
boulders
blues
resignation
comforter
##rap
frigid
##oust
momentary
hose
docks
nipped
tegan
##phil
agonizing
rebellion
overpower
freder
lothaire
ebook
factor
significance
expanded
executive
pillars
dishe
effortlessly
dissol
laboratory
madd
animated
stadium
##anton
##owering
##ieth
cows
yach
sympt
purposely
emphasis
##ilton
downright
196
mang
triggered
patric
traded
amara
lloy
stump
##veling
permitted
cynth
##aric
deton
ducking
mell
##eta
ares
crossbow
wail
psychiat
grease
masked
convey
subconscious
pope
inhaling
glinted
wedged
sla
perch
saus
bobbing
sinks
hence
jazz
didn
debbie
rubb
ambassador
##stru
predic
##gir
solitary
strateg
peanut
earning
illust
positively
reynold
ridiculously
frustrating
intu
entit
severely
amazingly
reign
tipping
publ
mechanism
slaught
madly
prophet
auburn
sessions
involving
calendar
binoculars
stuttered
courtroom
daze
steadied
arizona
##ppling
maniac
chron
chanting
brynna
bean
tails
catholic
strips
sylvie
##yan
circus
crows
wrenching
laps
warner
secre
villages
powerless
bonus
enfor
barefoot
introduction
methods
wailed
broom
samples
alarming
theories
##itage
dimples
##ronia
##ipe
skeleton
##ilia
trading
##utt
jost
##cede
lain
##ference
survey
ade
##mann
passageway
kas
gogg
##opes
loren
diane
shrieking
##iency
convul
prodded
rhod
battling
badass
weston
##idian
lucius
quentin
embroid
##stered
someones
flawless
suzanne
thirt
sophronia
##elo
incor
unmoving
gps
##ampered
germany
income
von
sporting
surgeon
dolph
hangar
adventures
scholarsh
throb
cease
penn
shhh
lloyd
enraged
elevators
assessment
quad
braz
nailed
vacuum
jog
lens
flights
umbrella
##with
camille
unreadable
##unches
colorado
gryph
achieved
quinlan
addiction
saff
##ares
minus
planting
29
dreaded
african
nev
mustache
trudged
cereal
screech
kra
spoil
enforcement
leak
ingred
conspiracy
carto
hopping
sidhe
writhed
nations
sie
sleeved
encirc
##ups
##brid
rehab
blinks
trauma
disintegr
diagn
hurric
ernie
languages
jayne
tricky
screeching
##aders
simi
posts
enjoyment
viewed
divorced
##tops
gauge
thw
35
cau
##oi
##ivers
pillar
tactics
winks
mathias
gina
kale
congress
reappeared
shepherd
hod
ruining
phantom
channels
heavenly
advis
shyly
whereas
unbuttoned
shouldered
armchair
iced
defiance
recoll
collapsing
royce
lefto
##aiah
pelt
sookie
anast
nicer
leadership
taps
percept
breathes
award
earthqu
keely
clears
hamb
consent
collided
girlfriends
reah
finch
refr
jefferson
elaine
abund
grump
##alski
reserve
responsibilities
briggs
goddamned
duffel
jogging
arose
scope
valkyrie
##post
crammed
##heast
graveyard
##iti
##arek
links
assembly
blu
unpred
bailey
##isp
translated
wavy
regrets
terrorist
bony
bask
##isms
halo
##unction
##imil
replacing
relieve
yelped
overall
assail
##ciless
technical
mckay
merciless
forefinger
eldest
dodging
amar
http
mocked
beta
impr
congreg
wallace
monty
nude
sap
ember
locations
declar
##gate
anyhow
depri
genevieve
##acking
##haven
bees
unpredict
peel
tendrils
yearning
fingertip
crates
rebels
slippers
global
typing
hoarsely
pater
goble
poorly
scandal
##acco
zoo
satan
incapable
seer
capit
shapesh
impuls
shagg
spont
skipping
quieter
##cat
dominant
booked
bloodied
toppled
signing
examination
therm
bing
mesmerized
plag
brend
stripping
filing
##avia
##annie
jaim
sidel
whining
camou
scares
associate
hormones
cinn
maur
reluctance
gad
##aith
fry
melod
cav
pork
cinder
consort
supplied
camoufl
grit
vanilla
##raine
cruiser
ronin
##aven
posed
chey
cyn
erect
solely
irrational
erica
morg
##frame
medall
compens
vows
cance
explored
##heads
smirking
allows
suspects
ripe
kowalski
shredded
pitcher
unzipped
flann
mentor
archway
janice
elend
travelling
calculated
swiveled
plunge
##ousy
andrews
propose
raged
##utter
texting
analysis
flanked
notices
declined
charms
lodged
assumption
replacement
undert
miriam
implied
kettle
irresist
heritage
prominent
engineering
acquaintance
shave
products
thrott
prod
puffy
selection
reunion
beatrice
##store
##icable
intoxicating
disconnected
##istine
civilian
winged
hue
prescri
dischar
splattered
preparations
desol
drapes
intercom
glares
tobacco
tripping
obsess
mundane
traps
creamy
vend
rak
quen
trop
##hound
virgil
fragments
febru
quint
sammy
recognizing
unleashed
douche
prax
ary
cruelt
turmo
hike
underwater
##ierra
stupidly
domenico
meaningless
tourn
bangs
##gom
boxer
dazzling
tierney
fret
thundered
puppet
##mith
unsettling
actress
complexion
carrot
raspy
beep
##ansas
february
##cass
##asive
##urous
banner
confined
orient
dillon
villagers
sloppy
##ensions
kidd
##atis
explosions
turmoil
enchant
glistened
talen
parchment
##nas
unnerving
sickly
##ivated
hunch
##drop
favors
taped
manf
indians
sizes
permit
protruding
##abled
watered
##ucing
##isting
investment
##sie
dominated
hale
wi
readily
grudging
corinne
mourning
##hetically
hooks
murderous
##maker
despised
granddaughter
##tale
behold
saliva
athletic
hagg
thrashing
sciss
thanking
fours
privately
involuntarily
hag
ambrose
trump
alight
frighten
compromise
raft
winner
kol
athe
coolly
palp
motives
roller
pads
sailor
##aro
gratefully
organs
bef
##text
indec
cinnamon
##rieve
canoe
porcel
amounts
convert
retali
advise
gabby
mickey
slade
hardwood
abst
pantry
scraw
magnet
therapist
nelson
mais
##riel
sheepishly
leigh
orbit
secl
zayne
##ova
bobbie
seraph
garlic
stationed
detectives
tac
sails
tapest
oval
honour
camping
##hink
##spond
soften
extensive
russia
##igible
crumb
narc
##ounding
##pple
scramble
uncovered
clamp
priestess
mish
rins
eerily
##acia
tequ
##inson
farmers
fib
equivalent
##innie
panels
technique
goog
soak
slanted
quieted
eu
avalon
whites
rune
scribbled
##lement
sheila
squatted
ampl
album
porcelain
stains
everyones
contented
assaulted
precision
trolls
explo
oblivion
artists
hier
wick
theft
deke
cleans
##spring
tainted
arnold
ket
##ckey
microw
gargoyle
quote
delivering
immortals
arse
nova
tinged
taunted
loaf
unden
ghast
bidding
gosh
hardness
inevit
deft
honorable
rags
ramsey
smirks
bearded
ely
cringe
destru
##ifications
orde
offend
enters
developing
necks
averted
cynthia
admon
roaming
crut
##stones
##verse
canal
invented
prolong
retort
flute
hic
##donald
basin
kai
##isl
reasonably
robbed
favourite
spins
##usp
tig
expans
peril
bouquet
attrib
tequila
lions
charco
ignited
intimidated
slay
vanity
watchful
kenzie
tenth
pars
peaks
recalling
heady
##atelyn
greaves
luxurious
swallows
tosses
##ichan
crunching
bulge
unusually
alfred
yuri
blasting
elephant
nephil
apt
roamed
courts
##fle
mindless
##ogan
fero
freckles
wipes
orchest
##encing
##ilian
unrel
##ih
boost
defensively
curs
vulnerability
facade
enthusiastically
inexpl
##ima
cooperate
jillian
eph
pans
##bod
solom
devotion
cunt
breach
correspond
chores
gravely
grounded
teleport
legends
measures
canada
##aha
johns
sem
##ffy
seichan
soared
##mitt
engineer
brooding
dusted
ende
precar
ples
erased
cruelty
potion
earlo
pays
princes
jeopard
quirked
##stal
creaking
sites
lenses
illuminating
veter
##lana
lindsey
alicia
potentially
bluntly
sexually
litter
forests
##uar
select
##hall
seeds
bonded
penetrating
##lain
synd
endeav
##ucc
vera
threaded
twinkle
harp
##prot
smacking
paran
scenery
barric
devin
lyssa
mm
appar
delayed
flailing
swooped
mumble
rooted
cid
##ication
shoo
neur
weres
reginald
iz
tatum
thong
beacon
##play
restore
attackers
condu
pitiful
moore
joanna
triangle
scouts
chau
clatter
plug
rugged
ard
marines
farmhouse
phenomen
businesses
entryway
disrespect
grid
armored
acres
glassy
protests
mop
bryson
handwriting
rosy
silken
salvation
whiff
blooded
mischief
struggles
tickling
##backs
##illion
##locks
disoriented
baker
mong
##ei
limped
vigorously
retirement
bodyguards
chests
spotlight
convenience
lunatic
reasoned
chrissy
depressing
##blood
##alo
moses
glinting
vocal
infilt
obscured
bachelor
meow
liver
overgrown
exposure
understate
delusion
porter
nurs
meaningful
torturing
bis
##iro
ern
shak
prentice
settles
##yss
swearing
sacrificed
##arts
shaggy
hipp
rhett
horny
vivienne
podium
weld
##onda
poles
newcom
maxwell
sequence
forged
##orescent
dv
##uating
frames
cornered
conquer
shaman
conclusions
freezer
pm
housing
amidst
mumbling
goals
##ieur
adolin
flaring
harmony
montgom
stony
##oret
teet
gears
glamour
bubbled
##olph
kingdoms
sierra
disord
brotherhood
pacific
##fare
concus
##belt
ordeal
nearing
suns
gypsy
alcove
ranger
ish
peas
adjacent
jacobs
employer
miserably
santiago
jewish
rustle
ceremon
remarks
counselor
##idal
rebuild
##oodle
emmie
resisting
squirming
pav
hotels
devoured
jacques
blog
faction
scattering
hoisted
ach
mentioning
adorned
monsieur
reinforce
resurre
##sl
undid
##aney
lads
charcoal
bem
monot
tugs
prosper
burke
leaking
mascara
rumpled
sherry
wanda
##pie
reliable
disheveled
dy
abyss
booming
understatement
travelled
##agram
pats
hiking
opportunities
steely
##onia
furry
flips
wreckage
footprints
bulky
rammed
hypn
tackle
skir
shuffle
intriguing
gale
alexa
cudd
##oux
##beit
##uttering
needy
trench
vand
##berries
penetrate
seared
starb
astonishing
otto
repro
edwin
##ibhe
radiant
borders
judged
lyrics
reversed
##wick
contorted
domestic
##ilyn
fanned
carmen
allan
clement
##shots
pursuing
substantial
##atures
dolls
privilege
##ourage
sali
celebrating
plaid
burg
abbot
isaiah
dunno
persisted
exceed
remy
celebrity
cricket
watering
gruffly
##huinn
glitter
ome
recoiled
##bury
suggests
dangers
thirties
##rs
##rified
settlement
customs
jing
##rolled
oll
keller
tilts
32
grazing
##ichi
coursing
pigs
grassy
shirley
leisurely
sven
crumbled
evolution
labeled
debated
31
unpredictable
tanya
syringe
missile
leaked
droplets
##free
rearr
christine
kle
peck
moron
bil
qhuinn
probing
looped
skulls
bein
scrutin
##rowing
baggage
##anthe
uncertainly
zander
deals
##ourse
ammun
accommodate
karou
goblin
nursery
wailing
##cover
##heres
insulting
cooling
suggestions
lighten
param
mustang
update
sweetest
anastasia
nois
wrench
cheyenne
bunched
pried
rog
womb
legacy
pumps
wholly
magnetic
proclaimed
presentation
operate
gaius
##ocused
domain
pursued
switching
subsequ
bottoms
shapeshif
##cia
isle
coursed
straddling
yoga
tum
##bbly
sentences
ammunition
eighth
malik
sissy
appearances
dinosaur
grizz
wagons
##cro
bends
##estone
recess
comed
unmar
blaine
mahog
##aden
workout
corbin
tolliver
lars
radiation
entitled
mahogany
shimmer
##lda
easiest
stacey
syb
untr
montgomery
turtle
##after
nephilim
dank
scuff
aislin
benson
gambling
handsh
calves
cleaner
objected
sheepish
clattered
advancing
models
##oline
instruction
artifacts
sabr
albeit
puls
bowling
rabid
hasty
bane
accum
maintaining
revolver
recruit
spectacle
irresistible
xander
seize
thrum
hurricane
shrew
properties
intentionally
glimm
layton
legitimate
minimal
demonic
sings
##mers
covert
buster
solomon
stomping
murky
hooking
ecl
devoid
##iami
foli
heightened
tamara
tormented
specim
incons
molten
##nell
##rable
motherfucker
husk
delightful
roke
pasta
rant
runway
apologizing
crews
aster
dh
freshman
toned
abused
raj
senseless
knocks
secrecy
nagging
bertie
##uity
##asar
manual
twirling
combed
cancel
##ceding
formid
recognised
labored
hillside
havily
eats
fain
shrank
lora
unch
virginity
ful
summers
peers
magically
succession
##fying
corporation
vinnie
alerted
beliefs
bicy
##bride
stanley
foliage
confines
breth
distorted
educated
zoey
merrill
miami
mysteries
levet
association
poly
brittle
picturing
manicured
bog
autop
##irst
sibyl
scholarship
disconcer
pens
pooled
friction
physics
flurry
danika
lizard
dizziness
chasm
cube
restrain
##inery
ariel
##amental
stepfather
##bear
coherent
weathered
##nan
maneuvered
australia
lakes
pharm
freeing
garment
prying
au
menace
refreshing
expedition
lays
masses
alcide
cin
##bot
offspring
##rations
milo
maximum
hadley
##that
surging
##paper
##iceless
application
grades
leverage
retract
structures
chall
berth
sprint
stubbornly
carcass
purposefully
guaranteed
brav
encomp
##colo
##worthy
indy
unwel
maeve
blacks
##inished
protectively
hesitating
lyc
fern
alexand
comprehens
posters
##ettes
broadly
baking
approaches
inspiration
dand
craned
apoc
hou
imposing
pivoted
##uting
unstable
corporal
vertical
##mel
persistent
##iope
slices
recons
shab
deuce
darla
sucker
##othed
flops
hearted
campbell
plaza
persephone
boredom
##miah
crop
##ulu
khal
nicola
conditioning
nudge
rectangular
reacting
defended
submiss
calculating
approximately
##ography
chi
angelina
zen
slits
madoc
sparse
distinctly
judith
savor
martial
medallion
troop
disposal
pristine
steward
addicted
familiarity
##hearted
dwind
barrels
constable
candidate
formidable
unint
grady
wedge
transported
##gos
pinpoint
cly
spreads
hollered
bucked
opted
deception
amen
indifferent
coral
directing
rusted
richie
debating
clipboard
rendered
ole
glowered
tightens
regin
delir
missions
gagged
##rane
##rels
##ieval
shuts
clicks
bikes
##girl
addressing
inhabitants
possessions
condoms
scorched
carpathian
evang
chickens
kilomet
allen
expanding
deposit
proposition
objective
tornado
zel
wavering
carefree
homic
transportation
cob
plead
severance
raine
seduction
typically
##istically
medieval
buffet
dearest
timothy
sabrina
understandable
goggles
##leness
##hent
addy
neglected
outdoor
respectful
##amous
generals
midday
pearls
stout
brute
pepp
patty
##arel
satchel
monarch
splintered
##houses
physician
##nap
paramed
betting
##choly
multi
frequency
scrutiny
##riages
talons
appalled
noticeable
seamus
##elia
boyfriends
stifling
trystan
melancholy
runes
vort
##illes
holog
##kan
peacefully
operator
speculation
roc
crunched
##ianna
irises
##vably
weave
snee
trapping
lava
ferocious
bothers
earshot
mcbride
kee
establishment
##cible
crappy
betraying
slate
##quo
activated
##lucent
wired
platter
relations
candlelight
tous
inscri
rummaged
##uv
##urbed
conco
shoves
##kill
gardener
kenton
chiseled
##raved
insect
herb
belinda
monitoring
inhuman
outdo
solitude
sheathed
##verns
heft
translucent
wafted
consciously
harmed
disapproving
drone
erratic
##itals
surfaced
##pants
caravan
constr
contra
largely
darts
pouted
##rimand
microwave
alma
kody
cloaked
slithered
stash
cloudy
declaration
affirm
gloomy
ransom
otherworld
gutt
memorial
mord
inad
likewise
presume
blended
contentment
reconc
cooled
addison
reinfor
##iciency
reprimand
derrick
pint
outlined
brethren
fiber
thinned
hilarious
vint
tiled
predicament
##urable
disem
reynolds
##eer
eliminate
tantal
worsh
subway
colleague
accelerated
asian
handbag
snowy
reddish
##founded
##vere
massaging
dashboard
marion
sniper
barriers
apprentice
weekly
ench
pert
yar
##idi
##ictions
billiona
whizz
bah
ada
outfits
devlin
angelo
frederick
byp
lowest
hinted
##acter
stallion
##rist
slaps
groo
limous
lengths
incoming
harriet
##anges
stalls
entertained
academic
ooo
timber
squirrel
punk
mugs
##ju
reservation
grunting
willy
playground
##blins
symptoms
##phis
whisky
eagerness
grotes
deplo
palpable
criss
flattered
##allister
vari
sculpted
dashing
ranc
##ami
spacious
finishes
briefs
triumphant
mines
interviews
submit
straddled
doo
serves
thickly
harlin
rafael
ti
disreg
reporting
jayden
leslie
sidest
bridges
##arted
respectable
revulsion
civilized
associates
grenade
alexei
digest
uniformed
apocaly
ave
sov
partial
missy
deemed
obscure
zac
inability
blot
sphin
blay
couches
separation
barracks
handles
mathem
lovingly
pricked
194
displaying
disk
hark
seething
wheat
nymph
fame
hawai
fueled
hints
ducks
lect
lookin
breakdown
dreamy
entity
sharper
software
templ
feeble
##found
continually
zar
voiced
demise
sphinx
carrier
strolling
jenkins
hypnot
countess
confidential
mated
unreal
yawning
bunny
tricked
instructor
feigned
freight
vessels
delt
##oleum
##fy
hyde
beverly
catast
yacht
##areth
charley
titles
sox
tailored
flexing
treacherous
presently
padding
hoodie
behaved
lumber
flask
rach
loki
exclaim
aggression
##screen
delaney
election
businessman
banished
tendency
slaughtered
repay
deposited
195
zarek
enqu
floral
rift
notep
##rok
voc
chester
sariana
materialized
grape
fades
torrent
flannel
slu
priceless
brielle
##weight
##rat
scorn
jackets
classmates
ingredients
fates
chopper
blaring
##opath
perceived
cory
wobbled
strider
##achers
processing
##bir
unconsciously
aggrav
##rys
outlaw
certific
##non
eyeballs
attendance
earlobe
soaring
pilots
##anas
spag
##beats
adept
camden
submission
compliments
bakery
##iated
beige
felicia
lent
tresp
machinery
securely
pes
invading
##jan
##cend
cords
auto
aspen
scissors
ceo
kali
crave
promotion
bulged
facilities
shakespe
astron
##tub
advers
horrors
strangle
splendid
cathy
manipulated
stoop
compelling
pluck
romeo
dc
sunken
qualified
cages
emails
licks
thugs
toxic
arches
lifemate
squarely
royalty
pets
##roph
warnings
gail
##eters
aging
homecoming
sheltered
ravine
interl
squint
treats
dumbfounded
connie
duel
tiptoes
jutting
##bu
seatbelt
banana
spaghett
##inarily
##oni
##ahan
edgar
columb
guttural
gulf
unforg
plotting
##iour
minions
hazard
jets
couldve
obnox
testim
wrecked
unchar
filter
travelers
inspecting
desks
bened
clarified
ooh
gushed
wiser
sash
nudging
gettin
statements
underside
justify
overc
bm
strut
strangest
wisely
##osc
sorting
enl
armour
ants
humiliated
snot
morton
evaporated
forbid
stifle
spice
coldness
lucinda
suffocating
aches
##tra
goblins
pia
seating
##ulus
flapped
burial
extension
faintest
beldin
foe
towered
jews
matth
massaged
mimi
independence
##je
coarse
crane
assets
grotesque
actors
clans
resolute
##olis
gib
bumper
grues
kev
christina
dismounted
chore
anticipating
conve
belonging
saber
verb
pixie
##lust
basil
surrendered
jub
interference
formally
dard
requests
contemplate
sided
persuaded
insults
implications
complaints
patro
authent
retain
universal
heartache
altair
unbelievably
floren
seriousness
eure
amate
unwra
ion
##amel
firelight
monument
identification
##assy
shutters
sod
##shan
##inks
shreds
jock
distressed
crucial
skimming
##ecting
longbow
puke
unfold
kore
ample
wells
flint
mikey
tropical
polar
savored
chicks
##agny
roused
winking
alist
aristocr
ov
talkin
militia
##nation
cidra
oracle
dauntless
arianna
expectation
hides
##ldor
slugg
nightfall
intimately
curtly
restraints
maple
codes
spaghetti
##inction
vanion
##iggo
indulg
pissing
gruesome
ost
##llor
blaming
lounging
drool
meticulous
gracious
recomme
agitation
scottish
emanating
elvi
##ilians
fiancee
vantage
mair
viggo
das
euph
pere
anal
insignific
pike
unsettled
ascended
neighboring
paddle
irene
battled
##jud
annivers
##issance
viking
burly
pistols
accusations
vibe
slurred
ammo
elected
lus
ration
juliana
sockets
mosqu
willie
bearings
florence
##isive
##raught
eureka
burd
eugene
parr
drawings
parisa
consequence
lousy
viet
overst
herr
##enges
mortified
kos
grated
afghan
turner
anyways
enticing
unfinished
maurice
surm
jackass
wards
##othes
marveled
encased
introductions
goofy
mississ
countenance
orderly
haught
expressionless
reggie
unru
tame
hacked
grime
##iances
supervis
zeal
shakespeare
intake
astrid
spraying
whimpering
##ternat
thur
caffe
brewing
winters
qualities
bunker
cakes
compact
##ficial
sustain
brax
trickling
##iman
jor
preternat
##ivable
inadvert
vapor
economy
crinkled
victorian
salem
brake
climbs
repeats
gou
refusal
bodice
savanna
jina
manfred
wast
##imir
myri
reminis
mayf
newfound
sensors
horizont
##arus
##uki
madman
##ippi
clair
hitler
juicy
assignments
categ
##escent
##deus
artagny
expertise
distraught
##borne
thinner
adamant
subtly
dum
##guard
artagnyn
stooped
lep
define
##uminous
viciously
##matic
loathing
##inqu
mog
creeps
induced
throats
heven
stashed
coloured
casket
##roy
homemade
portland
sot
dearly
quarry
beaded
chaotic
itching
##laf
wriggled
gilla
explanations
wobbly
applying
misses
receip
auditor
pors
##uz
joints
rooftop
lanc
##leys
interruption
gnar
panther
theatre
voss
drows
showers
pinching
bloomed
inevitably
alarms
patter
teeg
sweats
wistful
##cup
##imented
creator
reservations
aspects
jars
acquainted
compete
uncles
jeremiah
anchored
##ometer
signaling
bourbon
alab
converted
coyote
crab
maisie
restlessly
steadying
kaia
recipe
flitted
phoned
closeness
matthias
##bound
perception
deceased
valet
##eston
##ulent
mistaking
ballet
##ams
toni
irrele
hott
##his
logo
interstate
glenn
tiniest
clueless
moll
josef
cum
jigg
drags
fifties
dwelling
server
defiant
bathtub
##ranean
##amy
wickedly
menc
authors
ripples
ore
foil
wordlessly
genet
saluted
##cule
##ilation
flinging
thompson
##thened
participate
##rich
magician
pathway
##hat
warlock
##anners
##ointing
stating
nigel
meter
atlantic
imminent
##holes
containers
earthquake
##gal
veered
summoning
##dan
##ifies
swarmed
readers
carnival
bristled
tractor
halting
##burgh
freaks
musicians
geoffrey
mencheres
mounting
assessing
##ittens
##berto
##asse
##azard
guides
escapes
mississippi
rol
blaire
chopped
piped
bamb
dumping
alle
scored
obsidian
alo
worms
garrison
soviet
roo
matted
thumbed
principle
softening
duct
undressed
rhythmic
challenges
bla
wills
bonfire
stockings
monks
gamb
punishing
geez
comrades
alistair
inco
hamilton
datab
secluded
maids
##balls
batteries
kall
##eller
barred
sorcerer
##inas
oncoming
allerg
bustling
eugen
vintage
coating
corrado
claren
factly
unbuck
employment
stages
angrier
##aments
overh
waft
taxes
insisting
##fell
edmund
indulge
grandchildren
existing
limousine
quer
##chester
particles
##ople
elbowed
programs
scorching
thane
##phs
baring
baw
exits
hobb
indef
pits
##nian
producing
wiggle
enthr
solic
password
zakath
ruling
##nam
untied
programmed
alternate
maximus
resulted
newborn
horrid
vanishing
fooling
##rade
##uding
thrashed
kip
vary
bloodshot
##amation
alix
concussion
refuses
homeland
bard
bedding
danielle
duh
plugged
tia
##sson
fraud
awaken
lime
##oric
obligation
calmer
securing
plagued
anniversary
defiantly
propelled
herald
##abilities
tarp
##volent
fiend
oops
awakening
apologetically
##zied
lighted
scraps
hawks
inventory
slayer
calder
kristen
dances
fragrance
##math
spon
treason
goblet
courth
freaky
insists
saul
overre
perme
bemused
##phia
##ilipp
filth
##assie
predictable
cavalry
assurance
jaguar
beak
loses
doorframe
babbling
restraining
distrust
voyage
welling
safia
slicked
delta
greens
stocked
##chet
recorder
fetched
gild
firsthand
preventing
reddened
uk
##enna
manly
texture
crescent
organic
inflicted
macon
ferocity
bmw
verm
natured
fainted
itd
slant
##iably
##hard
shooter
pru
clasping
foggy
musty
extrav
humiliating
indifference
onward
philadel
absorbing
tatiana
bodily
banter
functioning
ryker
snatching
dile
provoc
elevated
rendez
grumpy
bick
polo
terse
functions
boyish
scrubbing
announcing
parl
josephe
outn
kidnap
lucifer
isolation
merchants
penal
exhausting
nobles
jerky
alleyway
stereo
contracts
mamm
##asis
##arians
spout
milling
clarence
shah
sultry
sill
abandoning
susie
legendary
relish
jeanne
siege
##ourt
auntie
operated
terrorists
embassy
angelic
includes
tempered
markings
volcano
grumbling
##otta
raff
toddler
imogen
perked
ryke
dumpster
anat
brus
twinkled
duval
predatory
##uhl
abom
cael
maine
higg
aftermath
edging
paranormal
##rium
scant
fingerprints
lingerie
puckered
floorboards
politicians
fluorescent
stainless
cocks
designated
interpre
milky
bandaged
girly
bitches
cezar
nag
flim
breeches
tingles
braw
colonies
yelp
courthouse
cay
spain
stoic
shirtless
36
alas
immac
buds
deco
salary
virtue
bex
manus
mice
converse
intert
epil
dishon
conjured
brie
rendezvous
##oot
spons
everl
##hib
elli
paranoia
houston
##ouring
##elessly
pumm
timid
rosewood
timmy
##isation
disli
explosives
theran
##andro
install
unwelcome
knowingly
cardinal
philadelphia
##ackle
##quer
outrageous
hoof
cherished
tiptoe
lashing
stann
hammond
illumination
waff
dislod
irreg
acknowledging
tactic
##card
soren
caged
undercover
favored
grimacing
twigs
ghou
saffi
prejud
sausage
cutter
##liner
describing
poisonous
flora
civilians
##azzi
outdoors
notepad
spicy
shrieks
jinn
nothingness
decre
amazon
arya
crev
havoc
shadowhunters
kels
reeled
slos
whips
germans
muck
endlessly
stomp
limping
navel
catac
embers
crackle
hybrid
buttoned
displeasure
cobblest
##itan
lovemaking
morgue
samson
clyde
ohio
lengthy
mina
sanders
grieving
throttle
##vish
complied
youthful
barbec
lanterns
midair
clustered
intuition
dice
stilet
##retion
arranging
breeding
tranquil
uncharacter
sarge
giguhl
lax
olaf
glimpses
obediently
ernest
opa
dived
##ogy
horrifying
entwined
tangible
##enet
lob
epilogue
##izations
##atha
lighthouse
accidents
etc
##avering
surveying
novak
ping
begg
awed
eri
##then
courses
dealers
tully
spart
unreason
zoomed
nonchalantly
eibhe
##oodles
bett
passages
submer
eibhear
leaps
legally
galley
prog
freeway
parks
thundering
spelled
##wright
##stood
dusting
bead
deeds
felicity
impassive
beeped
trinity
wayward
dimple
blindfold
sympath
##walks
billionaire
irrelevant
elliott
sagging
secretive
forceful
coloring
gator
periods
swerved
hiring
##irable
enig
adjo
dimensions
##rawn
##sword
lett
indignation
discreetly
amery
niol
spawn
gand
arsen
relate
russians
tackled
tutor
wielding
semb
gurn
discl
embroidered
##chamber
##oli
testimony
##pton
interaction
rin
pledge
hungrily
motivation
overpowering
slashing
currents
ollie
ony
judd
insignificant
slime
ou
ramb
obliter
gowns
lach
dakota
bapt
fearless
lillian
dilemm
bouncer
##wig
##ablo
scutt
truths
##rians
leopard
ung
champions
unnerved
rally
goats
overr
minist
trials
multip
dagmar
conservative
disorder
maureen
rept
gareth
fend
prank
antib
ireland
onsl
##ols
warped
forens
tightness
grolim
relevant
balancing
speeds
stalling
slain
haircut
translation
shrouded
zur
##onte
assert
workshop
ipod
prest
braided
paired
luxen
fulfilled
##lined
disbelie
anders
regal
onslaught
administration
truce
lysander
##tails
bred
donned
aurora
tousled
magen
procession
wiggling
fable
##jama
sonya
egyptian
advertising
expenses
aram
annual
cropped
scorp
shakily
##dling
##eration
malice
declare
cadogan
lenny
belts
auditorium
##udding
literature
underg
malone
38
##mere
##aum
plowed
disgr
marley
morrison
frenzied
drummed
grudgingly
submissive
rince
hostility
##falls
withstand
shai
neb
lists
stripes
misunderstanding
inching
treasures
##hap
##stop
fres
locket
pep
sleeps
##aho
mangled
contag
slimy
clums
expelled
forties
stormy
wend
percy
rincewind
devils
carts
vaulted
prices
##spons
alaska
tending
monique
unharmed
flags
hardware
pondering
nana
responses
oozing
passionately
hottest
wagg
stam
chided
scoff
expertly
sembl
bj
decline
sterile
giselle
dyed
forge
nibbling
optimistic
mann
##mouth
hangover
furnished
defence
savior
fiddled
marius
gasoline
cobwe
fringe
mailbox
scam
harb
montana
marred
packages
urges
dissipated
shipping
hairline
safest
outraged
hockey
institution
prosecut
scald
wardens
meand
shaded
stiffen
turquo
brutally
scrolled
incidents
flicks
simpler
##ais
cheekbone
occupants
citadel
numbness
knuckle
rambling
brides
dreamt
decidedly
serenity
manuscript
##uard
flank
crump
jeffrey
comin
syrup
vibrations
reverberated
lops
hah
##urer
trays
##licting
stewart
sustained
##pow
objection
retro
bathe
lunge
vegetation
chimney
progressed
fauc
walkers
##cliff
bib
##kas
##nah
pleasing
##lete
comic
##function
unm
fug
villain
negotiate
##tock
crumble
clutches
carnage
architecture
turquoise
##mary
spiraling
murdering
nip
scum
infamous
thudded
##agra
voicemail
cylinder
nighting
volumes
niccolo
bans
##lorn
unpack
lizzy
remed
trains
predators
cooperation
inferno
suzy
behaviour
mantel
fot
##yll
##ythe
loads
brynne
evangeline
handgun
rung
crops
patricia
costumes
farthest
exertion
unqu
wove
infirm
eavesdro
destructive
##anson
atlante
memorized
cryptic
massac
overflowing
unto
mosquito
##ighty
spasm
regist
accompanying
##wide
upro
swiss
elias
shaving
louisiana
rake
bleachers
dismissively
inadvertently
mingling
##lley
democr
ecc
glac
decay
secondary
fidgeted
jutted
cedar
##wall
sweeps
chaiko
hambur
obstacle
ruefully
obnoxious
volunteers
troubling
##affected
resource
##bourne
sabot
affectionate
##face
impe
refresh
avasar
##ernal
avasarala
tus
smugly
onyx
panicking
stinking
suitcases
sufficiently
decorations
bordered
lois
probe
lasting
weaknesses
caffeine
sera
jewell
holland
reinforced
flimsy
seasons
breathy
condes
chlor
bookstore
2014
coaxed
decept
trait
regards
duplic
##river
lanes
racket
kansas
lum
##atus
unbl
##oles
foods
unconcer
gaps
thayer
exile
psychotic
salvage
porsche
professors
##uh
figur
alcoholic
lucah
greetings
ajar
##wered
heeled
scores
throaty
gateway
transmit
rosal
abducted
##kat
neckline
melinda
lahn
quart
trepid
berries
toothp
nightcl
batch
compromised
aphrod
ninth
##naturally
mete
preservation
astr
accuse
addie
billie
biscuits
33
transfixed
devouring
ew
mashed
peg
wrestled
awkwardness
bundled
booted
abstract
irregular
pavil
snag
boldly
##inous
manages
confer
tapes
lookout
pea
metres
##ulsive
camouflage
assassination
##active
spotting
dryer
recommended
lopsided
mirth
##urt
tickle
franco
brayden
##print
mcdonald
font
metaphor
tournament
enchanted
chen
tuxed
berry
gauze
clambered
chandelier
##ller
projected
##ietta
cuddled
ultra
suburban
envisioned
pom
undress
confirming
opponents
##uer
##loaded
transmission
crumbs
manuel
wright
width
tabby
sergei
dubious
raking
racked
meds
##tis
biker
daimons
##rums
obscene
hounds
layout
tissues
disagreed
deflated
experts
loops
edgy
tentacles
occupy
kurik
techniques
swatted
smothered
dilemma
##erment
bravery
ceil
biology
invin
featured
rabbits
tarn
archers
knitting
dinners
creed
luton
sarehl
customary
kald
wlod
formula
squealing
wlodek
racks
setup
camel
merl
rubbish
disbelieving
edwards
rosemary
katrina
tamp
blatant
marathon
undoing
##lter
baggy
campfire
nightingale
sumi
imperson
intel
benedict
##ellar
deepening
handshake
billowing
jana
graze
pointy
reassuringly
gover
trev
devious
measuring
bruno
telepathic
immig
semblance
agh
wolfe
clang
seaw
realms
##brook
roofs
puffing
footh
nob
##ressive
blasts
ecstatic
carla
chestnut
urs
mummy
500
##ilize
almighty
extravag
bobo
##ibble
buffalo
weariness
divide
clammy
lemonade
gnawing
hypnotic
mayfair
mule
garments
nicky
curtis
aed
pedal
sated
frat
emm
insin
trepidation
carnal
fingernail
##olt
bucking
merged
notorious
mining
khaki
context
angered
gerard
kirk
shrewd
##table
paved
##ortions
jeb
vibrate
chemicals
##usible
preternatural
ulath
##yrin
moody
meld
anew
easter
renov
incess
##hy
gritting
gnarled
##ando
gast
chy
shouldve
##ibal
operative
frosty
distinctive
survivor
roxie
firefight
peterson
farms
drumming
telesc
sobered
labyrin
ankh
condemned
shal
unfur
gam
itched
##ortment
portable
chipped
approving
sanche
invested
sips
heave
caitlin
hospitals
oaka
thoy
pajama
acknowledgment
gillian
respective
goodbyes
##chi
missiles
implant
resolution
daimon
shea
crackers
microsc
cured
mystical
acquire
miguel
##abe
generator
ambition
immensely
wasteland
bonding
weights
bewilderment
gore
sut
##wayne
cheery
talaith
expects
911
marilyn
classified
pumpkin
unaffected
aids
roxy
prolo
dime
contracted
urban
films
shabby
bloodline
plateau
ake
##scow
cruz
disguised
conquest
gilbert
ceilings
haph
##ryl
caia
hearty
psychological
improvement
haphazard
##wa
keita
melaina
beckoning
bossy
##ori
sprinting
fences
justified
belated
thinkin
edgard
ryd
vian
unfast
##noff
shined
harden
diminished
condesce
demonstration
demonstrate
34
judges
coincident
catalog
lurch
##kov
cautioned
chur
trivial
furnishing
zig
keir
starve
horseback
equation
mabel
##ooper
barrett
forebo
diversion
hustled
unblinking
disney
extracted
luscious
sizzling
gamble
isana
##usively
reds
singular
ellison
gwend
devilish
vegetable
starbucks
welf
##ylvan
##dale
verl
spectators
labyrinth
glue
spends
insert
drifts
hysterically
prologue
##hee
##verted
brendan
##rants
flushing
diesel
pak
whoosh
deftly
clementine
toff
bruising
losses
stanton
desmond
chopping
lively
##resses
mario
groped
planks
swims
##archy
hamish
cramp
batted
representative
##asters
confided
lycan
wisps
flourish
scurrying
foreboding
mesh
##esar
bicep
hog
demol
miracles
rounding
fors
proves
superv
videos
##rehens
shady
labs
tatij
encircled
tatijana
asset
bottled
oozed
contains
shoreline
outsider
omaha
##mus
trisha
introducing
deliciously
quaint
dina
await
mists
solace
upsetting
mechanic
sculpture
impenet
ragnar
##ceptible
valued
cartoon
##aran
involves
randomly
paler
disliked
conting
caramel
compon
dutch
sharks
uncommon
constance
vianez
giles
trish
pudd
##bering
consum
lulu
abn
hobby
thudding
rane
doe
outrun
asc
webb
##flower
relentlessly
overreact
summit
stretcher
accurately
##pse
digger
resulting
sabin
thorns
impecc
cone
lunchtime
sanchez
cimil
ashlyn
dismissing
frayed
hacking
versus
##folk
oily
accented
welfare
scaven
wonderfully
dominique
##rakian
toyed
monaster
fris
slug
rubi
stap
mallore
headphones
unsh
axel
scenarios
unconcerned
privy
##dog
bosom
fumes
forlorn
ture
thunderous
dougal
matilda
telepathy
embracing
noct
counterp
aliah
hadge
exiting
##ipse
synt
dismissive
pell
groggy
boxing
sands
efficiency
shares
warth
gutter
stupor
lockers
significantly
infinitely
nour
robbery
allegiance
heidi
disappointing
##heim
kathleen
pronounce
waver
##ifes
murray
charleston
whack
banquet
idaho
precip
schem
illusions
weas
atlantis
scrawled
##pad
##itiously
ashen
nonchalant
##pering
intrusion
aloft
mathew
blooming
wager
vortex
rogers
blister
carelessly
testament
cluttered
google
propping
sneaky
staffan
contam
engaging
canteen
fizz
##rd
arnie
admittedly
calliope
peripheral
crissc
##opp
ops
dreamer
jit
impenetrable
nab
rips
counters
unprep
pitt
navigate
rummaging
bracken
dips
toad
lurked
##atical
geek
respecting
peggy
doris
feverish
blossom
errands
mens
adjoining
receded
grudge
rapped
capturing
barns
copied
toothbrush
blissful
dabbed
##bott
##icuous
extern
glock
bathrooms
heartless
landlord
##asan
##opened
volley
alana
resented
usher
dany
clump
pled
trophy
channing
token
##acies
communicating
dwarves
##inum
aunts
savings
supervisor
honed
##iom
ranon
tensing
policemen
opposition
##shaw
baxter
lendill
coupled
ryland
processed
occurs
crafts
certificate
miner
bloodlust
jacky
murgos
translate
2013
cranked
boundary
irritably
circumstance
disconcerting
sponge
gurney
rails
##tles
squire
heartbeats
coloss
norian
##uccess
cham
twitter
dominance
gadget
raoul
nass
scanner
plantation
colours
shadowhunter
bicycle
##oral
fruits
unem
retrib
hospitality
##uan
glum
purr
condescending
pou
ironically
enlighten
adapt
ambitious
relo
exchanging
##vard
asia
##rington
writers
pate
alanna
##abul
displays
comprehension
mumbles
##anny
##thought
keepers
feathered
seldon
intervention
pounce
backstage
snuff
infuriated
tigers
inade
roles
jackal
ethere
ravens
barks
miraculously
##bable
moscow
dispatched
sidewalks
storming
unfolding
northwest
##forward
apocalypse
cray
sacrifices
forwards
##ylvania
apprehensive
involuntary
detach
brilliance
precaution
hutch
hir
chanted
palmer
ramon
##atious
rinsed
krit
joff
coulter
gunshots
shaven
##mac
betsy
tracker
seiz
immobile
scrawny
unsuccess
evolved
riyan
carbon
philipp
swirls
fastest
eliminated
inheritance
sak
drooling
whiskers
estimated
kahli
desolate
##ti
hefted
unarmed
assortment
tasty
tablo
cheryl
electronics
economic
##wene
breck
uncontrollable
switches
hobbled
inval
favorites
flakes
chubby
myriad
prover
majestic
marvelous
eard
##aton
happiest
pours
carton
cynical
hm
prickled
alleged
nightclub
pact
elong
cubicle
##inos
josephine
mandor
soundly
jugg
poisoning
spooked
perrin
##ungal
cranky
charmed
conducted
bake
##cils
flattery
##vil
alumin
aftersh
willpower
rydstrom
unprepared
compose
lanky
daytime
memphis
beginnings
cuz
egwene
shipped
##abet
insistence
emphatically
presumed
outnumbered
martine
gerry
recollection
jarring
uninter
swarming
burgu
exhaling
triumphantly
ghastly
##onso
sorgan
organize
adequate
aft
nameless
scabb
alexandria
##gation
disast
earnestly
reduce
horat
bastille
retribution
oaks
##fus
##iev
serum
bowels
supportive
specimen
invincible
rowdy
ninja
ravaged
shaya
##eda
whale
consist
payton
marcia
piers
##uber
confuse
platinum
bess
tripp
torin
tantalizing
##verty
nef
juliette
distinguish
##rophob
eart
assistants
subsequent
grilled
sixt
iii
hisses
flats
lapping
congregation
##lei
magg
critic
##uu
##ahs
chaol
similarly
conceived
##aaaa
aghast
kenji
reverie
bly
mindy
despise
cuffed
hysteria
delph
papar
sidney
crib
climate
dreading
marketing
mantra
paula
tahir
lann
lithe
jagr
##boys
ensuring
dahlia
piling
##bank
##onos
crus
billions
cens
##bean
comply
margie
celebrated
coals
disastrous
##iki
tux
ehlana
bushy
category
vu
amateur
bloke
snacks
poverty
monkeys
gilded
sine
mages
execute
scrubs
faucet
withered
disturbance
nisha
##ousing
barrage
targeted
advances
rotated
deathly
snorts
whirlwind
kon
spaced
scooping
boon
tactical
macy
respectfully
publicity
econom
orphanage
bravado
elastic
airlock
profuse
appropri
lorelei
lindsay
intellectual
maddening
burgundy
akin
##look
armand
gentleness
injected
perpetual
undeniable
noir
engrossed
lawson
esther
whisked
postp
multitude
faked
winky
incompet
ongoing
joins
basics
roars
lifes
tremors
ascend
coordinates
lail
coc
credits
virtual
tiptoed
airborne
sleepily
turf
barreled
writes
##ubus
questioningly
ahh
quinton
invade
turret
crystall
protesting
borne
dozed
##umi
skate
kittens
##ends
ansel
slump
reper
akiva
##actic
realistic
regretting
conspirator
barbecue
luminous
needless
interrupts
fragrant
inquiry
demonstrated
##lier
##etown
flop
elusive
forthcoming
ancients
verdict
yearned
hulking
disregard
##sei
subter
faux
corset
enjoyable
lanthe
buckets
napole
##marks
vid
##uers
##itory
morbid
obstacles
rehearsal
fails
##wen
scatter
squares
intervals
pavilion
##tion
##emption
rickety
##market
seep
repairs
relinqu
pretense
lured
vult
timer
recliner
claust
narrowly
quarrel
milton
cecil
ridges
appreciative
##breaking
sewing
casper
sardon
##eton
roommates
pelvis
incoherent
pooling
downhill
ridley
##hhh
kyler
journalist
recruits
squaw
perspiration
kelsier
hap
tinge
puffs
booths
##pool
##eeee
straightforward
uncanny
##goi
terrific
sorceress
consolation
ghouls
##liest
##ensen
vinny
greedily
plank
howls
launching
counse
zand
unnaturally
inquisitor
margin
crippled
sayin
bugger
recy
divul
reloc
limply
sideste
rith
##folded
##fulness
gallop
##owned
bedtime
maf
holmes
fiddling
dud
harass
##iggin
gris
kenn
altitude
warthrop
corm
##kee
weaken
slopes
veiled
relented
bandits
neighbour
orgasms
phenomenon
celt
riddle
wiry
orchard
pasture
rupert
origins
##ologists
repaired
branded
sneaked
xanth
cogn
verify
2012
dedication
behaving
tapestry
adore
##atra
righted
carib
hopelessly
atre
furt
jorge
greyson
furnishings
gim
zep
captors
discussions
obtained
cald
eighteenth
cloaks
puppies
unimag
ethereal
claustrophob
numbing
alorn
tolned
everg
moods
##rolling
seals
cocon
##handed
ono
##rowth
rescuing
musket
unruly
##anni
crowding
##anah
maura
faeries
journ
alchem
gour
##vael
engraved
gwenvael
noose
pagan
graff
cables
punctuated
##thorne
recognise
ebony
decorating
mushrooms
stripper
festiv
rains
rei
soles
fidgeting
proportion
bounds
keenan
nike
stragg
cami
aimlessly
contagious
forgiving
butts
dishwas
boasted
##isman
shan
charts
##itudes
rebo
append
emotionless
cycles
seduced
##ichever
morp
payback
mercenary
unac
##irez
skys
senate
ginny
##abas
hateful
##illen
stalled
##osa
shawl
pomp
monika
pixy
showering
exceptionally
hiked
politician
proceedings
dilig
sansa
skittered
sag
doorman
kingsley
tempest
spooky
berg
dye
whores
partying
cyrus
elementary
vicki
thinning
respects
plucking
dion
stitched
whichever
bugged
bloodst
jolene
tags
imitation
tedious
seethed
##aty
discount
ramirez
choir
reneg
sparring
armrest
angling
hesitates
fixated
chooses
frying
grating
surgical
dizzying
rour
leagues
mercenaries
seline
hash
reprieve
gender
matthews
chirped
plausible
toms
concess
committing
drawl
carpeted
scans
##few
barnes
stranded
smelly
milord
suffice
freddy
##urities
traits
livid
onions
stitch
moor
gio
visor
witnessing
spectacles
##ilated
marna
juven
rourke
ceramic
encounters
kiera
cac
coil
wrung
infr
broch
jameson
greece
patrols
breakup
turbul
verlaine
fray
ranking
unleash
garth
##mall
reclaim
impulsive
barbed
infuriating
deird
crater
probed
continuous
rural
indig
cuth
overlook
overturned
acutely
##broken
bea
##loc
groping
instinctive
##aby
##atile
gibb
splinters
submerged
kaly
hett
covet
corv
listens
thickened
hex
inexper
jacqueline
paparazzi
41
intimidate
eccent
waded
readied
ashore
mckell
kist
yah
meager
sealing
diplomatic
violin
intruders
rhet
##rive
closure
dispatch
ownership
##about
nurt
publicly
reflexes
monastery
toying
##unes
sharma
noticeably
technician
##anim
ungr
pebbles
kif
laila
##di
manila
competent
frosted
bacter
fow
vitt
##usa
helicopters
pleasures
specialty
blurring
database
##dam
framing
##sworth
morgana
rueful
unmarked
mei
##quel
ruse
##elf
heartbreak
moroi
analyze
premises
kathryn
learnt
generated
unheard
##amas
amp
rustled
shrinking
varying
nonex
powd
iraq
##cod
sadistic
appointments
exceptional
sixties
##hement
nella
##bee
desirable
michigan
##ssen
blurt
jeweled
industries
harvard
dingy
kilometers
voted
dinna
bleached
snowfl
leftover
##itas
anom
manning
cooed
mounds
reinforcements
##wy
blared
flipp
telltale
athena
fint
deity
disinter
caked
dutifully
dmit
hath
pies
haunches
leant
digs
dependent
endings
decad
visc
marta
yanks
galloran
wistfully
legg
obedience
aubrey
strigoi
positioning
tane
input
vehement
cork
##abulary
vip
repet
queer
##mor
smal
parap
complications
cavernous
interfering
balloons
gait
##tan
##tons
coe
countertop
molded
attentive
vampir
chairman
harmon
rattles
external
ler
##runt
braids
napkins
affecting
extinguished
horizontal
##hist
deacon
chriss
violated
lesley
deirdre
relied
annih
opposing
##woods
ketch
##laid
verse
sweatpants
kaldar
ringed
fondly
highland
maryann
savanah
unfocused
jig
pung
##mill
roshan
wallpaper
funding
surfaces
sophom
celine
inhabited
vatic
snout
antics
rosalind
drones
feeds
accidental
coaxing
dimensional
##helf
sweeter
##zel
sazed
bets
##cogn
lavish
cocoon
kilt
heater
faraway
trainer
mcco
topics
finely
brazen
morphed
tennes
mantle
prosec
hec
##iries
sno
submar
penns
filming
jh
##enter
sensit
crease
riva
sundown
unreasonable
pref
malicious
withdrawn
selene
dishwasher
aide
snip
unsusp
millennia
##pm
bases
martini
hub
unloaded
blanched
infat
kitchens
sidled
unstead
aluminum
constricted
scratchy
flecks
ravenous
wondrous
47
ante
knick
sprinkled
journals
socket
ss
clave
envied
styled
emphasized
vicky
exploration
inky
clive
passive
artwork
nauseous
conjure
nook
##cock
psychologist
anticipate
oxford
##itutes
caret
wooded
preserved
##itations
quill
calla
midway
fawn
governments
##kh
disse
morrow
redemption
infirmary
lease
prelim
provin
rituals
##adon
crafted
loosening
blossoms
roasted
paramedics
mott
tawny
skeletal
peasant
davy
guine
lina
unused
curvy
delusional
hick
##lins
dorot
shrimp
laney
licensed
integrity
sybil
khan
##pin
observer
davey
plummeted
ek
##kv
##bows
accuracy
laylah
rainy
curry
barge
unwrapped
ingen
announces
intervene
tz
parish
fuller
jama
ignores
queasy
vood
spits
thrilling
distinguished
cocking
interviewed
phrases
dorothea
sug
##swe
underlying
dixon
jawline
appealed
humidity
tuxedo
windowsill
wulf
dope
upgr
knitted
lukas
lapped
tanu
##ivating
slavery
newer
##cheted
bookshelf
underestimate
persona
indent
refined
mainland
indefin
kifirin
tummy
vor
manhood
urine
dervish
devastation
##helves
advant
dvd
cress
coaster
buses
skins
brimstone
corruption
enhance
walled
centaur
ud
ashtr
imaginable
references
improv
##manship
nightly
winded
tougher
bookshelves
reeve
canadian
caved
marquis
darken
constitution
##alya
applau
zap
advertise
asa
incline
193
##thea
pont
reven
clips
elses
implying
pest
vans
decks
undet
disabled
emitted
cycl
primarily
eccentric
seizing
calib
overwhelm
rotted
nyelle
mech
afterlife
grimy
ferv
caresses
recruited
saucer
icon
##enach
redding
scabbard
sported
jez
burgers
layered
cupboards
unwavering
alaric
heartbroken
brodie
becker
##matched
sprouted
##iffy
##izzard
jaimie
memo
cobwebs
tennessee
nub
nipping
##itative
onlook
banker
lounged
narasan
prudence
clumsily
lorenzo
profusely
##wes
voodoo
dary
thetra
nosy
fragment
sassenach
caillen
lindy
wagging
regrou
burrowed
discretion
lag
eliot
sickened
stalks
fractured
##nia
##apid
expectant
audio
indoors
##dder
drilled
baskets
kerrick
succumbed
##hips
arlene
rocker
surfing
kes
headline
murderers
gems
slouched
gp
teac
acquaintances
##isco
cohen
adel
cabins
occurrence
partnership
runaway
metis
##flowers
exhibit
cair
values
intertwined
karma
blazer
riveted
hess
hayes
casualties
reckoned
vibrator
batting
pennsylvania
##urb
petul
objections
freakin
bracelets
motivated
user
ceri
sizzled
skeletons
superiors
sabelle
fax
nemes
tabletop
simmering
ditched
jaz
##press
comfy
tribal
milos
johnnie
conveniently
##atos
##illac
plaint
protruded
napoleon
tark
laur
chancellor
explodes
defenseless
lordship
vord
outcast
backdrop
snaking
rainier
refugees
runners
relayed
argus
##rogen
misunderstood
abl
boar
occupation
jasnah
puddles
fanc
##felt
doubtfully
antid
paddy
brooklyn
##rome
populated
kry
wagged
##lay
roberto
garcia
concealing
bureaucr
inherent
morph
hive
##ois
saints
##roads
inhib
petition
highlighted
tiber
sensor
julio
hunts
routes
blaster
marin
flattering
empathy
heroic
erected
disgrace
chimes
recre
bers
cowering
fuming
abel
utmost
deprived
##wife
unans
tablecloth
furthermore
##von
##strong
psychology
flaws
reconsider
##sight
blending
ghoul
wicker
djinn
trampled
cuthbert
syllable
exor
disgrunt
ingrid
flows
decency
collision
energies
margar
retained
damian
helmets
immaculate
capitol
maester
defy
tome
rangers
sluggish
##dress
cheesy
cadillac
##cap
##whe
##adays
ariana
hastings
accelerator
pi
flailed
stuffy
investigations
spontaneous
##ndes
barney
flashlights
stocky
northeast
##orie
difficulties
hanger
iphone
lub
laurent
sentry
dealings
utility
negotiations
comrade
underestimated
37
timed
dinah
fanny
thug
chandler
##cakes
supple
camped
fiddle
psychiatrist
washes
justine
tallest
cosm
catalina
##had
unconsciousness
dummy
mustve
randolph
##nor
diseases
ludic
unthink
reverence
removes
kadan
dragos
debts
incomprehens
advantages
theoret
asha
friggin
cooks
captor
prickly
blacked
kalyna
alleys
##aka
mastor
##oscope
oars
fanning
manipulation
ludicrous
decker
shrine
tomatoes
unsteadily
swoon
stature
insanely
noodles
canned
sacks
detention
##grim
##vat
whistles
elegantly
overtook
bulbs
gurgling
##bus
founded
summons
juices
persist
faking
immob
attendants
eclipse
pungent
ewan
elin
deceit
sibling
##roit
drooped
laces
ply
stability
yall
mystic
kentucky
thea
##aba
nowadays
uncl
finality
nicest
zacharel
premature
aloof
perks
assisted
pouting
elec
julianne
##dar
##maids
brightest
gala
roslyn
sentimental
fintan
cc
##sham
bookcase
briefing
pinky
##etts
recept
suicidal
pounced
jolly
dras
terre
##parable
productive
meteor
sah
restricted
tabs
candidates
attachment
refrain
jumbled
luth
philosop
##aris
afar
michel
feline
treaty
dilated
##writ
cubs
cox
sledge
grapes
recipient
##yre
overboard
callahan
##oden
frogs
proportions
dismissal
cultural
colossal
dain
gorg
whacked
downs
hurl
questionable
skyline
clogged
prickle
emanated
amun
##odo
superher
narrows
sparking
wyoming
weaved
valerius
campsite
wasn
mutt
dos
overth
unspe
skirted
stag
nostal
alib
elic
petrified
prodig
##lift
actively
thronos
cheerleader
higgins
studded
ambled
stools
dissolve
queried
blackberry
trustworthy
miko
spartan
ploy
indignant
precautions
42
kram
archives
outd
##una
eun
ener
mastered
brilliantly
knack
sled
railroad
surrept
starr
##aug
hurling
funnel
##isance
highlights
sexiest
posing
preferably
nether
scruffy
substitute
wielded
##eon
curfew
specialist
##gated
replayed
noisily
hypervent
unav
##olored
magick
dork
empress
scrapes
##ithe
nevada
brusque
barth
jumble
##itzer
watson
thatll
clone
monitored
orchestra
##arf
stow
marrok
wariness
meditation
temperatures
furnace
companionship
inconvenience
somers
comparing
retr
considers
cascade
ange
coolness
eyesight
washcloth
##ggers
profits
idiotic
bedchamber
halle
croak
ott
##tocks
crucif
wrestle
cringing
##otti
entourage
garn
sniffled
manipulating
cowardly
eavesdropping
kisten
##leg
##aman
quipped
mimicked
barst
##dad
springing
atlas
reeked
renaissance
bode
pane
chit
enzo
huddle
refill
mard
steff
footfalls
lineage
accountant
enterprises
caribbean
##erate
##llann
##arten
rhyllann
chag
pervert
paragra
##isin
##ippy
massacre
blom
plumb
streaking
listing
##iggy
lennox
boule
unravel
##irect
stein
humour
chrome
gravelly
wheezed
inexplicable
andar
provoke
investigators
muffin
pensive
classical
autopsy
juvenile
childs
purring
artistic
rotating
swiping
##crow
##via
slater
nuzzling
insecure
bau
venice
blossomed
patsy
sentinels
treachery
quantum
infectious
disgruntled
derm
oat
briefest
afternoons
nonstop
manipul
##bud
antiqu
resembling
beetle
authentic
belatedly
blythe
yol
##gio
snide
dumbass
##pot
##isse
exhales
outlet
caverns
enjoys
bravely
clipping
spind
gothic
oversee
marcy
calculations
tidal
rightful
##alion
chace
elation
clearance
textbook
rosalie
prescription
##cials
drizzle
floored
traveler
impressions
traumatic
soothingly
overseas
nonexistent
sas
stron
godf
healers
affectionately
soggy
goons
##neck
##ienced
prickling
bettina
yin
kevan
ruddy
vomiting
palmed
pocketed
functional
fitch
aisles
fiji
strawberries
gushing
monthly
wheezing
clattering
hawaii
##him
strayed
completing
caliber
accounting
brimming
##ioned
hardening
incense
jae
principles
millennium
precariously
buttocks
##riety
hallie
worthwhile
exercises
excessive
frater
generosity
tangling
feds
adoration
##hyd
reek
shines
mesmerizing
anto
##meal
psyche
phillips
alay
jennie
velt
##mine
drastic
rugs
shrubs
psychopath
rogues
graces
spurred
greta
searches
indisc
harpy
seag
muslim
reyna
memorize
unthinkable
kramer
##nys
chime
marl
marla
earliest
bellow
liaison
grenades
tagged
##rock
##ifiable
dainty
##ilot
unexpl
zigz
##odes
thereafter
christians
flirted
dens
natives
mafia
sall
relished
slew
wrapper
classy
arik
veltan
beeping
kaylee
deterior
sato
anka
reel
commanders
bernie
convertible
penalty
atlantean
vind
angar
colling
membership
accordingly
balding
planner
physic
volatile
niklas
antidote
maw
traitors
bribe
tolerated
plasma
implication
vatican
uninv
zed
exuber
reveled
mcallister
marshmall
tomasz
ein
una
decap
teammates
absentmind
abundance
crank
finer
hurtling
artic
##nies
thru
##owness
amiss
cordelia
comedy
porth
##mitting
receipt
cth
huts
donkey
willingness
lifel
junction
esme
compassionate
cascading
indecision
vietnam
##isers
scrolls
thaw
caesar
edith
truthful
programming
prostitute
eloqu
nosed
payche
barricade
mav
allig
edna
##lov
goddammit
##po
##orts
scuffed
talisman
natalya
hometown
negl
alluring
##estru
coh
broadway
comical
pebble
fireball
protein
testify
dorn
anten
almond
reviewed
mockery
60
sade
lightened
fearsome
contradict
coincidental
popp
##ileen
chaise
dormant
outsiders
conquered
displeased
jr
tumb
baton
propriet
jonesy
cascaded
headaches
dynam
##eden
sewn
keel
salmon
estimate
withdrawal
alchemists
naw
zal
spas
crashes
annal
mysteriously
heartfelt
relishing
infinity
lucid
sympathetically
unsuspecting
##icably
disqu
castles
modified
shores
##kvist
yak
angular
medal
nemesis
dapp
emmy
charade
recognizable
bentley
crocod
marcie
arend
catap
benef
salesman
brot
##umbo
cleft
winnie
efficiently
norton
##icting
spik
conflicted
proverb
gagging
cersei
combust
updated
newcomer
spattered
coverage
kinich
haggard
ketchup
reliving
kindred
raquel
abbess
homicide
latt
grande
sonny
practices
uphol
mats
familys
refilled
##plate
dorothy
afforded
##keeping
adap
unstopp
transpired
portraits
chauffe
afghanistan
banshee
aes
jaunt
##abol
tends
kneeled
tarmac
competing
##oos
franz
##rigan
sams
omn
##rend
##amine
granddad
##nae
mckenna
##entious
##agus
modesty
uneasiness
roberta
adoption
morm
arousing
whoos
jagger
kaz
strum
confed
puzzlement
delect
jest
martian
ferrin
shahara
fuse
sta
##blem
silverware
kari
procedures
upturned
purity
legions
addresses
harding
edin
consulting
continuously
assumptions
smed
crickets
headset
unimp
onion
begrud
rinse
##rek
comet
##orting
confine
incom
directors
sarahs
leonardo
##isively
##unci
##arthy
nerd
cuddle
bere
##etted
aless
thicket
pilgrim
ogre
ominously
catastrop
backtr
compat
everett
dunes
ensued
reproach
saxon
nighttime
##ylon
britain
nit
##adi
shu
ogg
abroad
medichi
ronald
alexs
archang
pedestal
ambros
scold
untie
blomkvist
##rine
clink
spor
literal
priorities
jup
lipped
repul
completion
##orial
compressed
decomp
annette
snatches
groomed
flab
resemble
rudely
garraty
stowed
dejected
marlon
gulping
callous
##oster
owes
##bodied
briec
onlookers
##lem
aligned
##ombs
##ancer
levana
gulps
kiddo
rund
joyous
cowork
kiev
overhear
misfort
brynn
snarls
hydra
refreshed
expansive
hiv
##illian
underfoot
sourly
##protected
haughty
firef
symph
murdo
lycans
sweets
vicar
malachi
undergrowth
aquar
weasel
##sions
prisc
savagely
distributed
overcame
tis
fritz
doorways
graciously
reborn
stevens
unanswered
brothel
##umper
mayhem
consulted
southwest
unaccept
arb
elated
paste
regine
antagon
dispersed
valeria
enthralled
mehi
swamped
wringing
rufus
stressful
brion
saloon
magnitude
scouting
##yo
##acer
truman
swoop
promoted
investigated
##walker
gert
receding
uno
assorted
infantry
##yield
feigning
tryin
idol
ahold
rhian
cauld
nibble
harbour
immersed
##pers
camilla
captives
rodeo
skeptically
##orph
province
linking
stagger
##enting
blizzard
prized
engineers
hosts
kenneth
55
dena
forese
advoc
unyield
parach
tolerance
flexible
hansum
gnawed
energet
regiment
creates
oppressive
##iya
##hs
trina
skyward
scofield
unload
seams
inmates
elegance
exhilarating
##stri
wraiths
endearing
xen
somethings
marika
snooping
clenches
##hammer
henrietta
cact
presenting
lottie
nand
##pipe
flam
sassy
dual
arctic
##shad
patton
agonized
smudged
latte
dispute
cullen
strongh
edinburgh
##ooo
twined
hefty
nigg
courte
2011
waltz
scolding
relay
##shi
crock
ayden
ib
peaked
patched
##placed
suburbs
spank
danni
balt
nazi
prettier
gaston
saturated
aa
gly
bethy
preference
nord
mew
doubting
bowen
discou
mortar
maneuvering
kinky
rump
##wo
walkie
##impy
stylish
prolonged
eris
strategic
fundamental
unyielding
hone
eduard
straightens
billowed
pulses
spiritwind
replying
dulled
hob
helplessness
diverted
viny
##eight
magpie
formality
communicated
witty
consistent
mache
retrieving
##vious
##erting
carve
##udges
pleasurable
musician
nil
wrinkle
singed
acquies
evel
vomited
unlucky
gauntlet
hamburger
ascension
perky
##cio
smudge
chet
fella
salander
esteem
snorting
pris
maroon
bastian
stanford
outpost
infle
lessened
regener
reef
##utable
myles
unatt
unprotected
reset
warfare
filtering
steeled
uncover
priscilla
##fires
##kk
soiled
dispose
##cules
arsenal
##rised
shudders
unscathed
lobster
unke
synch
asteroid
lasts
barest
portug
shackles
ursula
##orah
blair
liko
##angling
worldwide
fucker
georgina
withdrawing
murdoch
pesh
##ao
##dor
tucks
inferior
emil
defied
squatting
deputies
##watch
improm
##sels
archae
unconvin
##erys
kinderg
squashed
convicted
galloped
inadequate
seagull
pag
teagan
regions
lefoux
merciful
uriel
holed
lotion
bustle
barker
nuns
elongated
shun
artery
mila
emmett
faul
##oan
flares
admits
cushioned
cmon
##abel
pyre
oasis
##cier
prosecutor
relying
diseng
spee
freezes
stronghold
flound
distractions
##illery
##gee
##izers
falter
fulfilling
franks
publisher
maz
extends
convulsed
bam
andra
speared
territories
pim
arise
##ptu
greene
cammie
initiated
tilly
whoop
bret
fashionable
dori
accumulated
moust
##human
heartbreaking
splat
##etti
##aj
sheree
animosity
baley
spheres
surmised
sophomore
impromptu
mase
##nity
##ussed
logged
clarify
##mael
gape
##inth
skidding
folly
paragon
rooftops
rafters
saddened
jakob
boulevard
disarr
hellhound
bonnet
sidelong
antibiot
bale
scampered
adul
versions
attentions
chas
acrid
inflict
endeavor
skyscra
relaxes
ahhh
festivities
ashtray
bobb
touchy
unstoppable
##gd
vocabulary
catelyn
snark
minion
patriarch
dolphin
canceled
wifes
##actory
disad
ellas
captivated
foolishness
##eties
##addle
flopping
decorative
leggings
unacceptable
speeches
abide
morf
hotly
gutted
riddled
coroner
bingo
wanton
bryant
spiky
##ym
##itous
adoring
meadows
unkempt
recited
deple
axes
historic
##onis
##oter
confisc
##scott
##iences
physique
varied
mikes
persuasion
grieve
gawking
##sweet
##rove
embo
drooping
mandorallen
##eroom
residential
cents
degr
solidly
##lihood
##estine
relive
optimism
##cage
inert
sulf
factions
capabilities
incapac
vinc
chow
hallucination
insens
numbered
keirran
##acker
prodding
exams
wispy
necrom
fervently
dys
robed
trix
fuzz
praised
permeated
braydon
##bread
stevie
##ambles
numbly
44
transmitted
wedd
burner
estim
audition
pimp
##atable
spackle
moreover
trink
carda
##pour
##wer
epit
initials
alabama
richer
dreary
hologram
coconut
ct
##adder
vee
excav
greenish
provisions
neighbours
lilac
intervened
##urals
facedown
fluids
espress
bloodshed
eros
##ghus
orson
regaining
waning
churches
vinyl
##alis
hummer
unearth
fistful
kite
shol
expend
starboard
antis
briar
ebon
##lid
misplaced
meaty
cherish
reserves
opaque
terreille
hyperventil
janson
##zac
impaled
pulp
crowned
annalise
banister
cleansing
kong
##llers
foremost
musky
culpr
perceive
smedry
bhell
reflections
galile
bhelliom
##esse
surly
sorely
staked
priss
inclination
radius
ablaze
beaches
corro
fearghus
antonia
gangs
obedient
agatha
scaled
amended
opener
spirited
clarice
jostled
aure
iq
moose
lightening
wisp
sheriffs
doth
##xes
peac
redeem
schm
petting
##sticks
##bolt
spewing
vigilant
sce
meyer
raleigh
footman
grainna
dully
feist
trajan
galloping
aspirin
descendants
laird
48
##ags
slows
reform
trusts
injust
mechanics
bevier
dune
forfe
sergio
retail
cashier
gia
rasping
nuisance
celestial
crested
tirade
atreus
delectable
clumps
strat
pupil
conveyed
##atee
leanne
entranced
amplified
leona
blunder
diaper
matte
oklah
krista
daryl
beforehand
solving
weakening
attorneys
carrots
##otype
kaspar
garg
banked
arcad
cocoa
##cor
diagon
##ippers
supermarket
competitive
squadron
crutches
weir
couldn
eyri
heartily
davids
##heartedly
reen
pulsating
anatomy
raiders
sleepless
tynian
sixteenth
streetlights
markets
observations
deranged
pixies
inconvenient
zipping
quell
unrest
lyric
spectrum
stoned
clinical
blatantly
##cons
likelihood
lottery
venue
kayden
gwenna
methodically
mussed
myths
avenge
asyl
gramps
gunned
tiring
carver
incarn
etiqu
bounces
##uper
lectures
moira
faculty
dres
jc
ness
hermit
courier
nobility
bathrobe
traditions
##urred
spices
kneading
imperative
proclaim
##ono
claps
trashed
caw
admonished
billings
tantrum
watchers
maax
pudding
nikolas
alphabet
etiquette
testo
hoard
secondly
distantly
defer
##bags
forks
chattered
considerate
oklahoma
lumbered
##ppe
graffiti
testoster
kael
startle
perverse
bounding
lorna
zelana
insol
jerus
convict
scuttled
##war
##illo
handi
endang
assessed
indigo
specter
miz
##islava
##adas
floods
seasoned
trooper
markers
hecate
katelyn
lyle
hemp
chevy
romulus
myrtle
intox
crawford
expressing
foolishly
linoleum
##azzo
flirty
naming
##arina
clash
getaway
findings
gunman
erland
updates
erud
blas
##spective
benj
powerfully
##ricks
valleys
indignantly
dant
steaks
##regor
simplest
dinosaurs
testosterone
##adic
frodo
rhona
complimented
lumpy
vials
advisor
cacoph
zh
ascertain
##send
prohib
##plo
##ido
withhold
romans
logically
demetrius
perceptive
aggravated
seizure
earpiece
readings
naval
sketches
albret
##bet
infused
graying
bombing
revelations
fung
chort
allev
coraline
hellish
kata
appraising
300
kaele
mails
bloated
wafting
##iary
locke
parka
detector
ineff
sadeas
##condition
subjected
##amedes
estates
banned
wriggling
aro
pore
##rusted
thereby
contend
skitt
agreeable
cupcake
dismal
willem
disposition
##eing
ungu
vacc
envious
rectangle
sundress
riff
wreat
sloping
wroth
organizing
lorraine
barreling
wadd
raving
buzzer
teddie
drummer
inquisitive
cackled
welt
neville
specially
graphic
parched
smartest
coughs
escorting
spaceship
##birds
euphoria
oreg
fru
overrun
minho
worshipped
orbs
##space
magist
dispens
unlocking
trotting
stannis
poof
chassie
##icky
insuff
quizzically
##eed
radical
pitching
weaponry
branislava
mckie
lancaster
extravagant
##icent
##spread
norma
jamison
centers
cadeon
briony
tris
guff
bloodstream
hundredth
sleeveless
experimental
adela
cori
drab
spiraled
violation
mystics
crucifix
lowly
eddy
##unders
olds
confide
disposed
halves
huskily
##rates
reined
pastry
whims
writings
adolescent
imprint
shapeshifters
myron
smitten
lessen
crutch
vehemently
kaeleer
piqu
yarn
reagan
semin
skating
jerome
eventual
midsection
faceless
formerly
twentieth
belliger
sifted
concession
unacc
woe
squeaky
donny
sidestepped
##uels
##itone
##aths
cors
starters
flinching
unhooked
vividly
##ules
finance
petra
squeaking
nickamedes
cubes
registration
##atiable
inland
align
southeast
administrator
stutter
##alation
props
travers
colonial
contemplation
rejoined
leve
monstros
brutality
ministry
headlines
slunk
insatiable
berlin
yielded
biscuit
uri
##washed
##rec
##ights
unpl
sholto
encry
donuts
howd
specifics
whitley
blessings
repercus
##court
prescott
sewer
oui
gush
sard
anguished
scholars
crevice
yam
##iph
philosophical
handiwork
nast
tally
##mant
floats
admirable
dolphins
oregon
90
##agna
realising
teacup
wench
stumbles
##still
menus
astounded
rigged
porn
##ptuous
intro
##xual
upbr
arn
hells
henrik
oblige
vacated
researching
dors
plunder
sunb
gaent
##drops
preliminary
fes
##oto
##unct
##umbers
starvation
requirements
persuasive
rhen
##iard
fingering
decaying
dialogue
telescope
dac
##rust
reciproc
fudge
nes
carrow
rumored
witchcraft
ensured
ezrina
overdrive
aka
gidd
zook
##gments
thon
shedding
alain
loathed
skul
cuddling
morals
flyer
flickers
hammers
meekly
alayna
bleary
alphas
isis
##uned
gravy
darkling
unfriend
velv
envelopes
initiate
aphrodite
demure
abduction
kader
##agh
##arity
reiter
##fts
perish
believable
readying
noncom
galer
steadfast
privileged
avalanche
interpretation
dayton
detroit
johan
holstered
hodge
rouse
##try
pursuers
intrigue
allergic
##arin
leif
patrolling
awaits
##estion
hops
lawns
duration
assailant
adversary
alibi
##hey
##sts
grumble
willa
afterthought
unevent
veteran
pse
slush
christy
packets
mortality
##portant
separately
contempor
delirious
##asta
dehyd
departing
simplicity
disobe
farming
##insky
venus
unimaginable
wald
apo
dubiously
neglect
discharged
##yles
staining
impot
conflicting
mimic
rhiannon
beady
##elin
leila
creases
relaxation
folders
represents
dilapid
kimberly
wage
impart
draping
hench
aggressively
sifting
inexperienced
fiss
tod
breached
yea
conversational
unbuckled
machete
deadline
entrances
obligated
publishing
##faced
##sons
canine
connell
aerlid
39
provoked
enclosure
olympus
sputtering
curren
airy
racco
inquiring
steamy
mesa
irrespons
environmental
99
whome
abre
spasms
painkill
souven
pseud
##asso
indiana
discard
catastrophe
erudite
##lless
dozing
uncaring
faery
titus
asylum
kaderin
##mart
##mys
##first
persian
handcuffed
pedestrians
catacombs
udgd
baritone
shipment
ocks
havin
infested
gentry
faults
ensla
chords
crue
drak
bordering
lacing
##uli
mills
##alem
gritty
garde
eater
algar
cary
patterned
##oration
abortion
resounding
warring
mediter
##nings
mmmm
snore
squeals
thickness
dictated
espresso
whomever
nondes
queue
innate
goatee
##rag
intoler
underbrush
snowball
gnome
tristran
conventional
berser
upbringing
jakes
surp
crossroads
hooker
itchy
busied
childrens
##ombie
prophecies
mellow
recesses
nondescript
##oom
##nuts
##idences
altering
ordinarily
rebellious
fisherman
##mia
bluish
conditioner
spanking
meticulously
scalding
##enas
sye
martel
overweight
representatives
seductively
tethered
suspension
booty
contributed
pigeons
jupiter
moustache
endurance
forgave
##oda
removal
nefri
babble
emptying
deborah
residual
rundown
kindergarten
concede
madele
wrinkling
coping
rehearsed
##vs
##rob
##orthy
periodically
corrine
jeopardy
abomination
chord
##akis
sinful
rodney
scorpion
myka
diagram
domini
oceans
unholy
bogg
##olome
tablets
starra
banish
takin
hailed
##chy
overload
offending
assholes
victorious
grasses
chastised
lt
breh
mortgage
hostages
hollowed
financially
slithering
banners
enoch
utens
inspiring
contribute
intermitt
sparrow
deceived
beaumont
tand
ape
##helm
bulls
janelle
quarterback
##struck
klein
tzader
fidel
australian
feisty
mediterranean
##olomew
shrap
funn
authorized
profoundly
peephole
70
jaden
hurtled
intoxicated
##iri
##igod
unforgiving
rave
loot
simulation
ashland
superficial
owens
immature
captivity
slumping
keyed
sarssen
shocks
provides
turk
cultures
vito
agencies
##mmet
ignite
walnut
shrapnel
fused
##brew
imposed
aspir
ralphie
telepathically
##rm
##eria
clitor
steamed
payne
viable
remedy
jerusalem
##ucking
hastened
vitam
##through
strengthened
escorts
memorable
henderson
unimportant
uproar
veranda
fondness
dwarfs
bartholomew
wharf
aske
enduring
weightless
tormenting
diaz
intercepted
mccoy
cauldron
bair
guer
reveling
boris
shapeshifter
disarray
dilapidated
taint
distances
korsten
mairi
drowsy
##mik
overcoat
reflective
lester
##arez
downfall
weddings
hump
playboy
scrum
investments
conclude
affects
blistering
squab
contacting
sync
errol
placid
incorpor
chyna
lidded
##xus
mermaid
amal
amends
ribcage
swells
bitchy
bittersweet
stubbornness
ovor
sully
amma
maysie
aris
demar
sentries
mailed
unintell
recyc
overtime
slats
horrend
suspense
inquiries
initiative
rhodes
unab
joyful
tether
doubtless
professionally
trapdoor
shockingly
askew
anden
hare
##icas
igor
##urus
elis
counseling
##imeters
marveling
##iker
weirdly
mournful
quizzical
pd
##rac
##acha
ads
weighted
scooting
lenk
decadent
pamp
##lya
keypad
teller
inspire
karla
clusters
fertile
ixt
kou
rema
cerise
presidents
robotic
internally
rampant
##fing
##tu
scythe
acre
bamboo
haphazardly
hong
elsie
payments
correction
hammock
khuf
abbie
exclaims
cocaine
##onto
##bbs
selfless
##beard
marvin
divers
labels
reunited
interpreted
unfriendly
alonso
clinked
##amele
entirety
wildlife
lather
rauc
shelly
butters
julius
lunging
essay
exclusively
arson
gotcha
##cified
explicit
respite
enlar
firewood
revved
leftovers
doused
##wear
honda
owning
sofas
banking
railway
mingle
perd
screws
hollis
fledg
ceremonial
repercussions
overcast
marlene
192
jinny
withering
ludwig
##entive
brant
metro
inciner
deflect
syndrome
##10
##omer
soulless
encamp
prejudice
forsaken
hilda
tans
chaste
resided
schedules
myrnin
xy
##laz
drape
dresden
poop
##vals
isl
agape
quitting
graced
bugging
collars
malevolent
##itarian
snuggle
dignified
disagreement
dunk
gaut
trough
foes
hopper
humorous
superiority
treasured
uptight
##bare
##ouri
apprent
descriptions
cowered
accessible
unloading
kelp
waiters
honors
whimpers
covenant
lannister
##cibly
sigma
tuning
halter
appease
toen
bladder
nearness
threatens
portia
unshe
guiltily
bustled
genetics
kens
pegged
silhouetted
elephants
madeleine
decked
oranges
invaders
appropriately
absentmindedly
invitations
##aulting
cardigan
strangling
snicker
yay
##oro
herded
commod
shuttered
##byn
poems
oatmeal
traject
trudy
imperfect
fussing
apparition
moz
sacrificing
odrade
shayne
orcs
unob
rhyme
spoonful
enterprise
##uns
sparing
miners
farrell
deceiving
##oking
forked
foreplay
depicted
appreciatively
niche
unrecogn
obsessive
apolly
spewed
evade
distractedly
slyly
##string
brunt
recoil
knoll
prowled
rhetor
stave
chamele
invention
dine
ero
##pd
##nton
longingly
bagel
pickle
fleshy
dewayne
shrunk
addictive
tweed
insecurities
merchand
bens
poetic
belted
erich
tiredly
unheal
impeccable
guffaw
dans
##kah
shank
yeh
dampened
accusingly
cacophony
ixtab
##ursion
artillery
bosses
analyzing
##inence
tox
##gey
contours
affront
kristin
dungeons
misfortune
##hine
maus
deadpan
discont
portals
conceive
obligations
snowflakes
jacked
copp
mercilessly
barstool
##tta
##asi
forcibly
atrium
plop
headlong
desider
scalpel
flirtatious
sabotage
fict
informing
nicks
mountainside
antony
voluntarily
hypoc
stamina
carlo
hues
cheeky
##thening
gisbo
claustrophobic
edden
##oire
##eto
colette
ense
gazebo
geomet
dolores
imprisonment
##wit
sodden
quoted
equals
leathery
reflexively
##anks
wobbling
mael
seducing
mimicking
murgo
desktop
racking
representing
nasa
administrative
sette
detour
attracting
jokingly
twirl
tribute
alerac
chili
roiling
uncondition
helene
probable
bestowed
annias
activate
sundays
accomplishment
splintering
babysitter
mammoth
edible
ratty
kaleb
discharge
caretaker
tes
##list
bobs
ridic
exhibition
demented
sentenced
fredrik
duffle
riled
cupcakes
construct
adrien
reproduced
##pits
##othing
onstage
sorta
crowe
similarities
symphony
hars
##otto
babylon
printer
developments
keenly
chalice
ick
fees
marve
breaker
circulation
salina
astride
sakura
##hart
##cee
pods
##thirst
darmik
ravyn
viktis
pamela
cosmet
smothering
shaping
fullness
miscar
ports
richardson
toothpaste
paycheck
nach
inez
splinter
embank
moonlit
sparkly
jaik
glamorous
exceedingly
strengthen
versa
indulged
commissioner
unguarded
tint
##udgy
jabbing
nocturn
mottled
exorc
tench
radios
robber
##obel
##blade
##comes
vene
##bri
amira
helpfully
nixon
currency
vot
browns
##ramas
explorer
oiled
deni
snowm
welsh
lofty
xanthus
gallon
federation
volcanic
bacteria
null
judgement
forbes
riches
##sted
butted
unkind
elaina
pleases
columbia
indefinitely
##aters
outstanding
capped
bloodthirst
errant
joni
clamping
rachael
skid
##working
consultant
precarious
soundlessly
todays
berit
literary
initiation
resolutely
teri
heaviness
##mois
clitoris
aund
bungal
kab
##ellen
warns
repulsed
unbe
lyght
prudent
manned
amph
chee
extric
macho
professionals
eternally
ether
rightly
traumat
vents
##vio
onboard
knaps
alvin
sighted
identifying
hassan
##yards
minivan
treatments
rougher
eunuch
##fig
asmo
managers
posh
risa
candice
poodle
##stead
colliding
huffing
bristling
brawl
ungrate
docking
squel
brownie
portions
pauline
inquire
brazil
##alina
tib
gresham
chaper
cec
scowls
emerges
hight
flamed
windy
spokes
teases
unclen
baths
misgu
tarquin
sidelines
icing
lop
liability
premon
perv
relic
solutions
identities
prowess
peasants
blacksmith
uninvited
liken
##gerald
chauffeur
hanged
##hal
mademois
stragen
teasingly
unpacked
arcane
emphasize
pallet
craziness
vann
sovere
purses
morfyd
dented
##voc
##orable
outland
unfazed
astral
monotone
hoop
ont
##ulum
canister
tyrant
unborn
declaring
malachai
kold
morose
bankrupt
confronting
rivu
chirping
ashli
##kyo
eloise
##ologically
cowboys
velvety
##adors
assures
treading
inexplicably
divert
probability
forefront
seventies
unrelenting
targeting
fitzgerald
yos
spelling
snuggling
hicc
notified
flaunt
scots
stills
bleach
photographers
outwe
abusive
interse
claus
worriedly
personalities
juncture
makin
##nail
keg
apex
##iuml
accounted
dentist
manifested
unintention
squash
encrusted
tuna
athys
lans
rates
malfunction
donor
glimmered
toile
imply
alternating
limitations
socially
coils
incar
reconcile
zandramas
opal
heroin
akeld
dermot
wages
stately
##urrent
broth
conditioned
linus
greeks
misguided
wyle
outcro
nox
##epr
seeker
chiefs
announcer
##heg
##onna
##staking
##zeb
dawning
busting
negotiating
kadie
awards
dair
lak
omar
tellin
wracked
mai
bellowing
englishman
projection
innkeeper
religions
mythology
fencing
incessant
injustice
##oz
lilies
burton
jumpy
sabina
melts
transforming
celestra
mademoiselle
nylon
##cular
shil
hari
miy
##pen
thumps
perk
accents
sexier
daven
santino
enveloping
pauls
injection
incomprehensible
##ku
maturity
hedges
##adox
squirrels
asmodeus
##vity
potter
cosmic
newcomers
peregr
chute
scribbling
unimpressed
lino
##erable
digit
frosting
contraption
trespassing
gautier
shep
##opic
careers
charger
jarred
plaque
detachment
eardrums
akeldama
pard
feud
quotes
painstaking
dreamily
flatter
renata
paci
superhero
surreptitiously
sperm
finals
subside
robinson
janus
piqued
##antine
elk
treet
##iliation
diameter
barton
earthy
cruising
occurring
gleefully
dictate
vad
##arya
regent
yellowed
intrude
##stock
realities
potions
lurching
##atham
skirm
buyer
morales
centur
acquis
scruff
bjorn
blisters
replica
throes
autograph
dismayed
lasagna
##pheus
80
mp
athens
##asted
idling
crooned
##tti
##gi
flit
pasted
pett
thunderstorm
noncommitt
##urances
earring
kits
##azzled
##atelli
benjy
##ennes
enabled
glows
marqu
motto
##oya
einstein
flaps
##hendi
swivel
parshendi
antoine
eamon
overprot
dix
conducting
quantity
hettar
tavia
silencing
astur
nineteenth
##lash
##alus
chrys
##achus
##eme
earthly
prompting
blissfully
thoir
speckled
caulder
##upp
stank
plume
guill
specialized
storefront
clockwork
scrutinized
unhealthy
##idon
##alin
jolting
tempo
mercifully
##abus
lifetimes
##idious
mustard
dominate
rotation
saddled
powdered
ungrateful
bb
casimir
portfol
convoy
roff
##itte
incant
propag
percentage
corrupted
##bian
beel
stings
cli
warlocks
everythings
unworthy
reclined
grizzly
combing
portr
gardening
convuls
sizzle
knapsack
##bbery
furs
extinction
languid
proverbial
nandiuml
wylend
chate
carriages
partition
rockets
platoon
barbarian
influenced
caj
lowell
innocents
prospects
korbie
historian
unemplo
binder
hebrew
dea
loch
digits
##shire
fasten
greenhouse
##linn
torturous
lifeline
niko
liberal
swanny
tumult
wordless
preferring
43
transaction
pencils
mcgill
submarine
bloodthirsty
fumed
chival
assuring
intoned
issuing
dispos
outlines
unscrew
hubb
stepmother
darryl
encro
loretta
athlete
shiftertown
unbuttoning
cheerleaders
celtic
jamaica
cleo
wishful
fated
sloped
##tha
improving
mckenzie
resonated
affirmative
cess
##rain
unhing
remington
combine
##eting
clanged
clashed
##uled
switzer
giov
heaps
anheg
##balt
janna
##escri
prue
diapers
replaying
observ
lepage
tersely
lastly
fabian
politeness
verbally
yummy
conno
savitar
sparkles
congratulate
git
handler
lyall
odin
embankment
##pat
theod
crist
##boats
tyre
operatives
illuminate
refrained
reminiscent
jaelyn
##horn
asap
gond
placement
magrat
defect
cannons
makers
aha
calmness
betrothed
multic
possessing
teetering
openings
extinct
##ijin
orc
elayne
entice
ariyal
jeanette
twitches
drilling
owing
destroyer
disintegrated
synchron
jeth
robbing
recount
kyrie
navigated
replay
blindfolded
miniser
sparky
requirement
mulled
merchandise
authoritative
sulfur
peaches
strains
dialing
implement
edie
foreman
observant
jaylinn
craning
caldwell
oint
##caps
clanging
scoured
putrid
cabb
livestock
wheeling
toothy
parliam
lettuce
koldo
miniseries
affir
potted
chewy
otherworldly
uphill
clinking
strengths
clutter
deceive
vittoria
dul
glade
marriages
metrop
indie
caveman
zeroed
eagles
cylind
deploy
uneventful
iam
shing
sauc
outing
benign
##lando
gallant
internship
dorms
yang
##erv
##ndo
spru
talkie
factors
glimmering
templar
bickering
switzerland
overshad
##speople
mounts
unwitting
ogling
horrendous
##uzz
##din
undressing
overdue
trask
amnes
birch
pleasantries
critically
afore
##ands
lapse
qualify
vagina
cs
##mal
##uda
starry
adventurous
culprit
washer
downpour
titled
gat
usa
elen
camar
nehe
blust
distinction
panty
dustin
technicians
eileen
intest
damen
spotless
eighties
lethar
jumpsuit
weldon
margo
devised
unbidden
foss
mornin
occupying
dusky
commerce
joffrey
entries
namely
mags
temps
puncture
rustic
celebrities
purchases
shafts
residue
retracted
scour
rudy
overtake
coyle
eligible
foresee
traders
goody
wildfire
thorpe
geran
dangle
hopelessness
retaliation
##writer
toed
killings
commenced
indescri
suggestive
constantijin
baldur
unfurled
incarcer
cine
##uva
wholes
fob
grogg
jonathon
renowned
revolving
curtsy
unoffic
rall
##ateral
rupt
##rrrr
52
despond
purposeful
organizations
fumble
yon
reilly
enclave
hacker
downcast
recognizes
constell
tarin
trolley
components
zan
##igans
exceptions
occult
commentary
lazarus
characteristics
acknowledgement
##horse
##rect
##staff
incrim
trifle
toyota
bargaining
energetic
cruelly
imb
maternal
flooring
regulations
submitted
glenda
dismant
sotrakian
gwendolyn
thia
##isd
lettering
massachus
bridal
arcadian
skepticism
kresh
wu
smacks
plight
traiven
shameful
tinker
trajectory
humph
rations
##rene
elven
marlow
insub
revis
psi
carvings
votes
isobel
plow
##ittin
ambushed
bronwyn
carmich
mockingly
gany
jensen
rhun
chocolates
possessively
prowling
dissolving
preced
preceded
roadside
preferable
instruct
##har
lobe
greets
eases
danica
raina
suggestively
regroup
lament
pores
rucks
##ea
##roken
##mede
##eko
ipad
##lys
antiques
toasted
fountains
exaggerating
cthol
contemporary
dudes
downwards
finnie
newel
furrow
reveals
hollows
carpets
fixture
defenders
prettiest
angell
ellasbeth
banc
unbre
tours
lise
piet
nos
limestone
jamming
pinpr
debut
teleported
timidly
kindling
misunderstand
controller
creations
criticism
applications
aurel
beeline
girlie
detection
dampness
##inois
michele
massachusetts
oraden
glides
fateful
fictional
doct
alia
##abitch
holdings
replen
expressive
irresponsible
ruck
scaff
amory
parcel
learns
##which
exclamation
hinting
lint
sushi
cobalt
brimmed
cyb
ruthie
episodes
gah
##ilizing
rods
divin
karzac
reviews
mckean
groove
reynald
##amo
awoken
thickening
thinly
ranging
periphery
##wax
andr
checkpoint
statistics
##hemia
sardonic
disquiet
enslaved
##enc
toug
drinker
sultan
concoction
renegade
diction
abram
amster
raindrops
narrative
collapses
lumps
semic
joker
waterfront
bubbly
obscuring
toilets
goodwill
airline
adjustment
ensemble
warp
romain
auras
leering
commune
irate
janie
fellowship
raucous
##nu
whirring
ancestor
##amar
swish
reverently
##anthrop
manufactured
schemes
encampment
likeness
kerm
mystified
requesting
threadbare
linens
photography
zarya
glowering
laun
struct
nero
extermin
suburb
indoor
##vantage
stellar
ganymede
sable
##anders
##pted
sharpening
mismatched
randal
memorizing
75
awn
yess
docked
bedspread
bres
blakely
pong
##fed
##eremon
flair
irides
hatt
ceremonies
correspondence
dardennes
parliament
rina
##uba
purg
masquer
magnified
critias
tacky
shirleen
subdue
perfected
##ovs
inkling
gurgled
amsterdam
gats
atroc
boll
cleanly
effortless
blooms
shelley
registering
51
caster
##lave
##istinct
unceremon
splashes
bulldo
trembles
falon
vulgar
grams
dit
mw
chom
orth
illinois
casts
macie
101
territorial
bolting
newton
samuels
##iene
191
grandmothers
sylas
ober
arter
armory
fallout
courageous
valentina
raspberry
sacram
vastly
65
##hending
cland
##ouncing
sweaters
tendencies
scrolling
mourned
unnecessarily
hiram
tights
trademark
paragraph
quaking
brownies
cassius
duster
exquisitely
disadvantage
reeds
grimes
sorcery
tenants
##joyed
undist
unbroken
mythical
punctured
kanin
glumly
applauded
ridc
nudges
tipsy
beware
reviewing
chandeliers
enchantment
acoly
jovial
natalia
wriggle
extingu
dahlaine
armpits
dominion
winterfell
powell
lamely
bluepr
bough
##aved
##itives
arbit
indistinct
shapely
tonic
hypnotized
jaikus
seab
entangled
radiance
sloshed
cactus
ridcully
orion
twine
##awa
merge
autoc
hawthorne
weaver
accommodations
insecurity
ulf
##know
##driver
leech
believer
hitching
illicit
earths
ruthlessly
cavity
deployed
uncharacteristically
synthetic
grisly
discouraged
tokyo
seelie
##ulas
boyd
genie
sensuous
balm
ferns
germain
chlorien
lili
overalls
eluded
producer
cherie
levine
##ahkan
busily
condol
communities
menacingly
fancied
whitt
underc
faltering
ebb
womens
idris
decisive
drips
whisk
brighten
##incarn
ezek
rendering
pals
##erty
extrem
starlight
lorie
styric
unicorns
thermal
inconsp
cockro
gaia
pamph
researchers
losers
superstitious
forensic
divulge
loll
stubby
regulars
kidney
resistant
corey
ith
stip
shali
##uez
morality
spanned
eugeny
battering
mortain
karissa
jurisd
##atur
slob
ambitions
##breaker
##lot
marys
complement
dimity
proceeding
anthrop
peregrine
dogged
enam
untouch
humanoid
daft
vendor
hierarchy
vil
seaf
executioner
rah
shre
macrieve
##strum
accomplice
peppered
##powered
microscope
undetected
chateau
ji
##etr
reincarn
printing
suppressing
audibly
ferr
ranged
maryse
sexuality
intends
lodesto
unfastened
incompetent
##aele
overjoyed
download
angst
luv
clocks
assemble
stiletto
zeph
goli
thaddeus
prent
diandra
girth
sniffling
hologra
tys
##ayn
wha
greenery
notebooks
stiffening
eyeliner
contribution
condemn
unintelligible
sord
suella
grigor
ethics
casser
influential
octavia
unearthly
settee
cider
closets
##ials
emergencies
coastal
sarene
aedan
vise
vix
exuded
grappling
deflected
rite
##igor
repulsive
modeling
pearly
dynamic
hectic
##adar
cheaper
matron
graduating
irrevoc
tach
##cence
seers
locating
wildest
abnormal
mica
##bane
##urers
examp
##avage
petal
emblaz
decorate
aerial
segment
rogan
unident
perm
corral
townspeople
##uese
cloudless
##borough
hypothes
waggled
pompous
anak
##abra
meltdown
sustenance
cherek
##ivol
discourage
unsur
recommendation
thriving
hunkered
hine
##pre
suction
procl
swap
damaging
stomachs
##icial
##lfe
arom
grains
parental
smartly
handfuls
bluffing
incorrect
##western
unspeakable
apprentices
breakthrough
booker
unknowing
azrael
toenails
##rition
floppy
raja
garret
precinct
dwindling
clunk
swished
childlike
colleen
thornton
tangles
puzzling
terminated
manufacturing
gault
jumper
##llo
conster
scribe
monstrosity
lodestok
##cos
canines
##keepers
transmitter
omen
haruki
shutter
igniting
depot
erad
penins
feverishly
shriveled
chucked
handwritten
munching
rook
##aco
tamar
intentional
auron
lec
delusions
breadth
outcropping
carmichael
gur
##illas
marge
finances
summary
donated
lingers
velocity
tinkling
perished
empath
fervor
symbolic
bolton
escalated
daunting
foothills
keselo
confinement
ae
pist
##cre
ston
arrivals
nakedness
tango
motorcycles
swimsuit
jittery
aided
##derick
verified
proposing
dowager
deceptively
##owa
agile
##angles
cleanup
conspicuous
sculptures
prefers
bailed
dell
##aterial
buddha
exhilaration
##alla
buys
storyt
domed
fortified
confirms
strategically
omega
clem
commence
erm
ringer
writhe
bumpy
achievement
inquisition
outbreak
deja
dispar
lightweight
##ignant
veronique
portfolio
ander
lightheaded
cres
cyc
ajax
jubal
examples
##gent
deli
investors
feedback
cadmus
presidential
lanie
overprotective
kacey
handic
legisl
lawsuit
intruded
crocodile
uriah
##heon
knif
timeline
buoy
parole
brag
olympic
sordid
##emer
torped
##eza
jester
furtive
unbreakable
##itos
melee
spittle
interject
consens
mirage
sic
dolly
begs
escap
eyeball
pancake
vigh
howie
rubies
andreas
yor
anson
mutilated
misj
unde
dismount
crusty
vigholf
gums
siding
##othe
shush
embell
babysitting
plumbing
emblazoned
carth
sizing
coiling
repressed
broader
kaya
corporations
beverage
grolims
seaweed
eust
frannie
notions
havelock
loit
acco
besee
pisses
succeeding
shreve
##adys
hanson
freckled
thrumming
nect
comprised
nika
neighborhoods
deleted
##leneck
giovanni
helluva
polishing
merri
donut
audacity
cyr
encircling
rearranged
shreveport
frivol
abne
recite
lifelong
fireflies
kot
ocon
##ituted
##plete
paneled
bottomless
clouding
techs
carpenter
outf
glaze
remembr
carlotta
redheaded
resurrection
sax
anyones
curts
invari
coffins
azaz
boister
satyr
famine
metals
bundles
interrogate
junkie
inscription
dottie
nugg
unat
crem
duo
cracker
concub
lunar
boutique
gatsby
invariably
wann
beheld
abhor
barged
apost
katana
administer
flanking
enigmatic
parachute
saves
robyn
stripe
langley
coveted
##wash
anest
##rand
druid
abnegation
humb
##omir
cornel
furthe
builds
pharmacy
vultures
cliche
moretti
johann
riverbank
porridge
##hhhh
riddles
unpacking
##rail
clamps
flitting
##ructure
ferris
shushed
##ilin
teary
irritable
appliances
compensate
depleted
mausoleum
itzy
##agen
incentive
chested
spoons
bridger
abd
smiley
merrily
frenchman
coordinated
parasite
contingent
breslin
straddle
##obi
processes
fussed
undisturbed
##fth
para
panes
misgiving
stationary
unbal
enquired
linoge
consternation
hovers
generate
bellows
loras
mischievously
grubby
bungalow
collector
sacrament
jaded
##enberg
myrr
originated
rodrig
vengeful
rebuilt
shooed
inscribed
stilettos
petulant
jd
lago
rica
nola
agility
##istical
muddled
foundations
##cheon
petted
supports
utensils
clandestine
mt
##kick
sleeper
##announced
scarves
distribution
herbal
alias
loans
warms
duvet
projecting
characteristic
extraordinarily
diminish
allah
arist
bronte
unite
picket
ritcher
kowi
tiberius
hq
herman
buggy
##eemed
seniors
tapered
##ophagus
arabic
alleviate
jurisdiction
49
thre
perci
requiring
rhoan
rulers
kiersten
libid
shag
oral
shari
kyrin
tyrann
lynch
disobey
anomaly
furthest
tacked
imagin
discord
emilia
asserted
##shore
caste
audi
tailed
tsk
syllables
achilles
arced
canna
guit
bragging
undulating
coppery
tract
lup
navigation
dame
fias
##olgar
avril
##inesis
addolgar
sandal
balcon
suckled
sensitivity
armstrong
graph
triangular
battalion
pinn
presentable
popularity
strapless
interfered
imprinted
obliterated
##rof
soror
businessmen
toronto
dissu
phel
rumbles
jostling
portuguese
nets
rewards
##rique
peeta
specks
novice
misshap
recounted
harassing
workings
waistcoat
kendrick
decoration
leafy
smuggling
topple
soar
quake
unity
capp
worldly
bullies
maryellen
##enders
molding
skittering
marbles
hourglass
comforts
swears
gallows
defendant
erupting
##omething
hordes
gawked
##build
unceremoniously
##zers
##star
byes
phob
susceptible
blanketed
ugliness
nimble
orchestrated
tansy
toppling
revered
johanna
paperback
##otine
guise
harming
##clothes
shiloh
jot
looping
users
emiss
marrow
sneering
joyce
waitresses
rivan
pews
downstream
badger
fearfully
ledger
crawls
threading
mandatory
quirk
approvingly
misshapen
##oids
##afe
thunk
unannounced
coffees
bearable
gwyn
lionel
demean
dazzled
droop
cleavage
absol
immunity
##inia
nebr
horsemen
babysit
overstuffed
jal
fevered
nauseated
nymphs
amnesia
gael
chie
orlando
hardship
deformed
sentient
reminders
kenner
containment
unhappily
flanks
##atisfied
dwindled
uphold
accepts
boardwalk
cordial
praet
sensuality
boomer
rucksack
nectar
##gia
seeks
pastries
particle
warehouses
coalition
dissipate
diagnosis
##zebub
##fs
##inator
kneels
servers
sermon
urn
cheesebur
mikael
traitorous
dudley
unlim
swagger
##ques
irritate
humorless
reconn
patronizing
daydreaming
zarah
fiasco
88
wayden
crass
vandal
fugitive
marlin
mistrust
unbearably
oats
##bies
braces
endanger
futures
unfathom
##lake
##lamp
chay
antar
adamantly
dool
offhand
carpathians
enforcers
vendors
eons
thered
cigars
fetal
##orian
##ilo
sums
mineral
##grave
beefy
slabs
tapestries
nie
frazzled
instig
##iffed
indicates
increases
enforcer
slanting
biffy
shamed
##olia
foley
comeback
recuper
collabor
furrows
petro
appreciating
randi
unwind
belgarion
alchemist
beelzebub
##chs
exiled
traff
cataly
trespass
cobblestone
##cis
##leanna
##imore
moat
joss
jawen
ghleanna
venomous
hallucinating
overpowered
crusted
elector
profitable
weakest
lexy
dickhead
shimmied
feebly
uncharacteristic
stirs
celib
saucers
poth
pudgy
sludge
magd
ultim
consequently
sketched
rated
##into
##ario
greatness
cuc
fantasized
spontaneously
narcise
laurie
coworkers
ointment
kios
##gates
##ados
clamber
kitto
wineglass
restrictions
roasting
purgatory
rere
wiring
skunk
monop
masterpiece
dental
sneeze
matteo
dek
##psley
marj
passers
##fleur
pipp
uw
headfirst
bravo
boxed
##ignon
sangu
nazis
##cings
##hended
##ello
symmet
heaves
janitor
clowns
chieft
cinc
zee
##hn
jabs
hysterics
congressman
treetops
peninsula
dung
dials
##ordinate
hilltop
rumours
enormity
renting
mccarthy
fertility
rookie
xer
mosa
##thorn
elm
commando
dividing
gossiping
beggar
unrecognizable
abbi
##loat
##ocop
##pha
messes
crepsley
sternum
novelty
brecken
mould
raul
rooting
skimpy
squish
flowery
razvan
aversion
snowing
undes
jemma
lell
backbone
##ongru
lynnette
cecilia
rodriguez
##reens
coded
cobra
##eming
regis
turt
bianka
gargoyles
unwise
milled
dominating
impulsively
##ulity
piercings
mosquitoes
gaultier
kahn
blab
cancelled
archangel
gosp
leop
bras
regul
maximilian
gooey
parasol
drakkar
bs
alli
finesse
rethink
lexus
nauseating
coyotes
##this
primed
deepen
incongru
transit
unclear
buckling
cannibal
iridescent
headless
canv
swooping
crom
##appy
sensory
masking
lorcan
incidentally
hustle
mcgregor
lubric
henty
nehemia
headstone
resili
doubling
creativity
hangers
bellies
##naturals
rhythmically
antonietta
nadine
consumption
jj
tamed
theon
circe
championship
courteous
crescend
bombard
nephews
teetered
##ssed
delved
lapels
munro
evaluation
dislodge
##roft
upbeat
nobby
afloat
longsword
refere
generic
tep
softest
beneficial
bethanne
styles
inseparable
vladimir
##dled
spurted
##yt
##nard
tote
wobble
stupe
publication
dormitory
blandly
undeniably
##bearing
burdens
rooster
yuck
khakis
stinky
reclining
cobblestones
eyrien
##packs
chil
nicolai
representation
hendricks
diagnosed
loafers
pledged
seein
##reated
hoot
maldor
##locked
korean
bloodstained
gawk
rotund
tiresome
orientation
exploit
crisscrossed
chagrin
##zan
raoden
conversion
ticks
individually
implac
cursory
sos
flagg
madelyn
medics
flashy
possessiveness
##esha
skated
founder
patent
##terson
assisting
innue
intruding
meandered
duplicate
aet
sz
##stro
camaro
checkout
donate
absurdity
crystalline
aber
##eryn
##uckers
missouri
brands
supervision
unending
twelfth
diale
aphrael
hudd
evasive
ladders
surrendering
encouragingly
##yy
coaches
breastplate
muffins
compensation
whizzed
gnat
yasm
disloc
##uckle
guardsmen
connects
azure
##law
##icon
ascent
doze
##igious
##neum
wildflowers
regretfully
derry
rejoin
alinda
repent
passions
affixed
cripple
faz
andul
##urried
shins
proff
credential
tendons
rabbi
untouchable
kess
uselessly
tuition
bastion
baldwin
trumpet
supporters
messengers
channeling
forbidding
##abelle
protects
brightening
tunes
robust
titans
pallid
stealthily
philosopher
khufu
sorority
##ben
drains
soraya
controvers
antsy
masturb
marianne
zurra
andulvar
gong
devote
cashmere
perpetually
infrared
allied
plated
glower
##olitan
infid
schooled
##uca
erratically
antisept
##lap
dooms
isak
clones
##scale
supernaturals
hostel
clover
congratulated
mamma
privileges
capsule
larson
precipice
implo
viral
wanders
pentagon
speculate
lapsed
tic
thereof
necklaces
judgmental
concepts
vinegar
contentedly
forensics
tabloids
alligator
##kom
mids
pottery
hatchet
obstru
bulkhead
antibiotics
skittish
jave
reigned
downworld
collateral
geography
meaningfully
debrief
affections
obscen
unattract
misted
pneum
heaped
drastically
##anderth
chameleon
blob
laure
friendships
monstrum
camo
homesick
troublesome
hulk
bypass
retrospect
mone
pt
##ws
indirect
##odor
wetting
settings
karin
invisibility
autopilot
harassment
##akably
delia
buries
ezekiel
neanderth
unass
crowbar
dumbly
interrogated
skirting
unlimited
cincinn
suraj
pastel
ringo
bondage
axis
stacking
molecules
alerting
##cliffe
disposable
##hm
subl
bagged
mortification
tailor
clucked
peanuts
rancid
blaise
sovereign
##urst
saiman
drily
conversing
sniffs
hancock
flavored
richest
damnation
sanction
puzzles
dali
remnant
##orr
watcher
dribbled
rigging
jugular
turbulent
balconies
briefed
donation
incomplete
confiscated
manhand
slinging
strapping
readiness
photocop
railings
grandfathers
adjustments
ricocheted
hassle
shunned
snarky
nsa
##vik
assent
payroll
matts
unhurried
mogador
clancy
spong
twang
unrolled
sorren
sighting
lockdown
scrabbling
##ramatic
attributes
kink
wading
##icut
grants
##ictive
catali
milt
cambridge
automobile
cheerleading
guinea
cataliades
evernight
camryn
celina
goddesses
150
coyly
martyr
tard
android
##chairs
spines
museums
negotiated
brigade
dracula
amaranth
compel
stoked
taffy
maryland
##birth
jotted
lolled
acorn
##owski
businesslike
iceland
macey
perpetr
percival
##jamb
##elines
query
iran
richly
convulsing
sponsor
cag
jame
##sta
##rious
acoust
reposition
obel
chariot
bayou
##hemoth
kidnappers
pouty
disrespectful
##acie
##shift
charter
sonof
failures
jessamine
lengthened
accessories
vigorous
mulling
multicolored
##abre
visibility
paradox
##ricting
tenuous
hiber
##ooned
inaud
##cey
wors
paints
obeying
splendor
sulking
superstition
hein
pasty
windowless
hyg
investigative
bikers
scorch
harbored
cet
##bumps
entities
awash
ensuing
snickers
##stice
##umented
imple
calculation
rafferty
unsuccessfully
##jin
rees
firstly
lamplight
wares
genesis
encompassing
unhinged
sow
wilt
andie
emitting
trak
wines
upp
##sthe
dez
doorjamb
compos
padlock
gibson
earthen
subterranean
cincinnati
kro
heh
arche
wales
grail
motherly
fisting
heroine
vineyard
painkillers
ces
##inari
headmaster
domination
numbed
innocuous
stamping
oriental
lachlain
quartz
nita
shied
teg
remons
talkative
patrice
surrounds
constantine
qualms
delete
attributed
##wire
hispan
rechar
leav
disfig
##loading
labour
reverted
psychiatric
scuffle
ee
vika
spire
ardu
bandit
azale
rouge
perverted
phyll
attuned
striving
lansing
crescendo
sss
##cation
marque
highlands
splatter
hawkins
anonymity
lumbering
fian
##god
behemoth
brunch
winces
degener
hypot
journalism
fleece
fou
##bars
armpit
guesses
fitness
tremulous
mariju
reneeke
##eau
##eers
brina
airfield
normalcy
ferret
determinedly
cherub
nashville
adapted
cower
stacc
reent
girlish
baba
nursed
horatius
sakes
##ologies
casing
sticker
mythos
catering
yas
harem
##stons
pratt
cleaver
broker
shyness
##arias
wasp
steals
magda
endearment
mathematics
gibber
zedar
humbled
surn
##iation
##kinesis
##irie
overp
##lington
informant
hosting
##castle
geneva
##atters
fogged
craggy
wilf
prostitutes
strategies
marijuana
nen
ters
beaver
whoops
quince
simpson
camper
scandalous
leyna
monumental
lumines
cormel
dmitri
threesome
goings
avid
castor
cowards
commonly
clerks
manipulative
ao
nal
scoops
standoff
gathers
karate
impulses
cowardice
spurt
pyramids
davenport
doolittle
swel
sleigh
confid
firecr
daxton
poses
thumbnail
trainers
oooh
hawksworth
overreacting
rousing
##lady
stuttering
roving
blight
informal
offerings
drummond
astounding
torchlight
pewter
lagoon
libido
kand
zara
##imon
##unked
quiz
twit
gladys
corks
despicable
prede
possesses
trader
baltimore
rearing
appalling
blueberry
##laus
fortnight
juke
cowl
satisfactory
connecticut
ornaments
orphans
skiing
rer
##main
hairless
eleon
prairie
achingly
flawed
globes
dictator
spac
##aceut
monet
tarab
selma
selfishness
transferring
vegetarian
shackled
disinterested
smelt
pecs
enders
purge
devina
raptor
existent
prague
clientele
measurements
navigating
ponies
tarnished
stel
reop
##iless
panicky
incredulity
jaxxon
pallor
democracy
hild
chipper
preamble
peppers
reciting
protectors
garbled
depress
settlers
erasing
atticus
satellites
golem
madge
townhouse
dimp
communal
beran
feasting
krie
##vance
##block
enrique
metcal
benevolent
unpre
teachings
rejecting
gadgets
antiseptic
##icans
brewed
millicent
batya
proceeds
neglig
metcalfe
##eri
smel
gud
generously
politically
accelerating
martinez
bereft
xypher
chanced
helper
trund
dolmant
vetinari
outlaws
indescribable
gaming
commend
citys
genetically
viscount
46
callused
mayhap
humility
factories
woodland
norris
bulletproof
clasps
lavina
sullenly
pharmaceut
troopers
disembodied
unfathomable
##wine
coales
##ellan
redou
charmer
schiz
thirteenth
mentions
merlotte
aundy
hab
jody
posse
valiant
pups
knowledgeable
daneel
overhang
wendell
##lishing
tock
inked
beards
##irnoff
scouring
entra
burrow
ultras
economics
kermilla
##rative
birthdays
chamberlain
ingrained
dinged
wess
brandishing
engineered
storeroom
unseelie
fishermen
resourceful
credentials
cds
lir
##llis
terwill
wheeler
vikirnoff
stems
disconnect
yogurt
abundant
coer
crombie
delaying
default
hedden
unshed
provocative
izz
rau
speedy
contractor
wynn
subconsciously
bibl
infatuation
staccato
gant
backpacks
clank
histories
silhouettes
jeopardize
beranabus
##saw
allure
meddling
routines
cameraman
hoods
cooperative
sloshing
gully
noo
ananda
oracles
solstice
fato
flutters
luxa
scheming
rivulets
casserole
resilient
latham
##grove
##pace
watt
lightness
visage
electrified
sedative
taser
arendia
brou
vanc
vases
staged
saira
greys
goosebumps
unconvinced
boisterous
sublime
talbott
restoration
excursion
smokes
##odox
uttering
vibes
pilcher
##asting
remod
giorg
stocks
horsesh
inhales
soapy
hallucinations
parrot
nourishment
prissi
unopened
civic
gavril
bullying
pennies
undercurrent
##regn
agric
handhold
trades
emblem
floorboard
angelique
imploring
reverberating
templars
neomi
downing
phine
barbe
trendy
##chee
jennings
telekinesis
sobering
speculative
elys
remembrance
##otle
snipp
drills
milking
necessities
cocktails
teeny
interviewing
loner
bawling
mitt
blistered
underway
softens
colorless
battlements
cyber
ritcherd
terwilliger
utah
revive
bricker
flowered
participated
rhetorical
pharmaceutical
gist
loped
tav
vista
chops
lotus
banded
repairing
vitals
harsher
princeton
strutted
fungus
groggily
condolences
seafood
##makers
towed
bellamy
stiffness
competitors
##atched
##isand
elsp
discrim
sanctum
indulging
grainy
poole
##pshire
decan
workin
quickening
streetlight
succubus
humiliate
experimenting
infiltrate
bashed
##heric
timo
##xtures
squads
camis
rainbows
##they
volunteering
fenced
jingle
##lords
inept
nog
rollan
requis
undying
tae
tankard
carpeting
coastline
selecting
negotiation
raccoon
intestines
steed
chapters
salve
prevail
occupant
photographed
gurgle
unsheathed
fusion
pension
vash
godmother
mutant
propelling
clanking
unsurpr
wolfs
wilted
bronzed
arouse
unlit
desolation
steffor
tarabotti
pird
capability
wireless
bridie
dagd
prestigious
prosecution
hekat
heinous
liars
smattering
swishing
##coats
raided
gunning
macabre
cruised
sells
accentuated
lasci
troph
analyzed
unraveling
ailia
suzie
cobbled
##ako
siri
bastien
produces
smearing
stemmed
kear
rightfully
druze
calculate
snugly
marlowe
bins
yves
##klin
saga
trend
forgets
foreheads
docile
geary
administered
flabberg
agricult
tides
##hab
christie
ottoman
bim
jia
##aic
monolog
revolting
pavel
stinks
hippie
provinces
waxed
voye
ooze
modestly
glacier
demarco
nocturnal
gibberish
##overs
##jar
##inately
callista
standstill
pretentious
starter
operational
rivals
##powder
yow
finley
flecked
superb
lani
pawing
contrasted
commissioned
daxel
thrive
scooter
enlisted
##xing
exem
teab
manne
##ousse
##thon
ranked
costa
heirs
mariah
regional
paralysis
nonchalance
doomsday
##orked
livy
##ilib
elod
simmered
tumbler
trinkets
nebraska
predecess
spires
plots
formulate
accusatory
mercury
nellie
broadcasting
evacuation
rile
zuz
finlay
assimil
bullied
pathways
weirdo
deliveries
lulled
jethro
95
dour
rielle
retiring
groupies
lyka
huffs
##osexual
lug
##love
refocused
alexion
dimness
savvy
tsked
migraine
ado
mistral
scarier
##restrial
facil
foreigners
vasili
traumatized
phineas
##care
##amer
fins
severity
deference
richmond
basking
kristine
claudine
trophies
sizable
##yah
cutters
uncur
##zza
immari
spasmed
ebbed
giz
kiel
lok
indicator
bronco
roug
kris
composition
quickest
##plant
duly
misle
lesbian
weighs
ruffling
marek
pher
drunks
cellular
gend
karina
fetching
recruiting
vibrates
unattractive
avert
hos
##vre
shitting
roach
scaly
courting
branding
candor
birthmark
screwdriver
##lied
concier
trudging
##ggies
##zzled
penora
gentler
##ritus
estr
cosmo
##onous
usur
swapped
pending
shortest
extre
manageable
continental
icu
ranting
premonition
thames
damning
barbaric
mules
spindly
honeys
nath
##mout
##oras
stagn
upscale
fla
##ivate
catwalk
discoveries
resentful
frick
leered
offence
quoting
impregn
rapp
lowe
samara
panama
medusa
filip
kelvin
##dorin
peacock
lelldorin
bach
##rising
publish
ripper
mouthing
scurry
gourmet
advocate
hinge
teeming
scathing
collide
merging
scotty
delicacy
gramma
lashonda
vancou
54
cola
avon
merrick
vanqu
fruitless
journalists
gusts
crazier
aracia
##cedented
suffused
mums
pelted
rating
beech
##ardo
hurtful
##scape
librarians
fairytale
flattening
queensland
ail
dara
jasons
shanna
arum
brienne
urgit
conglom
##naro
##azaar
unprecedented
goon
floyd
##annas
charlies
allowance
grieved
absurdly
sorcerers
hiccup
##asa
brash
pinches
responsive
toiletries
shredding
unchanged
elodie
bade
gains
kom
##jured
##esting
mojo
barman
doubly
embar
scoots
sloan
ushering
theoretically
##aso
reopened
resorted
buick
frontier
burrowing
defying
stealthy
eyelid
astute
crippling
titanic
daisies
impotent
awning
hew
preach
fronts
millimeter
arresting
octop
athos
burglar
singsong
rambled
rv
yu
##fly
##blek
tenoch
documented
maneuvers
cindere
elspeth
concierge
##gaz
##anis
pointer
unve
barber
errors
unfl
haunts
gypsies
vampiric
blotted
baller
sharpness
bercel
margot
ornament
rocketed
ruckus
goliath
bercelak
soo
andrus
##owulf
overbearing
unn
giordan
runa
breeds
intensive
thirds
speculated
constrict
beggars
flabbergasted
##sec
spades
trident
delve
polic
membr
artie
ashby
sorrowful
rationally
ged
##stown
elton
mindful
latex
booking
hugely
henna
bombarded
sprouting
spouting
reiterated
jand
beowulf
arek
smudges
researched
ghastek
vancouver
atomic
mocha
manoe
##assion
hoist
mapped
squints
instantaneous
solidified
implored
gandalf
articulate
insensitive
unabashed
##tube
trog
##isson
kinder
universes
homest
gloating
azurd
zuzana
azurdee
teas
##orman
picky
fortunes
fablehaven
misjudged
##crew
frilly
topside
sandstone
hideout
impossibility
pretends
##ovable
credibility
arcs
postpone
holographic
turtleneck
beeps
isla
disarming
surfer
##ethy
tiredness
slutty
boiler
##cont
##idium
gunt
##ggled
emac
perkins
resuming
##nea
raiding
##onds
babes
targ
cottages
borys
ascending
harkat
walters
##shy
##ieties
besp
unclas
spluttered
bananas
adrenalin
taunts
arkadin
zealand
inflection
thib
scon
brok
cellphone
flyers
superman
lasers
chunky
##oxide
nicolette
cabbage
ix
##aderie
roped
grumbles
feelin
infernal
promote
maxine
judson
riots
exaggeration
retaliate
mallorea
andais
##rophic
carb
detritus
crisply
alternately
thura
calloused
snoo
venk
oversize
kiyo
cian
nicked
voting
vending
elix
gennaro
scrabbled
epide
zoom
disobed
conductor
forfeit
cecily
hekatah
kater
keening
invigor
cloths
dairy
bh
##good
backhanded
richter
slamm
erupts
fainting
camaraderie
comat
adler
wring
lucrative
networks
woolen
sketchy
hewn
braver
blondie
homer
brusquely
##cco
stint
abras
spouse
marse
##swell
shortage
choppy
ripred
thwart
turkish
ig
toothed
phara
trehan
##ibles
gunnar
macd
channie
crisscross
unbalanced
oar
yum
##terior
chave
plotted
conduit
cic
pc
##mination
teal
moff
boff
balked
adrift
seaside
lute
##oway
clack
relics
flea
browning
darien
blindness
hypocr
intricately
lestat
nehele
ultrasound
cillian
maud
pj
scrou
grotto
marches
gunpowder
preposter
fluent
hattie
aristotle
##wolf
notify
leena
elroy
resh
affinity
reservo
snotty
andarion
dictionary
magdal
greer
##gno
davos
filters
fanci
barnabas
mega
thwarted
sledgehammer
##cker
misinter
unsaid
##offs
gorilla
gullible
metaphys
sausages
##wel
##urring
trout
swath
applies
melisand
featuring
##strate
##imentary
derision
disciplined
misgivings
hypocrite
mouthpiece
footed
countdown
sedai
falonar
sonofabitch
nagged
##worm
progression
handset
assed
smartass
borderline
pedestrian
krystal
hil
##onal
warr
serp
princesses
hampshire
bolder
apparatus
indulgent
oils
reic
slowness
minnes
executives
nigh
##emus
snoop
jerrick
debil
shamelessly
bindings
weirder
magistrate
itiner
evaded
##marked
thrived
overseer
impersonal
demolished
jus
zem
##mies
##tus
##eep
blub
talbot
departments
vacations
hamper
reconsid
dagdron
ike
teth
##may
##cade
enable
prefect
belied
##eka
irons
dispel
rashel
contradiction
rapture
manoeuv
##vic
heals
walsh
calories
prediction
##holm
ethel
jarrod
fantasizing
poseidon
basilica
dah
alvar
wails
phony
humank
schooling
rache
pentagram
unsuccessful
catalyst
mire
swed
curator
humve
honked
arturo
spoiling
pansy
indulgence
invaluable
kizzy
##fa
##fles
mango
prospective
##ifier
tenses
bearer
governors
coincidences
stamps
prisons
catfish
##ogram
christiana
borrowing
gordy
airplanes
aristocratic
##uration
snare
snigg
charitable
thrash
granby
glittery
brutus
##lful
slink
takeout
airship
subscri
angeline
postcard
impervious
abbott
gustav
##nasium
perilous
pail
##apha
quot
##berty
morsel
conform
redder
suites
archaic
commenting
medicines
imperceptible
kouwe
herds
dianna
blackwell
incub
sprinkling
solin
vern
temperament
53
insc
stero
frak
surrog
custod
freddie
gymnasium
comatose
woof
zor
##wart
amethy
probation
##loch
bulger
jeanine
pitts
cinderella
##icular
loosed
teard
stringy
theatrical
recollect
everlost
hinev
pharaoh
pess
sacha
expon
hairst
minding
minna
honking
julien
volt
impercept
hither
##vian
##ndan
traips
sneers
##real
whiny
friar
quil
cramps
windpipe
darwin
##romagn
chugged
sulk
catastrophic
##iens
##lamps
##haw
soundless
skyscrapers
kheld
pining
budding
musings
informs
wanderer
georges
oaths
erika
aftershave
kheldar
##gel
##iris
feign
conception
##ccas
penance
puberty
dynasty
pherom
bf
pampered
tash
##21
##organ
teaches
moot
hoff
continual
##ogical
mural
townsend
booke
scragg
wester
carlton
longh
marsali
outwardly
forrest
torres
garish
thumbing
senor
rifled
ensore
sneezed
semicir
policies
breakers
annas
gradual
hackles
cortez
nostalgia
misha
pter
##kai
forte
poisons
fifteenth
pushy
shelters
eruption
youths
lecturing
relinquish
zones
##warm
rewr
suede
loathe
##quately
collared
cartel
unhappiness
rebuilding
naturedly
##pto
sci
furrowing
puking
electro
pandemon
tahoe
lectured
gilt
##comb
youtube
herbert
painless
geograph
taill
tentacle
ramming
decrepit
brochure
kare
morgen
harbing
buckles
apologise
wilhelm
automated
180
kaleid
dasen
whooshed
unapp
bedpost
magi
milan
##onsequ
nathanial
washroom
seventeenth
burdened
aurelius
humankind
ryans
savag
alternatives
befudd
marginally
homestead
##kees
livel
prided
geld
undec
fatigues
aldur
##buds
biblical
##ete
untamed
careening
kisser
donatelli
ambig
thundercl
emeralds
navigator
bots
##core
kneaded
firms
daybreak
platforms
hawaiian
theodore
tersa
fick
##hened
didna
abode
teap
##bek
heartedly
prote
mutated
chainsaw
trenches
zam
livin
pox
scound
##issas
muld
disarmed
famished
quicken
trav
editing
darice
suitably
engulfing
valefar
toaster
stitching
##elic
dios
assu
singers
lightsong
branched
stereoty
kher
conan
regime
shits
croiss
##uchik
ancestral
unzip
cackle
phenomenal
tiara
ctuchik
##yi
paxton
elevent
galactic
participating
coordinate
pruett
##isi
##ssard
scoring
##iba
listener
courtes
suckling
habitat
gangly
guitars
dimpled
timeless
mohawk
disable
jodie
funer
equilib
basia
##who
turb
suspecting
dast
kia
och
##iler
fender
grem
entrusted
paulie
rampage
##isle
pha
jendan
effing
physi
methodical
orchid
uninterested
hyperventilating
tyson
##tical
##78
arvil
canary
joie
caly
relg
cleaners
limbo
electromagn
daniela
octave
##athetic
exce
manure
viscer
laughable
tywin
penchant
deserving
embry
dispassion
foothold
emaciated
reichen
liss
nomi
hermes
##elike
wouldn
pokes
impose
indisp
milady
berger
##aaa
vitality
architectural
outfitted
imperceptibly
##enstein
severing
festive
fundra
taco
pummeled
tolnedran
drell
trac
relating
inconsequ
wrappers
roadway
easygoing
grays
macallister
abandonment
morpork
begrudging
hottie
jp
niles
oisin
howell
swab
surges
snuffed
misbe
malin
savages
educational
dwarfed
suffocate
jiggled
curtsied
broussard
##su
##nos
##chos
alg
droned
farf
accessed
babbled
mimbre
gaudy
##escence
treadmill
##fu
##aus
whel
impet
easel
beretta
selves
grooms
expansion
immigration
ultimat
eleventh
lending
norse
julianna
moderate
sherlock
christophe
patriots
aggravation
undertone
waddled
incantation
kassie
##wich
##anet
slashes
##inski
sprite
epitome
roiled
slum
dracon
attain
napping
vanishes
derel
meandering
obelisk
preposterous
atone
downloaded
grub
belg
rungs
retic
whitey
danish
##zzling
lyon
buzzes
baya
plywood
druzeel
##emie
realisation
woody
weirdness
buyers
skillet
rams
ravenwood
garrick
minnesota
willard
reducing
magister
tearful
gabriels
revolutionary
camisole
baz
piggy
##course
chum
##osph
grend
detested
splot
fucks
swipes
stimulation
omelet
korea
waffle
unshaven
luring
doren
oppose
casinos
condens
nickel
travellers
logistics
grooves
proffered
##bis
tohr
nevin
sentiments
regretful
joshs
cynic
chatty
nuzzle
smears
bomber
puss
meera
blackout
varn
mcd
holler
annabel
bobbi
unwittingly
fianc
ery
kost
aleister
diners
boob
hughes
##worlder
crazily
ci
kiz
##reth
intermin
paolo
kingston
extras
##meas
magicians
senators
rebelled
recipes
cawley
bain
wen
##irth
contri
prag
lunches
crispin
pivot
eclips
unavoid
blanche
##udi
charis
sensei
disciple
translator
squawked
hort
pertain
strait
sampson
pantheon
prosperity
lykae
seor
detained
fairchild
testicles
racist
whiteness
rudeness
parameters
sugary
##cas
##dspe
##00s
feroc
animalistic
gloriously
whirlpool
woozy
noooo
shading
wilds
trolloc
hindsight
mathematical
axton
bong
kash
##cans
##enta
clause
swamps
mudd
impish
aww
redund
imported
volition
complication
warranted
inscr
##hirt
##20
morrigan
givens
jeffery
temperance
emailed
inebri
counterpart
maren
nefar
chases
timbers
brice
amys
stele
puny
contractions
excellency
annoyingly
fulfillment
disrupted
bulbous
discernible
slugs
meats
backdoor
brann
hooted
firepower
##amese
cleanse
popul
marketplace
gauging
windsor
tribun
grooming
addicts
portrayed
pion
sere
##ocus
handlers
loudspe
filmed
beths
rebound
revolved
carniv
hoops
##allo
farzi
[...]
